[PAD]
[UNK]
[CLS]
[SEP]
[MASK]
!
"
#
$
%
&
'
(
)
*
+
,
-
.
/
0
1
2
3
4
5
6
7
8
9
:
;
<
=
>
?
@
[
\
]
^
_
`
a
b
c
d
e
f
g
h
i
j
k
l
m
n
o
p
q
r
s
t
u
v
w
x
y
z
{
|
}
~
¡
¢
£
¤
¥
¦
§
¨
©
ª
«
¬
®
¯
°
±
²
³
´
µ
¶
·
¸
¹
º
»
¼
½
¾
¿
×
ß
æ
ð
÷
ø
þ
đ
ħ
ı
ĳ
ĸ
ł
ŉ
ŋ
œ
ŧ
ſ
ƀ
ƈ
ƌ
ƒ
ƕ
ƙ
ƚ
ƛ
ƞ
ƣ
ƥ
ƨ
ƫ
ƭ
ƴ
ƶ
ƹ
ƿ
ǀ
ǁ
ǂ
ǃ
ǆ
ǉ
ǌ
ǝ
ǥ
ȝ
ȡ
ȣ
ȥ
ȵ
ȶ
ȷ
ȸ
ȹ
ȿ
ɀ
ɂ
ɇ
ɋ
ɍ
ɏ
ɐ
ɑ
ɒ
ɓ
ɔ
ɕ
ɖ
ɗ
ɘ
ə
ɚ
ɛ
ɜ
ɝ
ɞ
ɟ
ɠ
ɡ
ɢ
ɣ
ɤ
ɥ
ɦ
ɧ
ɨ
ɩ
ɪ
ɫ
ɬ
ɭ
ɯ
ɱ
ɲ
ɳ
ɴ
ɵ
ɷ
ɸ
ɹ
ɻ
ɼ
ɽ
ɾ
ɿ
ʀ
ʁ
ʂ
ʃ
ʇ
ʈ
ʉ
ʊ
ʋ
ʌ
ʍ
ʎ
ʏ
ʐ
ʑ
ʒ
ʔ
ʕ
ʖ
ʘ
ʙ
ʚ
ʛ
ʜ
ʝ
ʞ
ʟ
ʠ
ʣ
ʤ
ʥ
ʦ
ʧ
ʨ
ʮ
ʯ
ʰ
ʱ
ʲ
ʳ
ʴ
ʵ
ʶ
ʷ
ʸ
ʹ
ʺ
ʻ
ʼ
ʽ
ʾ
ʿ
ˀ
ˁ
ˆ
ˇ
ˈ
ˉ
ˊ
ˋ
ˌ
ˎ
ˏ
ː
ˑ
˓
˗
˘
˙
˚
˛
˜
˞
ˠ
ˢ
ˣ
ˤ
˥
˦
˧
˩
˭
ˮ
˳
˹
˺
ͱ
ͺ
΄
α
β
γ
δ
ε
ζ
η
θ
ι
κ
λ
μ
ν
ξ
ο
π
ρ
ς
σ
τ
υ
φ
χ
ψ
ω
ϕ
ϙ
ϛ
ϝ
ϟ
ϡ
ϣ
ϧ
ϩ
ϫ
ϯ
ϰ
ϲ
ϵ
϶
ϸ
ϻ
а
б
в
г
д
е
ж
з
и
к
л
м
н
о
п
р
с
т
у
ф
х
ц
ч
ш
щ
ъ
ы
ь
э
ю
я
ђ
є
ѕ
і
ј
љ
њ
ћ
џ
ѡ
ѣ
ѥ
ѧ
ѩ
ѫ
ѭ
ѱ
ѳ
ѵ
ѹ
ѽ
ѿ
ґ
ғ
ҕ
ҙ
қ
ҝ
ң
ҧ
ҫ
ү
ұ
ҳ
ҷ
ҹ
һ
ӄ
ӈ
ӏ
ә
ө
ӷ
ԍ
ԛ
ԥ
ա
բ
գ
դ
ե
զ
է
ը
թ
ժ
ի
լ
խ
ծ
կ
հ
ղ
ճ
մ
յ
ն
շ
ո
չ
պ
ջ
ռ
ս
վ
տ
ր
ց
ւ
փ
ք
օ
ֆ
և
א
ב
ג
ד
ה
ו
ז
ח
ט
י
ך
כ
ל
ם
מ
ן
נ
ס
ע
ף
פ
ץ
צ
ק
ר
ש
ת
װ
ײ
׳
״
،
؟
ء
ا
ب
ة
ت
ث
ج
ح
خ
د
ذ
ر
ز
س
ش
ص
ض
ط
ظ
ع
غ
ؿ
ـ
ف
ق
ك
ل
م
ن
ه
و
ى
ي
٠
١
٢
٣
٤
٥
٦
٧
٨
٩
ٱ
ٹ
پ
ٿ
څ
چ
ڈ
ژ
ښ
ڠ
ک
ګ
ڬ
ڭ
گ
ں
ھ
ہ
ۇ
ی
ێ
ې
ے
ە
۞
۶
ܐ
ܒ
ܓ
ܕ
ܗ
ܘ
ܙ
ܚ
ܛ
ܝ
ܟ
ܠ
ܡ
ܢ
ܣ
ܥ
ܦ
ܨ
ܩ
ܪ
ܫ
ܬ
ݢ
ހ
ރ
ބ
ކ
އ
މ
ލ
ޏ
ސ
ޱ
ߊ
ߋ
ߌ
ߍ
ߎ
ߏ
ߐ
ߒ
ߓ
ߔ
ߕ
ߖ
ߗ
ߘ
ߙ
ߚ
ߛ
ߜ
ߝ
ߞ
ߟ
ߡ
ߢ
ߣ
ߤ
ߥ
ߦ
ߺ
ࠀ
ࠄ
ࠅ
ࠓ
ः
अ
आ
इ
ई
उ
ऊ
ऋ
ए
ओ
औ
क
ख
ग
घ
ङ
च
छ
ज
झ
ञ
ट
ठ
ड
ढ
ण
त
थ
द
ध
न
प
फ
ब
भ
म
य
र
ल
ळ
व
श
ष
स
ह
ऽ
ा
ि
ी
ॉ
ॊ
ो
ौ
ॐ
।
॥
०
१
२
३
६
ং
ঃ
অ
আ
ই
উ
এ
ও
ক
খ
গ
ঘ
ঙ
চ
ছ
জ
ঝ
ট
ড
ঢ
ণ
ত
থ
দ
ধ
ন
প
ব
ভ
ম
য
র
ল
শ
ষ
স
হ
া
ি
ী
ে
ৈ
ৎ
ৰ
ৱ
৳
ਃ
ਅ
ਆ
ਇ
ਈ
ਉ
ਊ
ਏ
ਐ
ਔ
ਕ
ਖ
ਗ
ਘ
ਙ
ਚ
ਜ
ਝ
ਞ
ਟ
ਡ
ਢ
ਣ
ਤ
ਥ
ਦ
ਧ
ਨ
ਪ
ਬ
ਭ
ਮ
ਯ
ਰ
ਲ
ਵ
ਸ
ਹ
ਾ
ਿ
ੀ
ੜ
੧
੨
ੲ
ੳ
ੴ
અ
આ
ઈ
ઉ
ઋ
ઍ
એ
ઑ
ક
ખ
ગ
ઘ
ઙ
ચ
છ
જ
ઞ
ટ
ઠ
ડ
ઢ
ણ
ત
થ
દ
ધ
ન
પ
ફ
બ
ભ
મ
ય
ર
લ
ળ
વ
શ
ષ
સ
હ
ા
િ
ી
ો
ଂ
ଅ
ଉ
କ
ଗ
ଜ
ଣ
ତ
ଧ
ନ
ପ
ବ
ମ
ର
ଶ
ସ
ା
ୀ
େ
ஃ
அ
ஆ
இ
உ
ஊ
எ
ஏ
ஒ
க
ங
ச
ஜ
ஞ
ட
ண
த
ந
ன
ப
ம
ய
ர
ற
ல
ள
ழ
வ
ஸ
ா
ி
ு
ூ
ெ
ே
ை
ఁ
ం
ః
అ
ఆ
ఇ
ఉ
ఎ
ఐ
ఔ
క
ఖ
గ
చ
జ
ఞ
ట
డ
ణ
త
ద
ధ
న
ప
బ
భ
మ
య
ర
ల
వ
శ
స
హ
ు
ూ
ృ
ౄ
ಂ
ಅ
ಆ
ಇ
ಈ
ಉ
ಊ
ಋ
ಎ
ಏ
ಕ
ಗ
ಙ
ಚ
ಜ
ಟ
ಠ
ಡ
ಣ
ತ
ಥ
ದ
ಧ
ನ
ಪ
ಬ
ಭ
ಮ
ಯ
ರ
ಱ
ಲ
ಳ
ವ
ಶ
ಷ
ಸ
ಾ
ು
ೂ
ೃ
ೕ
ೖ
ೞ
ೠ
ം
അ
ആ
ഇ
എ
ക
ഗ
ച
ട
ണ
ത
ദ
ധ
ന
ഩ
പ
ഫ
മ
യ
ര
റ
ല
ള
വ
ശ
സ
ഹ
ഺ
ാ
ി
ീ
െ
േ
൧
൨
൩
൰
ൻ
ർ
ൽ
ං
ඃ
අ
ආ
ඇ
ඈ
ඌ
ඔ
ක
ඛ
ග
ච
ඤ
ඥ
ඩ
ණ
ත
ද
න
ප
බ
ම
ඹ
ය
ර
ල
ව
ශ
ෂ
ස
හ
ළ
ෆ
ා
ැ
ෑ
ෙ
ෛ
ෟ
෴
ก
ข
ฃ
ค
ฅ
ง
จ
ฉ
ช
ซ
ฌ
ญ
ฎ
ฏ
ฐ
ฑ
ฒ
ณ
ด
ต
ถ
ท
ธ
น
บ
ป
ผ
ฝ
พ
ฟ
ภ
ม
ย
ร
ฤ
ล
ฦ
ว
ศ
ษ
ส
ห
ฬ
อ
ฮ
ฯ
ะ
า
ำ
฿
เ
แ
โ
ใ
ไ
ๅ
ๆ
๏
๒
๔
๕
๗
๘
๚
๛
ກ
ງ
ຈ
ຊ
ທ
ນ
ມ
ລ
ວ
ອ
ຮ
ະ
າ
ແ
་
ཀ
ཁ
ག
ང
ཆ
ཇ
ཏ
ཐ
ད
ན
པ
བ
མ
ཚ
ཛ
ཞ
ཟ
འ
ཡ
ར
ལ
ཤ
ས
ཧ
ཪ
က
ခ
င
ဆ
ဇ
ည
တ
ထ
ဒ
ဓ
န
ပ
ဖ
ဗ
ဘ
မ
ယ
ရ
လ
သ
အ
ါ
ာ
ေ
း
ျ
ြ
ၚ
ა
ბ
გ
დ
ე
ვ
ზ
თ
ი
კ
ლ
მ
ნ
ო
პ
რ
ს
ტ
უ
ფ
ქ
ღ
შ
ც
ძ
წ
ხ
ჯ
ჰ
ᄀ
ᄁ
ᄂ
ᄃ
ᄄ
ᄅ
ᄆ
ᄇ
ᄈ
ᄉ
ᄋ
ᄌ
ᄍ
ᄎ
ᄏ
ᄐ
ᄑ
ᄒ
ᅀ
ᅡ
ᅢ
ᅣ
ᅥ
ᅦ
ᅧ
ᅨ
ᅩ
ᅪ
ᅬ
ᅭ
ᅮ
ᅯ
ᅱ
ᅲ
ᅳ
ᅴ
ᅵ
ᆨ
ᆩ
ᆫ
ᆮ
ᆯ
ᆰ
ᆷ
ᆸ
ᆺ
ᆻ
ᆼ
ᆽ
ᆾ
ᇀ
ᇁ
ᇂ
ሀ
ሁ
ሂ
ሃ
ህ
ለ
ላ
ል
ሕ
መ
ሚ
ማ
ም
ሣ
ሥ
ሩ
ሪ
ራ
ር
ሮ
ሰ
ሲ
ሳ
ሴ
ስ
ሻ
ቀ
ቃ
ቅ
ቆ
ቓ
በ
ቡ
ቢ
ባ
ብ
ተ
ታ
ት
ች
ነ
ኒ
ና
ን
ኖ
አ
ኢ
ኣ
ኤ
እ
ከ
ካ
ክ
ወ
ዊ
ዋ
ው
ዓ
ዕ
የ
ዩ
ያ
ይ
ዲ
ድ
ዶ
ጀ
ጅ
ጆ
ገ
ጊ
ጋ
ግ
ጎ
ጠ
ጣ
ጥ
ጭ
ጮ
ጸ
ጻ
ጽ
ፍ
ፐ
፠
፨
ᏹ
ᐃ
ᐄ
ᐊ
ᐍ
ᐏ
ᐗ
ᐠ
ᐢ
ᐣ
ᐤ
ᐦ
ᐯ
ᐱ
ᐳ
ᐸ
ᑉ
ᑎ
ᑐ
ᑕ
ᑗ
ᑦ
ᑫ
ᑭ
ᑯ
ᑲ
ᒃ
ᒋ
ᒌ
ᒡ
ᒣ
ᒥ
ᒧ
ᒨ
ᒪ
ᓀ
ᓂ
ᓄ
ᓅ
ᓇ
ᓈ
ᓐ
ᓗ
ᓘ
ᓚ
ᓪ
ᓯ
ᓱ
ᔅ
ᔑ
ᔨ
ᔫ
ᔭ
ᕈ
ᖃ
ᖅ
ᖓ
᙮
ᚃ
ᚐ
ᚔ
ᚢ
ᚦ
ᚨ
ᚩ
ᚪ
ᚬ
ᚱ
ᚲ
ᚴ
ᚹ
ᚼ
ᚽ
ᚾ
ᚿ
ᛁ
ᛅ
ᛉ
ᛋ
ᛏ
ᛒ
ᛖ
ᛚ
ᛟ
ᛦ
᛬
᛭
ᜇ
ᜐ
ក
ខ
គ
ង
ឆ
ដ
ឋ
ណ
ត
ថ
ទ
ន
ប
ព
ភ
ម
យ
រ
ល
វ
ស
ហ
អ
ឧ
ា
េ
ែ
ៃ
ះ
០
១
៧
៨
៩
ᠠ
ᠨ
ᠯ
ᠰ
ᠶ
ᡥ
ᡳ
ᣙ
ᯀ
ᯅ
ᯖ
ᯬ
ᴀ
ᴄ
ᴅ
ᴇ
ᴏ
ᴗ
ᴛ
ᴜ
ᴢ
ᴥ
ᴳ
ᴴ
ᵄ
ᵉ
ᵊ
ᵋ
ᵍ
ᵑ
ᵒ
ᵭ
ᵮ
ᵯ
ᵰ
ᵱ
ᵲ
ᵳ
ᵴ
ᵵ
ᵶ
ᵷ
ᵹ
ᵻ
ᵽ
ᵾ
ᶁ
ᶂ
ᶃ
ᶄ
ᶅ
ᶆ
ᶇ
ᶈ
ᶉ
ᶊ
ᶌ
ᶍ
ᶎ
ᶏ
ᶐ
ᶑ
ᶒ
ᶓ
ᶔ
ᶘ
ᶙ
ᶛ
ᶟ
ᶢ
ᶣ
ᶬ
ᶭ
ᶮ
ᶯ
ᶰ
ᶳ
ᶵ
ᶶ
ᶸ
ᶹ
ᶺ
ᶻ
ᶼ
ᶽ
ẚ
ẜ
ẝ
ẟ
ỽ
ỿ
᾽
᾿
῾
‐
‑
‒
–
—
―
‖
‘
’
‚
‛
“
”
„
‟
†
‡
•
‣
․
…
‰
‱
′
″
‴
‹
›
※
‽
‾
‿
⁂
⁄
⁇
⁈
⁉
⁊
⁑
⁓
⁔
⁙
⁚
⁰
⁴
⁵
⁷
⁸
⁺
⁻
ⁿ
₁
₂
₃
ₓ
ₕ
ₖ
ₛ
ₜ
₠
₡
₢
₣
₤
₥
₦
₨
₩
₪
₫
€
₭
₮
₯
₱
₲
₳
₴
₵
₷
₸
₹
₽
₾
⃀
ℂ
℃
℅
ℍ
ℏ
ℓ
ℕ
№
℗
℘
ℙ
ℚ
ℛ
ℝ
℞
℟
℠
™
℣
ℤ
℥
℧
℩
℮
ℰ
ℱ
ℳ
ℵ
℺
ⅎ
⅓
⅔
⅛
⅜
⅝
⅞
ⅻ
ↀ
ↆ
ↇ
ↈ
←
↑
→
↓
↔
↝
↦
↯
↵
⇄
⇌
⇐
⇒
⇔
⇗
⇘
⇳
∀
∂
∃
∅
∆
∇
∈
∊
∋
∎
−
∓
∕
∖
∗
∘
∙
√
∝
∞
∠
∣
∥
∧
∨
∩
∪
∫
∴
∷
∸
∼
≃
≅
≈
≐
≘
≙
≜
≟
≡
≤
≥
≧
≪
≫
≲
≳
≼
≽
⊂
⊃
⊆
⊇
⊊
⊋
⊍
⊏
⊔
⊕
⊖
⊗
⊙
⊢
⊤
⊥
⊦
⊨
⊻
⊼
⊽
⋀
⋃
⋅
⋆
⋇
⋈
⋉
⋊
⋋
⋌
⋍
⋖
⋮
⋯
⌀
⌂
⌃
⌈
⌉
⌊
⌋
⌒
⌽
⌿
⍋
⍠
⍨
⍳
⍴
⍵
⍺
⍾
⎉
⎖
⎜
⎧
⎨
⎩
⎬
⎯
⏑
⏓
⏕
⏨
␇
␠
␣
①
②
③
④
⑤
⑥
⑦
⑧
ⓐ
ⓑ
ⓢ
ⓣ
ⓧ
ⓨ
─
━
│
┃
┌
┏
┐
┓
└
├
┣
┫
┳
┻
╋
╥
╨
╯
╱
╲
▀
▄
█
░
▒
▓
■
□
▢
▪
▫
▬
▭
▮
▯
▰
▲
△
▼
◆
◊
○
◌
●
◐
◕
◘
◡
◦
◻
☂
★
☆
☉
☌
☔
☠
☣
☤
☥
☦
☧
☨
☩
☪
☫
☰
☱
☲
☳
☴
☵
☶
☷
☺
☾
☿
♀
♂
♃
♄
♆
♇
♈
♉
♋
♌
♍
♎
♏
♐
♑
♒
♓
♔
♕
♖
♗
♘
♙
♚
♛
♜
♝
♞
♟
♠
♣
♤
♥
♦
♩
♪
♫
♭
♮
♯
♲
♳
♴
♵
♶
♷
♸
♹
♺
♾
⚀
⚁
⚂
⚃
⚄
⚅
⚇
⚓
⚤
⚥
⚲
⚴
⚵
⚹
⛢
✉
✓
✕
✖
✗
✘
✙
✚
✛
✜
✝
✞
✟
✠
✡
✢
✣
✤
✥
✪
✯
✱
✶
✸
✻
✿
❚
❤
❧
➔
⟦
⟧
⟨
⟩
⟶
⠃
⠇
⠗
⤓
⤖
⦰
⦵
⨁
⨳
⩒
⩛
⩱
⩲
⩽
⩾
⫟
⫶
⫽
⯓
⯔
⯕
⯖
ⰶ
ⱆ
ⱑ
ⱓ
ⱡ
ⱥ
ⱦ
ⱨ
ⱪ
ⱬ
ⱳ
ⱴ
ⱶ
ⱷ
ⱸ
ⱹ
ⱺ
ⲁ
ⲃ
ⲅ
ⲇ
ⲉ
ⲏ
ⲓ
ⲕ
ⲗ
ⲙ
ⲛ
ⲝ
ⲟ
ⲡ
ⲣ
ⲥ
ⲧ
ⲫ
ⲭ
ⲱ
ⴰ
ⴻ
ⴼ
ⴽ
ⵉ
ⵍ
ⵎ
ⵏ
ⵓ
ⵔ
ⵖ
ⵙ
ⵛ
ⵜ
ⵣ
⸢
⸣
⸤
⸥
⸬
⸰
⸱
⸺
⺮
、
。
々
〇
〈
〉
《
》
「
」
『
』
〚
〛
〜
〮
〯
ぁ
あ
ぃ
い
う
ぇ
え
お
か
き
く
け
こ
さ
し
す
せ
そ
た
ち
っ
つ
て
と
な
に
ぬ
ね
の
は
ひ
ふ
へ
ほ
ま
み
む
め
も
ゃ
や
ゅ
ゆ
ょ
よ
ら
り
る
れ
ろ
ゎ
わ
ゐ
ゑ
を
ん
゛
゜
ゝ
ァ
ア
ィ
イ
ゥ
ウ
ェ
エ
ォ
オ
カ
キ
ク
ケ
コ
サ
シ
ス
セ
ソ
タ
チ
ッ
ツ
テ
ト
ナ
ニ
ヌ
ネ
ノ
ハ
ヒ
フ
ヘ
ホ
マ
ミ
ム
メ
モ
ャ
ヤ
ュ
ユ
ョ
ヨ
ラ
リ
ル
レ
ロ
ワ
ヰ
ヱ
ヲ
ン
ヶ
・
ー
ヽ
ㄅ
ㄆ
ㄇ
ㄈ
ㄉ
ㄊ
ㄌ
ㄘ
ㄛ
ㄞ
ㄠ
ㄢ
ㄧ
ㄨ
ㄪ
ㄱ
ㄲ
ㄴ
ㄷ
ㄸ
ㄹ
ㅁ
ㅂ
ㅃ
ㅅ
ㅆ
ㅇ
ㅈ
ㅉ
ㅊ
ㅋ
ㅌ
ㅍ
ㅎ
ㅏ
ㅐ
ㅑ
ㅓ
ㅔ
ㅕ
ㅗ
ㅜ
ㅟ
ㅠ
ㅡ
ㅢ
ㅣ
ㆉ
ㆌ
ㇷ
㛹
㵋
䨻
䭏
一
丁
七
万
丈
三
上
下
不
与
丑
专
且
世
丘
业
东
丝
両
丢
两
严
並
丨
丩
个
丬
中
丰
串
丶
丷
丸
丹
为
主
丽
丿
乃
久
义
之
乌
乐
乘
乙
乚
乛
九
乞
也
习
乡
书
买
乱
乳
乾
亀
亂
亅
了
予
争
事
二
于
云
互
五
井
亘
亚
亞
亠
亡
交
亦
产
亨
享
京
亭
亮
亲
人
亻
亿
仁
仄
仇
今
介
仌
从
仏
仑
仓
仔
仕
他
仗
付
仙
仚
仝
仟
代
令
以
仪
们
仮
仰
仲
件
任
伊
伍
伎
伏
伐
休
众
会
伝
伟
传
伦
伯
伴
伸
似
伽
佃
但
佉
位
住
佐
佑
体
何
余
佛
作
你
佩
佬
佮
佳
佺
使
侃
來
例
侍
供
依
侠
侦
侬
侯
侶
便
係
促
俄
俊
俔
俗
俚
保
俞
俟
俠
信
俥
俨
俭
修
俱
俳
俵
俺
倉
個
倍
們
倒
候
倚
倪
倫
倭
倶
值
偃
偉
偏
偕
做
健
偰
側
偿
傅
傌
傑
傘
備
傜
储
傳
債
僊
像
僑
僕
僖
僚
僧
價
儀
儁
儂
億
儒
儡
優
儼
儿
允
元
兄
充
兆
先
光
克
免
兎
児
兒
兔
兗
党
兜
入
內
全
兩
八
公
六
兮
兰
共
关
兴
兵
其
具
典
兹
兼
冀
内
円
冉
冊
册
再
冖
写
军
农
冠
冤
冥
冫
冬
冯
冰
决
冶
冷
冻
冼
净
准
凉
凋
凌
凍
几
凡
凤
凧
凰
凸
凹
出
击
刀
刂
刃
分
切
刈
刊
刑
划
列
刘
则
刚
创
初
判
別
利
别
到
制
券
刹
刺
刻
則
削
剌
前
剎
剑
剛
剣
副
割
創
劃
劇
劉
劍
力
办
功
加
务
动
助
努
劫
劳
労
劸
効
劾
势
勁
勃
勅
勇
勒
動
勘
務
勝
勞
勢
勤
勧
勲
勳
勵
勹
勺
勾
勿
包
匈
匏
匕
化
北
匠
匡
匣
匪
匯
匱
区
医
匽
區
十
千
升
午
半
卍
华
协
卐
卑
卒
卓
協
单
南
単
博
卜
占
卡
卣
卤
卦
卧
卫
卬
卯
印
危
即
卵
卷
卸
卿
厂
厄
厅
历
厉
厚
原
厥
厲
厳
去
县
参
參
又
叉
及
友
双
反
发
叔
取
受
变
叡
叢
口
古
句
叩
只
叫
召
可
台
史
右
叶
号
司
吃
各
合
吉
同
名
后
吏
吐
向
吒
君
听
启
吳
吴
吸
吹
吻
吾
呂
呆
呈
告
呐
呑
员
周
味
呼
命
咄
和
咒
咗
咩
咫
咸
咹
哀
品
哇
哈
哉
哟
員
哥
哪
哲
唐
唔
唱
唹
商
問
啓
啞
啟
啤
啲
喀
喂
善
喆
喇
喉
喊
喜
喝
喧
喪
喬
單
喻
嗣
嘅
嘉
嘛
嘸
噌
器
嚴
囂
囎
囗
四
回
因
团
団
囧
园
図
围
固
国
图
圆
圈
圉
國
圏
園
圓
圖
圜
土
圣
圧
在
圭
地
圳
场
圻
址
坂
均
坊
坐
坑
坚
坛
坤
坦
垂
型
垒
垓
垣
城
埔
域
埠
埴
執
培
基
堀
堂
堃
堅
堡
堤
堯
報
場
塑
塔
塗
塘
塚
塞
塩
塵
境
墈
増
增
墨
墾
壁
壇
壊
壓
壤
士
壮
声
壱
売
壶
壹
壺
壼
壽
夂
处
备
変
复
夏
夔
夕
外
夙
多
夜
夠
夢
夤
大
天
太
夫
央
失
头
夷
夾
奄
奇
奈
奉
奋
奎
契
套
奘
奚
奥
奨
女
奴
奶
她
好
如
妃
妇
妈
妊
妍
妖
妙
妣
妹
妻
妾
姆
姈
姉
姊
始
姐
姑
姓
委
姚
姜
姝
姞
姣
姨
姪
姫
姬
威
娃
娇
娘
娜
娟
娱
婁
婆
婉
婚
婦
婴
婷
媛
媽
嫄
嬉
嬌
嬴
孁
子
孔
字
存
孙
孚
孛
孝
孟
季
孤
学
孩
孫
孬
學
宀
宁
宅
宇
守
安
宋
完
宍
宏
宓
宗
官
宙
定
宛
宜
宝
实
実
宠
审
客
宣
室
宦
宪
宫
宮
宰
宵
家
容
宽
宾
宿
寂
寄
寅
密
寇
富
寒
寔
寛
察
寡
寢
實
寧
寨
寫
寬
寮
寶
寸
对
寺
导
対
寿
封
専
射
将
將
尉
尊
對
導
小
少
尔
尙
尚
尤
尧
就
尸
尺
尼
尽
尾
局
居
屈
屉
屋
屎
屏
展
属
屠
屢
層
屬
山
岁
岐
岑
岛
岡
岩
岭
岳
岵
岸
峡
峨
峯
峰
島
峻
崇
崎
崑
崔
崖
崙
崩
崮
嵐
嵩
嵯
嶋
嶼
嶽
巌
巍
川
州
巡
巣
工
左
巧
巨
巫
差
己
已
巳
巴
巻
巾
市
布
帅
帆
希
帖
帝
帥
带
師
席
帯
帰
帳
帶
常
帼
幕
幗
幡
干
平
年
并
幸
幹
幺
幻
幼
幽
幾
广
庁
広
庄
庆
庇
床
序
庐
库
应
底
店
府
庞
度
座
庫
庭
庶
康
庸
廃
廉
廊
廖
廚
廟
廠
廢
廣
廳
廴
延
廷
建
开
弁
异
弉
弊
式
弓
引
弗
弘
弟
张
弥
弩
張
強
强
弾
彈
彌
彎
归
当
录
彙
彝
彡
形
彦
彪
彬
彭
彰
影
彳
役
彼
征
待
很
律
後
徐
徒
得
徙
從
御
復
循
微
徳
徵
德
徹
徽
心
必
忆
忌
忍
志
忘
応
忠
快
忯
念
忸
忻
忽
态
思
怡
急
性
怪
总
恋
恒
恕
恥
恩
恪
恬
恭
息
恵
恶
恼
悅
悉
悔
悟
悠
悦
您
悪
悫
悲
悼
情
惑
惟
惠
惡
惲
想
愈
愉
愍
意
愔
愚
愛
感
愷
愼
慈
態
慎
慕
慧
慮
慶
憂
憎
憑
憙
憨
憲
憶
懈
應
懋
懌
懐
懷
懸
懺
懽
懿
戀
戈
戊
戋
戌
戎
戏
成
我
戒
或
战
戚
戛
戟
戡
戦
戯
戰
戲
戳
戴
戶
戸
戾
房
所
扁
扇
扉
手
扌
才
扎
扑
打
托
扢
执
扬
扭
扶
批
承
技
抄
把
投
抗
折
抜
护
报
抱
抹
押
抽
拂
担
拉
拌
拍
拓
拔
招
拜
拡
拥
择
括
拳
拼
拾
拿
持
指
按
挑
挥
振
挺
挽
捍
捏
捕
捡
捨
据
捷
捺
掄
授
掉
排
探
接
推
掲
掷
提
揖
揚
揭
援
損
搖
摄
摇
摘
摩
摸
撃
撇
撐
撒
撕
撞
撫
播
撰
擊
操
擧
擬
攘
攝
支
攵
改
攻
攽
放
政
故
效
敏
敕
敖
教
敞
敢
散
敦
敬
数
整
敵
敷
數
文
斉
斋
斎
斑
斗
料
斛
斤
斬
斯
新
斷
方
於
施
旁
旅
旋
族
旗
无
既
日
旦
旧
旨
早
时
旷
旺
旻
昆
昇
昉
昊
昌
明
易
昔
昕
昞
星
映
春
昫
昭
是
昱
昴
昺
显
時
晉
晋
晏
晖
晚
晦
晩
普
景
晴
智
暁
暂
暉
暗
暤
暦
暮
暲
曄
曆
曇
曜
曰
曲
更
曷
書
曹
曼
曾
替
最
會
月
有
服
朏
朗
望
朝
期
木
未
末
本
札
术
朱
朴
朵
朶
机
杀
杂
权
杆
杉
李
杏
材
村
杖
杜
杞
束
条
来
杨
杯
杰
東
杲
杵
松
板
极
构
析
枕
林
果
枝
枞
枠
枡
枪
枯
枲
柄
柏
染
柔
查
柬
柯
柱
柳
柴
柷
査
柿
栄
树
栖
栗
校
株
样
核
根
格
桂
桃
框
案
桐
桓
桜
桝
桥
桶
梁
梅
梆
條
梣
梨
梯
械
梵
梶
检
棉
棋
棍
棒
棚
棟
棠
森
椎
椒
椰
椿
楊
楓
楔
楕
楚
楞
楠
楫
業
楳
極
楷
楼
楽
概
榆
榊
榮
槍
槐
槑
様
槽
樂
樋
樑
樓
樞
樟
模
権
横
樫
樱
樵
樹
樺
樽
橋
橘
機
橫
檀
檔
櫛
櫻
權
次
欢
欣
欧
欲
欽
歌
歐
歓
歡
止
正
此
步
武
歩
歲
歳
歴
歷
歸
死
殉
殊
残
殖
殘
殤
段
殷
殺
殻
殿
毀
毅
母
毎
每
毒
毓
比
毗
毛
氏
氐
民
气
気
氣
水
氵
氷
永
汁
求
汉
汗
汝
江
池
污
汤
汪
汲
汴
決
汽
沁
沃
沈
沐
沒
沖
沙
沚
沢
沪
河
油
治
沼
況
泉
泊
法
泡
波
泥
泰
洁
洋
洗
洛
洞
洡
津
洪
洲
活
派
流
浄
浅
测
济
浙
浚
浜
浦
浩
浪
浮
浴
海
涉
涌
液
涼
涿
淑
淡
淨
淬
淮
深
淳
淵
混
淸
渃
清
済
渉
渊
渟
渠
渡
渥
温
港
游
渺
渾
湍
湖
湘
湟
湯
湾
満
源
準
溝
溥
溪
溫
滅
滋
滑
滝
满
滬
滿
漆
漏
漓
演
漢
漫
漬
漳
漿
潔
潘
潜
潟
潤
潭
澄
澤
澳
濁
濂
濃
濟
濫
濮
濱
瀨
瀬
灘
灣
火
灬
灭
灯
灰
灵
灶
災
炉
炎
炒
炮
炷
炸
点
為
烈
烏
烙
烤
烦
焚
無
焦
然
焼
煌
煎
煕
煞
煤
煥
煦
照
煨
煮
熈
熊
熙
熜
熟
熱
熹
燃
燈
燉
燒
燕
營
燮
燾
爆
爛
爪
爫
爭
爱
爵
父
爷
爸
爺
爽
爾
片
版
牌
牙
牛
牟
牧
物
特
牽
犀
犁
犬
犭
犯
状
狂
狄
狐
狖
狗
狦
狩
独
狮
狸
狼
猗
猛
猟
猪
猫
献
猷
猺
猿
獅
獨
獲
獻
玄
率
玉
王
玗
玛
玟
环
玲
珉
珊
珍
珠
珣
珪
班
現
球
理
琛
琢
琦
琨
琪
琮
琳
琴
琼
瑑
瑒
瑚
瑛
瑜
瑞
瑟
瑤
瑩
瑭
瑾
璀
璈
璋
璜
璧
環
璽
瓊
瓌
瓜
瓣
瓦
甑
甘
甚
甜
生
產
産
用
甫
甬
田
由
甲
申
电
男
町
画
界
畎
畏
畑
畔
留
畢
略
番
畫
異
當
疆
疋
疎
疏
疑
疒
疫
疹
病
症
痘
瘟
癸
発
登
發
白
百
的
皆
皇
皓
皖
皜
皝
皮
皿
盂
盅
盆
盈
益
监
盖
盘
盛
盟
監
盤
盧
目
直
相
省
看
県
眞
真
眠
眼
眾
着
督
睦
睿
瞻
瞿
矛
矟
矢
矣
知
矩
短
石
矿
码
砂
研
砲
破
确
碎
碑
碗
碧
碩
確
碼
磁
磨
磯
礎
礫
礬
示
礻
礼
社
祀
祁
祇
祈
祐
祖
祚
祝
神
祥
票
祭
祸
祺
祿
禁
禄
禅
禎
福
禖
禦
禧
禩
禪
禮
禹
禽
禾
禿
秀
私
秂
秉
秋
种
科
秘
租
秦
秩
秭
称
移
稀
程
稠
種
稲
稳
稹
稻
稽
穀
穂
穆
積
穎
穏
穠
穰
穴
究
穹
空
突
窓
窟
窩
窪
竃
竇
竈
立
竖
站
竜
竞
章
童
端
竴
競
竹
竺
竿
笈
笋
笑
笔
笛
笠
符
笨
第
笹
筆
等
筑
筒
答
筯
简
箕
算
管
箭
箱
節
範
篆
篇
篠
篤
篪
簡
簫
簽
籃
籍
籠
籤
米
类
粉
粋
粒
粟
粥
粮
粲
粵
粸
粹
精
粿
糊
糕
糖
糠
糸
系
紀
約
紅
紇
納
紐
純
紘
級
素
索
紧
紫
累
細
紹
組
経
結
絕
絞
給
統
絲
絵
絶
綏
經
継
続
綜
綠
維
綱
網
綾
緊
緋
総
緑
緒
線
締
編
緩
緯
練
縄
縛
縣
縮
縱
總
績
繁
織
繚
繼
續
纖
纟
红
约
级
纪
纯
纸
练
组
细
织
终
绍
经
结
给
绞
统
继
绮
绳
维
综
编
缘
缺
网
罕
罗
罚
罪
置
署
羅
羊
羌
美
群
義
羯
羽
翁
翊
翎
習
翔
翻
翼
耀
老
考
者
而
耐
耳
耶
联
聖
聚
聞
聪
聯
聰
聲
聶
職
聽
肃
肅
肆
肇
肉
肖
肚
肠
股
肥
肩
肱
育
肴
胃
胄
背
胎
胜
胝
胞
胡
胤
胴
胸
能
脇
脈
脑
脩
脫
脱
脷
腊
腐
腕
腦
腰
腹
腿
膎
膏
膠
膳
臣
臥
臧
臨
自
臭
至
致
臺
臼
與
興
舉
舊
舌
舍
舎
舒
舘
舜
舞
舟
舩
航
般
舱
舶
船
艇
艦
良
色
艺
艾
节
芋
芝
芦
芮
花
芳
芸
芹
芻
芽
芾
苏
苑
苔
苗
苡
若
苦
英
苴
茂
范
茄
茅
茉
茨
茴
茵
茶
茹
荀
荆
草
荊
荒
荞
荣
药
荷
荻
莉
莊
莎
莒
莔
莩
莫
莲
菅
菊
菓
菜
菟
菩
華
菱
菲
菴
菻
萊
萌
萍
萎
营
萧
萨
萬
萱
落
葉
著
葛
葡
董
葫
葬
葷
蒂
蒙
蒲
蒸
蒼
蓄
蓋
蓑
蓮
蔀
蔑
蔡
蔣
蔭
蔵
蔷
蔽
蕃
蕉
蕊
蕎
蕤
蕨
蕩
蕭
薄
薇
薔
薙
薛
薩
薪
薯
藍
藏
藝
藤
藥
藩
藻
蘆
蘇
蘊
蘢
蘭
蘸
虎
虐
虑
虔
處
虚
虜
虞
號
虫
虬
虹
蚀
蚊
蚤
蚩
蛇
蛛
蛞
蛤
蛭
蛮
蛸
蜀
蜈
蜘
蜙
蜜
蝓
蝦
蝴
蝶
融
螺
蟳
蟹
蠘
蠻
血
衆
行
衍
術
街
衛
衞
衡
衣
补
表
衫
袁
袈
袟
袭
裁
装
裏
裕
裙
補
裟
裴
裸
製
褂
複
褒
褥
襄
襲
西
要
見
規
視
覚
覧
覩
親
観
覺
覽
觀
观
规
视
觉
角
解
觸
言
訂
計
討
訓
託
記
訟
訣
設
許
訳
訴
訶
註
証
詁
詔
評
詞
詠
試
詩
詰
話
誉
誌
認
誕
語
誠
誦
誨
說
説
読
課
調
談
論
諜
諟
諡
諦
諭
諷
諸
謂
謙
謚
講
謝
謠
謨
證
識
譚
譜
警
譯
議
護
讃
讐
讓
讖
讚
讠
计
认
让
训
议
记
论
设
访
证
评
译
诗
诚
话
详
语
诰
说
请
诸
诺
谁
调
谈
谋
谛
谢
谥
谦
谶
谷
谿
豁
豆
豉
豊
豐
豕
豚
象
豢
豪
豬
豸
豹
貅
貓
貔
貘
貝
貞
負
財
貢
貨
貪
貫
責
貴
貶
賀
資
賓
賜
賢
賦
質
賴
贅
贈
贓
贛
贝
贞
贤
质
购
贯
贵
贾
资
赋
赏
赔
赖
赛
赠
赣
赤
赫
走
赵
起
超
越
趙
趟
趨
足
跂
跆
跋
跌
跡
路
跳
践
踊
蹄
蹤
蹩
蹴
身
躬
車
軌
軍
軒
転
軻
載
輔
輕
輝
輪
輶
輸
輿
轄
轉
车
轨
轩
轫
轻
轼
载
辉
辕
辖
辛
辞
辟
辣
辨
辭
辰
辱
農
辶
边
辺
辻
込
辽
达
迁
迅
过
迎
运
近
返
这
进
远
迥
迦
迪
迭
述
迷
追
退
送
适
逊
途
通
逝
速
造
逢
連
週
進
逸
遅
遇
遊
運
遍
過
道
達
違
遗
遙
遠
遣
遭
遲
遵
遷
選
遺
遼
避
還
邇
邊
邏
邑
邕
邗
邝
邢
那
邦
邪
邯
邵
邸
郁
郎
郑
郛
郡
郦
部
郭
郵
郷
都
鄂
鄉
鄒
鄕
鄧
鄭
鄰
鄲
鄺
酈
配
酒
酢
酥
酪
酱
酸
醇
醉
醍
醐
醤
醪
醫
醯
醸
釀
采
釈
释
釋
里
重
野
量
金
釜
針
鈍
鈴
鉄
鉉
鉞
鉢
鉤
銀
銓
銖
銘
銭
銷
鋸
鋼
錄
錆
錢
錦
錯
鍈
鍛
鍠
鍵
鍾
鎌
鎧
鎬
鎮
鏑
鏜
鏡
鏢
鐃
鐘
鐵
鐸
鑑
鑒
钅
针
钊
钦
钱
铁
铃
锁
锅
锡
锺
锻
镇
長
长
門
閇
開
閑
間
閔
関
閣
閨
閩
閭
閻
闌
闔
闕
闘
關
门
问
间
闹
闻
闾
阇
队
阪
阮
防
阳
阴
阵
阿
陀
附
际
陈
陋
降
限
陛
陞
陟
院
陣
除
陨
陪
陰
陳
陵
陸
陽
隅
隆
隈
隊
隋
階
隐
隑
隔
際
障
隠
隱
隴
隶
隸
隻
隼
难
雀
雁
雄
雅
集
雍
雎
雙
雜
雞
離
難
雨
雪
雲
零
雷
電
霊
霍
霖
霜
露
霸
靈
靐
青
靖
静
非
面
革
鞍
鞞
鞠
韃
韋
韓
韜
韦
韩
音
韻
頂
項
順
須
頊
頌
頑
頓
頔
領
頡
頤
頭
頴
頼
題
額
顏
顔
顕
願
類
顯
页
顷
顺
颂
颉
颐
频
题
额
風
飃
风
飛
飞
食
飭
飮
飯
飽
餅
養
餐
餠
館
饌
饣
饨
饭
饼
饿
馄
馅
馆
馕
首
香
馡
馨
馬
馮
駁
駅
駒
駝
駟
駰
駱
駿
騎
騫
騶
騷
驅
驤
马
骏
骨
骸
體
高
髙
髪
髮
髯
鬥
鬱
鬲
鬼
魁
魂
魄
魏
魔
魚
魯
鮑
鮫
鮮
鯉
鯰
鰭
鱼
鲁
鲸
鳖
鳥
鳳
鳴
鴛
鴦
鴨
鴻
鵙
鵝
鵺
鶏
鶴
鶻
鶿
鷲
鷹
鸕
鸟
鸡
鸦
鸽
鸿
鹊
鹏
鹤
鹰
鹹
鹿
麗
麥
麦
麪
麵
麸
麹
麺
麻
麿
黃
黄
黎
黑
黒
黙
點
黠
黨
鼈
鼎
鼓
鼠
鼬
鼻
齉
齊
齐
齡
齿
龍
龐
龙
龚
龜
龟
ꈍ
ꉫ
ꉬ
ꙁ
ꙉ
ꙑ
ꙗ
ꙩ
ꜣ
ꜥ
ꜧ
ꜰ
ꜱ
ꜹ
ꝁ
ꝃ
ꝅ
ꝋ
ꝑ
ꝓ
ꝕ
ꝗ
ꝙ
ꝛ
ꝟ
ꝡ
ꝣ
ꝥ
ꝺ
ꝼ
ꝿ
ꞃ
ꞅ
ꞇ
꞉
ꞌ
ꞑ
ꞓ
ꞕ
ꞗ
ꞙ
ꞛ
ꞝ
ꞟ
ꞡ
ꞣ
ꞥ
ꞧ
ꞩ
ꞯ
ꞹ
ꞻ
ꞿ
ꟃ
ꟈ
ꟊ
ꟶ
ꟸ
ꟻ
ꟼ
ꟽ
ꟾ
ꟿ
ꦏ
ꦥ
ꦩ
ꦫ
ꦱ
ꦲ
ꦺ
ꦿ
꩜
ꬱ
ꬵ
ꬶ
ꭦ
ꭧ
ꭨ
ꭩ
ꭴ
ꭻ
ꭿ
ꮃ
ꮇ
ꮎ
ꮑ
ꮕ
ꮟ
ꮣ
ꮤ
ꮹ
ꮿ
ꯂ
ꯛ
﨑
ﬁ
ﬂ
ﷲ
ﷺ
︰
︵
︽
︾
︿
﹀
﹗
ﺒ
ﺙ
ﺮ
ﻣ
ﻩ
ﻭ
ﻴ
ﻹ
！
（
）
＊
，
－
／
１
２
９
：
；
＝
？
＾
｜
～
･
ｮ
ｰ
ｼ
ﾎ
ﾝ
ﾞ
￥
𐀀
𐀂
𐀅
𐀏
𐀘
𐀙
𐀩
𐀫
𐀭
𐄫
𐅀
𐅁
𐅢
𐆃
𐆖
𐊀
𐊄
𐊆
𐊌
𐊎
𐊏
𐊐
𐊑
𐊒
𐊕
𐊖
𐊗
𐊜
𐊠
𐊥
𐊦
𐊪
𐊫
𐊭
𐊲
𐊳
𐊴
𐊷
𐊸
𐊹
𐊼
𐌀
𐌂
𐌃
𐌄
𐌅
𐌆
𐌇
𐌉
𐌊
𐌋
𐌌
𐌍
𐌏
𐌐
𐌑
𐌒
𐌓
𐌔
𐌕
𐌖
𐌗
𐌟
𐌠
𐌡
𐌢
𐌣
𐌰
𐌳
𐌴
𐌷
𐌸
𐌹
𐌺
𐌻
𐌾
𐌿
𐍂
𐍃
𐍅
𐍆
𐍈
𐎠
𐎡
𐎢
𐎣
𐎦
𐎧
𐎫
𐎬
𐎭
𐎰
𐎱
𐎳
𐎶
𐎷
𐎹
𐎺
𐎼
𐏀
𐏁
𐏂
𐏃
𐏋
𐏐
𐐨
𐐪
𐐫
𐐬
𐐭
𐐮
𐐯
𐐱
𐐲
𐐶
𐐷
𐐸
𐐹
𐐺
𐐻
𐐼
𐐽
𐐾
𐐿
𐑀
𐑁
𐑄
𐑅
𐑆
𐑇
𐑉
𐑊
𐑌
𐑎
𐑏
𐑧
𐑩
𐑮
𐑳
𐑺
𐑻
𐒁
𐒅
𐒆
𐒇
𐒈
𐒋
𐒌
𐒍
𐒏
𐒐
𐒑
𐒒
𐒓
𐒕
𐒖
𐒗
𐒘
𐒛
𐒝
𐝇
𐝈
𐝎
𐝒
𐝓
𐝕
𐡀
𐡁
𐡂
𐡃
𐡄
𐡅
𐡇
𐡉
𐡊
𐡋
𐡌
𐡐
𐡒
𐡓
𐡕
𐡡
𐡦
𐡩
𐡶
𐤀
𐤁
𐤂
𐤃
𐤄
𐤅
𐤆
𐤇
𐤉
𐤊
𐤋
𐤌
𐤍
𐤎
𐤏
𐤐
𐤑
𐤒
𐤓
𐤔
𐤕
𐤖
𐤘
𐤙
𐤠
𐤣
𐤭
𐤮
𐤱
𐤳
𐩨
𐩪
𐩱
𐫇
𐫏
𐫗
𐫘
𐫛
𐫤
𐬀
𐬉
𐬊
𐬌
𐬛
𐬞
𐬨
𐬭
𐬰
𐬵
𐭥
𐭦
𐭧
𐭩
𐭫
𐭬
𐭭
𐭮
𐭯
𐭱
𐭲
𐰆
𐰇
𐰚
𐰛
𐰜
𐰞
𐰣
𐰯
𐰰
𐰻
𐰼
𐱃
𐱅
𑀅
𑀓
𑀢
𑀥
𑀦
𑀧
𑀩
𑀫
𑀬
𑀭
𑀲
𑀳
𒀀
𒀕
𒀫
𒀭
𒀲
𒀸
𒁉
𒁲
𒁹
𒂆
𒂍
𒂗
𒂡
𒂵
𒂷
𒃲
𒃾
𒄀
𒄑
𒄒
𒄴
𒄾
𒄿
𒅁
𒅎
𒅖
𒅗
𒆠
𒆤
𒆳
𒇻
𒈜
𒈠
𒈦
𒈨
𒈩
𒈬
𒈾
𒉋
𒉡
𒉣
𒉺
𒉽
𒊏
𒊑
𒊒
𒊕
𒊬
𒊭
𒋀
𒋗
𒋙
𒋡
𒋢
𒋫
𒌅
𒌋
𒌍
𒌑
𒌓
𒌷
𒐼
𓂋
𓂓
𓅓
𓅽
𓆎
𓆛
𓆱
𓇽
𓈉
𓈎
𓈖
𓉐
𓉔
𓉺
𓉻
𓊅
𓊖
𓋾
𓌉
𓍁
𓏌
𓏏
𓏠
𓏭
𖬒
𖬖
𖬜
𖬯
𛀀
𛀁
𛀆
𛄟
𝄆
𝄇
𝄋
𝄞
𝍷
𝑒
𝒪
𝓸
𝔗
𝕸
𝗘
𝗮
𝗲
𝗳
𝗶
𝗸
𝗺
𝗼
𝗽
𝗿
𝘁
𝛿
𝜎
𝜑
𞤢
𞤤
𞤥
𞤨
𞤩
𞤪
𞤫
𞤭
𞤮
𞤱
𞤲
𞤳
𞤴
𞤵
𞤸
𞤺
𞥄
𞥆
𞥇
🀢
🀣
🀤
🀥
🀦
🀧
🀨
🀩
🇫
🇷
🈁
🈂
🈓
🎜
🎝
🎵
🎶
🔊
🚲
🛈
🜇
🜍
🜨
🤓
🧀
🧫
𠓺
𡘯
𢆥
𢒉
𢜠
𢶢
𤁠
𤯩
𤾓
𥹰
𦻙
𨁂
𫨩
𬧐
𰀪
𰻞
##e
##r
##n
##t
##i
##a
##u
##l
##s
##g
##k
##h
##c
##o
##d
##v
##z
##5
##3
##m
##0
##1
##7
##4
##y
##9
##p
##f
##ে
##া
##র
##ট
##w
##b
##2
##x
##j
##в
##г
##е
##н
##и
##q
##व
##ा
##ह
##6
##υ
##ο
##ς
##π
##ω
##ㄨ
##ㄢ
##р
##о
##т
##8
##χ
##œ
##ə
##¹
##µ
##л
##а
##м
##−
##ʔ
##®
##ı
##०
##६
##१
##ρ
##τ
##α
##°
##і
##х
##к
##ł
##פ
##ø
##ĸ
##⁄
##ß
##ь
##ш
##я
##у
##ч
##æ
##λ
##δ
##ש
##ר
##μ
##ν
##п
##ʌ
##ι
##ε
##η
##ᅮ
##ᆨ
##ᄃ
##ᅡ
##ᆼ
##ᄎ
##ᅥ
##ᆫ
##φ
##و
##ن
##س
##ت
##ا
##ǁ
##ʼ
##ð
##ᅧ
##ᅳ
##ᄒ
##ᅬ
##レ
##イ
##ヤ
##ー
##ス
##ふ
##ぁ
##い
##と
##▄
##░
##ʰ
##र
##म
##ण
##ी
##σ
##γ
##∗
##ɐ
##×
##ಮ
##ರ
##ಕ
##ೂ
##ೕ
##ಶ
##ದ
##こ
##う
##∞
##ц
##θ
##ɜ
##ː
##ˌ
##ɒ
##ŋ
##д
##с
##হ
##ি
##ন
##ী
##ʉ
##ա
##ն
##ב
##מ
##י
##ם
##ম
##б
##ʿ
##½
##ڠ
##ك
##न
##ष
##य
##ो
##ɛ
##º
##ト
##ʃ
##ɨ
##⁵
##⁻
##⁷
##đ
##ན
##´
##د
##ল
##з
##ب
##վ
##ה
##כ
##ל
##リ
##ン
##ヒ
##ッ
##ク
##ъ
##β
##±
##κ
##ـ
##נ
##ו
##ه
##ξ
##™
##þ
##ү
##ि
##क
##च
##छ
##प
##≤
##ф
##ᅦ
##ل
##ح
##م
##ة
##ق
##ز
##ɕ
##ม
##ʾ
##প
##ᅵ
##ᆰ
##ы
##ব
##コ
##ɔ
##ɑ
##ʁ
##ю
##ꦩ
##ꦺ
##ꦫ
##ꙗ
##ѭ
##ر
##ع
##ע
##ת
##บ
##ʷ
##ネ
##ル
##ウ
##ァ
##ס
##ʻ
##ᅣ
##キ
##א
##₂
##ħ
##₵
##ɪ
##ո
##ւ
##թ
##ի
##≡
##᾽
##ᄀ
##ᅩ
##ᄋ
##ᅢ
##ᆷ
##ᄌ
##ᅪ
##ᆯ
##ж
##⋅
##ן
##ꟊ
##ي
##จ
##น
##า
##ก
##ร
##ጥ
##ሚ
##ጣ
##ᄉ
##ᄐ
##ㄛ
##љ
##ય
##ʲ
##¨
##ꜣ
##ย
##ᅭ
##ג
##ד
##÷
##ᄂ
##ɓ
##श
##स
##𒅗
##𒌑
##𒋢
##ィ
##ラ
##シ
##ョ
##ض
##э
##ඹ
##ර
##ා
##エ
##の
##ƚ
##²
##ज
##¯
##ɚ
##ζ
##ܘ
##ܪ
##ܐ
##∘
##ɫ
##ܡ
##ศ
##ษ
##მ
##ი
##დ
##ა
##خ
##ጻ
##ኢ
##ᒡ
##ᓘ
##ᑲ
##ʀ
##る
##も
##は
##れ
##た
##ꟾ
##ध
##ى
##द
##भ
##フ
##に
##チ
##ܩ
##∆
##³
##ט
##ぇ
##→
##ʹ
##ј
##ᄇ
##♭
##त
##っ
##し
##ん
##ܢ
##ܨ
##ܝ
##স
##య
##క
##ర
##ణ
##ం
##ʒ
##ʕ
##ط
##ハ
##な
##り
##め
##↔
##য
##▼
##⊕
##ﬁ
##ⁿ
##ɣ
##タ
##⅓
##ञ
##℅
##ᖓ
##ᒃ
##ᑯ
##ᖅ
##𐤌
##𐤍
##℃
##¢
##ک
##≈
##ی
##ਰ
##ਦ
##ਾ
##ਸ
##ด
##♥
##ǝ
##մ
##ե
##փ
##ր
##կ
##չ
##わ
##∷
##ま
##𞤵
##𞤤
##𞤩
##𞤫
##ヌ
##ई
##€
##ロ
##ユ
##¥
##ၚ
##က
##ျ
##ာ
##ဗ
##ဒ
##ဓ
##ˈ
##き
##щ
##ק
##₁
##க
##ு
##ப
##ϕ
##ȝ
##ल
##ᄅ
##𐌢
##ⵏ
##ⴰ
##ⴽ
##ⴼ
##£
##¬
##ា
##យ
##ក
##រ
##ដ
##ឋ
##ម
##ន
##ត
##ج
##ত
##ग
##ប
##ង
##ف
##ᅲ
##ᅯ
##ʽ
##ɾ
##¾
##ܒ
##ナ
##ニ
##ث
##צ
##⊙
##อ
##ง
##ꜹ
##ら
##く
##𐬀
##𐬊
##𐬨
##ℓ
##テ
##セ
##２
##ﺮ
##ﻭ
##ﻩ
##ƿ
##￥
##∩
##ص
##ء
##ক
##ɲ
##ח
##ץ
##𐎼
##𐏁
##ះ
##ហ
##ស
##ः
##ժ
##ท
##เ
##ข
##ต
##ะ
##ว
##♦
##ਮ
##ਣ
##ੀ
##ॉ
##थ
##ड
##₨
##サ
##ી
##←
##↓
##⍳
##ವ
##ಲ
##ು
##ब
##𐊕
##𐊐
##𐊎
##𐊆
##𐊖
##ˀ
##ᆻ
##∊
##ܬ
##দ
##ᄑ
##พ
##ไ
##ʺ
##✸
##ɹ
##న
##⍴
##ө
##ಙ
##ಗ
##ಳ
##ψ
##ʙ
##ನ
##ढ
##ұ
##қ
##ҳ
##ค
##ป
##ช
##ธ
##ɡ
##ষ
##≥
##─
##そ
##ホ
##ხ
##ე
##ლ
##წ
##ფ
##ო
##♠
##ዕ
##ቢ
##ያ
##ז
##ᓄ
##ᐊ
##ᑦ
##▀
##█
##ⲓ
##ⲁ
##ⲣ
##ⲟ
##オ
##ଉ
##ᆸ
##ſ
##ᴇ
##ट
##ɞ
##ә
##ろ
##ϣ
##ⲭ
##ⲗ
##ட
##ை
##ய
##ལ
##モ
##ケ
##ム
##អ
##𓉻
##⊥
##ش
##ৎ
##カ
##ூ
##வ
##ே
##ส
##ރ
##━
##┳
##┓
##ᄆ
##˺
##ઠ
##ミ
##⅔
##𐤱
##𐤠
##𐤭
##𐤣
##ऋ
##ذ
##ᑗ
##ᐏ
##ᓇ
##ѣ
##ৈ
##お
##ద
##ம
##ி
##ழ
##ⲉ
##ਵ
##ª
##ҙ
##♯
##პ
##რ
##ც
##ს
##း
##ယ
##ܥ
##ܫ
##থ
##ই
##マ
##メ
##ア
##ツ
##ャ
##გ
##ტ
##ნ
##ງ
##ས
##▫
##ƛ
##ผ
##ʊ
##ˑ
##ʈ
##ɳ
##ս
##𐭫
##𐭲
##𐭥
##𐭱
##𐡋
##𐡄
##𐡀
##𐡂
##ौ
##ር
##ጊ
##ጎ
##ⲡ
##↑
##ڈ
##غ
##ך
##ɭ
##∈
##ල
##ක
##ா
##ன
##უ
##ར
##ད
##গ
##ಂ
##ಜ
##か
##ര
##പ
##み
##て
##す
##ゎ
##ำ
##แ
##խ
##ջ
##և
##ਕ
##റ
##˚
##බ
##ද
##བ
##ང
##ʂ
##ェ
##𐤔
##𐤒
##𐤋
##ਤ
##ત
##મ
##ક
##થ
##ા
##⁴
##ᵉ
##ล
##ฯ
##ѥ
##ᔅ
##ᒋ
##ᐤ
##ゃ
##ಾ
##ತ
##ပ
##တ
##င
##լ
##ը
##⦵
##𐐭
##ھ
##ے
##𐤊
##ং
##খ
##𐀏
##𐀙
##𐀂
##𞤭
##𞥄
##𞤲
##𞤢
##∙
##ღ
##შ
##ბ
##ң
##គ
##ͺ
##ゐ
##ৰ
##ณ
##ں
##⠗
##⠇
##በ
##ㅡ
##ュ
##ヘ
##ਜ
##ਬ
##گ
##𐭮
##ອ
##ຮ
##ກ
##ᅨ
##©
##𒈦
##ᵑ
##𐩨
##𐩱
##ʟ
##ਢ
##𐐱
##𐐻
##ϛ
##𒋙
##ვ
##თ
##વ
##ɦ
##ʋ
##ᅴ
##ᅱ
##ෙ
##ස
##╋
##ǂ
##˳
##ˁ
##や
##ひ
##յ
##բ
##ঢ
##ভ
##ᄄ
##˘
##ɖ
##ね
##ণ
##ɗ
##ಬ
##ಸ
##ɻ
##ǀ
##➔
##න
##ᓱ
##ϯ
##ག
##ി
##ദ
##ധ
##ാ
##ന
##ത
##ം
##є
##ો
##ʱ
##∖
##𒂵
##𒈩
##ਉ
##ห
##એ
##ܠ
##₃
##൧
##ք
##┻
##𐎡
##𐎺
##બ
##ઈ
##΄
##𐐶
##𐐯
##𐑉
##𐑁
##𐐬
##え
##ꜥ
##𐤐
##ๅ
##⊂
##ూ
##শ
##⊃
##ょ
##𐡌
##ᄏ
##⫽
##ظ
##ព
##េ
##ર
##𒌓
##𒊏
##┫
##ћ
##∨
##ऊ
##𒀸
##𒄀
##ʘ
##જ
##∧
##ಷ
##ಟ
##ಪ
##ち
##ਿ
##ਗ
##ਆ
##𐤄
##𐤅
##ꙑ
##ව
##ା
##ச
##ங
##ர
##ⱷ
##ᴥ
##≼
##♣
##¸
##ҝ
##ठ
##◌
##గ
##ు
##ల
##ᆩ
##𞤮
##𞤳
##𞤪
##ภ
##ѵ
##ց
##ᶣ
##ත
##හ
##ռ
##𒊬
##ɬ
##ɠ
##ᴏ
##ᴜ
##ᴛ
##ʜ
##∇
##ං
##ড
##𐌅
##𐌉
##𐌄
##𐌋
##պ
##հ
##ף
##ォ
##ᄁ
##ᆾ
##ถ
##ળ
##𒄒
##𒉣
##ਨ
##ለ
##ፍ
##ㄞ
##ˊ
##ˉ
##ㄘ
##ˋ
##ਹ
##∴
##⇔
##उ
##ฤ
##ᇂ
##𐒖
##𐒇
##ስ
##さ
##ல
##ǥ
##ˠ
##𒊒
##𒄿
##𒊭
##ਅ
##హ
##భ
##త
##మ
##▲
##ƒ
##ᛅ
##ᚱ
##ᛚ
##ᛏ
##ါ
##ြ
##ရ
##ည
##ေ
##𐊠
##ම
##𓈖
##ɟ
##𐊸
##𐊫
##𐊦
##ې
##ใ
##ⵓ
##ⵛ
##𐐮
##៩
##៨
##জ
##ˇ
##ზ
##ㅈ
##ㄷ
##ㄱ
##ܓ
##འ
##𒉋
##څ
##¼
##ᒨ
##ᐦ
##ᐣ
##ᇁ
##ಣ
##✪
##𒀫
##𒂗
##𒋗
##𒉡
##బ
##ѧ
##𐡶
##𐡦
##𐡡
##𐡩
##њ
##＝
##ગ
##あ
##╥
##╨
##┐
##☺
##ƹ
##ᆮ
##𐑄
##𐐲
##ဖ
##ခ
##ᠠ
##ᡥ
##ᠯ
##ᡳ
##ᠶ
##ᠨ
##𐰇
##𐰛
##よ
##𐤏
##𐤉
##𐤕
##𐎹
##ख
##ˤ
##│
##ѫ
##𐤁
##ീ
##✿
##ᓅ
##ੜ
##ప
##ノ
##इ
##ਖ
##ꞌ
##દ
##ϝ
##ђ
##ঙ
##ǃ
##𐐹
##𐑊
##த
##ⵎ
##ⵔ
##ઢ
##ᚨ
##ᛁ
##ᛉ
##ട
##ക
##ള
##✯
##ണ
##ქ
##៧
##ऽ
##ङ
##տ
##ծ
##𐌖
##𐌌
##𐌀
##ฐ
##ந
##ெ
##ண
##つ
##ન
##𐡕
##𐡐
##𐡓
##𐡃
##ꦿ
##ꦲ
##ᄈ
##फ
##झ
##𑀲
##𑀓
##ɷ
##ᕈ
##ᒥ
##ᓗ
##ಧ
##ಯ
##𐌠
##𐌡
##𐌣
##ܟ
##ච
##ය
##∼
##ን
##ች
##ਯ
##～
##ෑ
##ᚦ
##ਈ
##∪
##వ
##ಡ
##န
##ཀ
##∣
##⇄
##ও
##𐌹
##𐌿
##𐌳
##𐌰
##𐍂
##𐌴
##𐌺
##𐍃
##⏑
##ಥ
##␠
##ほ
##ነ
##ѹ
##𐰼
##𐰰
##ɯ
##శ
##ఖ
##ਪ
##ਏ
##চ
##ㅂ
##ㅇ
##ए
##ᒧ
##ᒌ
##ⲧ
##ⲏ
##ⲙ
##ⲛ
##ⲥ
##ळ
##𐭩
##𐭯
##𐭭
##ઞ
##३
##𐡊
##꞉
##ಭ
##𐎦
##𐎢
##သ
##ℤ
##ʎ
##𒋡
##𓏌
##𓊖
##⁸
##ள
##ᵋ
##ᆺ
##≧
##ܚ
##ৱ
##ሮ
##ਲ
##ソ
##𒌍
##ᶅ
##డ
##ሕ
##ት
##𓏠
##𓈉
##ｮ
##ﾎ
##ﾞ
##ｰ
##ﾝ
##མ
##𞤺
##𐐪
##𒈨
##𒊑
##𒌋
##９
##𞥆
##ભ
##ƣ
##ղ
##ꮎ
##ꮟ
##⊆
##ሪ
##𐒝
##𐒑
##𐒛
##𐒐
##𐒘
##પ
##લ
##ષ
##ણ
##ᚢ
##ᚾ
##ᚴ
##ᛦ
##↦
##∂
##ڬ
##զ
##ચ
##ײ
##ؿ
##𐊹
##𐊼
##𐊥
##𐊪
##າ
##ວ
##⅞
##■
##መ
##ል
##✡
##ફ
##မ
##ߌ
##ߛ
##ߊ
##ߥ
##ߏ
##ᇀ
##ہ
##ጽ
##ዋ
##գ
##ʑ
##⇗
##ᄍ
##⋯
##ᔭ
##｜
##𞤱
##উ
##ғ
##સ
##𐫏
##𐫘
##𐫛
##𐫇
##𐫗
##𐎭
##𐎠
##𐎶
##ઘ
##ណ
##□
##ګ
##𐐨
##𐑆
##ਧ
##ᓯ
##ᴢ
##ӈ
##𐀩
##𐀭
##𐀅
##𐀫
##𝗺
##𝗽
##𝗶
##𝗿
##𝗲
##𐰻
##پ
##ଂ
##କ
##ର
##ନ
##ତ
##ና
##ᴄ
##𓈎
##ⵙ
##ɩ
##ែ
##𒀕
##𒆠
##₩
##ɥ
##ɴ
##ቃ
##െ
##മ
##ɸ
##☉
##է
##ℵ
##𐐫
##ැ
##ౄ
##ܦ
##ܣ
##◦
##≃
##ባ
##ਇ
##ડ
##ŉ
##せ
##โ
##ヨ
##˙
##𞤨
##ብ
##ধ
##ᐢ
##ᑫ
##ᐠ
##շ
##♮
##˭
##𐰚
##𝘁
##𝗮
##ટ
##𞥇
##ᐃ
##ᐍ
##𐌓
##ೖ
##ല
##സ
##ထ
##ဆ
##ѳ
##ซ
##𐊑
##𐊏
##𐊀
##ཇ
##ぃ
##ይ
##օ
##ߐ
##ߣ
##ߞ
##ߙ
##け
##ဇ
##ෛ
##🇷
##𐬌
##𐬭
##ః
##ญ
##ە
##ێ
##კ
##ɂ
##ᴀ
##ɢ
##घ
##པ
##ଜ
##ଗ
##ມ
##ٹ
##𑀥
##ꭻ
##ᏹ
##∃
##ꯛ
##አ
##ካ
##ᔨ
##ᔫ
##˧
##𒀭
##𒁲
##𒈠
##𒊕
##˥
##˩
##ጋ
##ⲕ
##ϫ
##𐱃
##𐰆
##𐰣
##യ
##џ
##🜨
##ᚽ
##ᚿ
##ꞓ
##𐒕
##𐒌
##ਟ
##ማ
##ʏ
##๕
##๔
##๒
##ⵍ
##ⴻ
##⌂
##ワ
##ܗ
##𖬯
##ʧ
##ㇷ
##ʝ
##እ
##ሲ
##𐌑
##ృ
##ർ
##വ
##ൻ
##ཟ
##№
##ᓪ
##ᓚ
##ཏ
##𒈾
##𒄴
##൰
##൨
##ਭ
##⅜
##ቅ
##ቓ
##𐌻
##𐌾
##฿
##ጮ
##℥
##⍵
##ϧ
##ⲱ
##ೃ
##ℳ
##છ
##ٿ
##𐊭
##𐊳
##လ
##ࠅ
##ࠓ
##ࠄ
##ⱡ
##١
##٢
##٣
##٤
##٥
##٦
##٧
##٨
##٩
##ᚼ
##𐤓
##ገ
##ራ
##ዊ
##ᵊ
##ᐱ
##𑀬
##𑀫
##𑀦
##₾
##ӄ
##ഹ
##േ
##𒀀
##𒈬
##ខ
##ទ
##១
##០
##ឆ
##ĳ
##ϟ
##ග
##₽
##ߎ
##ߟ
##☆
##𐏀
##𐎣
##ਥ
##𓏭
##𓆱
##ෂ
##ප
##ϩ
##ﻹ
##ȷ
##ཛ
##ܕ
##ൽ
##゜
##ꝛ
##ላ
##ஞ
##ހ
##ބ
##𐤑
##ۇ
##ȡ
##ẚ
##⊖
##ゅ
##ㅁ
##𐒆
##𐒗
##𐒒
##ற
##ܙ
##◡
##▰
##ꮑ
##ꮃ
##ꮕ
##ꭿ
##≫
##ᯬ
##ᯅ
##ୀ
##େ
##ᣙ
##ᆽ
##ㅠ
##ᓂ
##ᔑ
##ᓈ
##ᐯ
##ᐗ
##ᑭ
##ᖃ
##𐅁
##𐍆
##⎯
##ܛ
##ƥ
##ލ
##ฑ
##ધ
##₣
##ᑉ
##ᵒ
##ድ
##ਡ
##ଣ
##ល
##∫
##ƈ
##ছ
##ㅜ
##ㅉ
##ㄸ
##ㄲ
##ཐ
##ᚃ
##ᚔ
##ˏ
##ژ
##װ
##ॊ
##ዩ
##ኖ
##ኒ
##ㅅ
##ᑕ
##ᓐ
##≪
##ⲃ
##ශ
##ஜ
##∝
##ฉ
##ਚ
##ఞ
##𐒁
##𒁉
##𒈜
##𐎰
##𐎫
##𐎳
##𐎬
##𞤥
##𖬜
##˛
##ƙ
##␣
##ණ
##ඩ
##へ
##𒅁
##𒌅
##𒅖
##⩽
##⊦
##ㄌ
##ㄧ
##ㄠ
##ঃ
##𒅎
##𐡒
##を
##゛
##⁺
##ㅊ
##ㅌ
##ㅋ
##ཆ
##⊢
##ヰ
##ሰ
##ゥ
##ਐ
##𐭬
##ນ
##ທ
##ະ
##ລ
##ƕ
##𑀭
##𑀢
##ཞ
##ሣ
##ɵ
##ᵻ
##ℰ
##դ
##ጆ
##𒄾
##☾
##ଧ
##ବ
##ჰ
##ҹ
##𐤎
##ɧ
##𐌕
##˦
##ክ
##𒂆
##ግ
##𑀳
##𑀧
##ట
##𐊒
##𐊄
##❤
##✓
##𐬉
##𐬰
##𝗳
##ៃ
##ᜇ
##∕
##ꙁ
##ѡ
##జ
##𐡅
##ฎ
##ฏ
##ᯀ
##ゝ
##𐒓
##𒃾
##𒇻
##އ
##ކ
##ߍ
##ⲝ
##●
##ݢ
##િ
##⋆
##⅝
##𐡉
##చ
##ᚹ
##ᛖ
##𓅓
##𓏏
##ህ
##ꞑ
##ਊ
##ڭ
##ధ
##△
##ŧ
##℞
##˓
##𓌉
##ဘ
##ƀ
##ꮿ
##ሩ
##ˎ
##ɝ
##む
##ᛋ
##វ
##ጅ
##𐑌
##he
the
##er
##on
##in
##es
##an
##at
##ed
##or
##en
in
of
##ar
##al
an
##it
##is
##ic
and
##ing
##as
##ion
##ou
##re
to
##om
##le
##ent
##il
##el
##ol
##st
th
##ct
##ro
##am
re
##ur
##et
##ad
##ation
##iv
st
for
##ch
is
##ly
##ce
as
was
##id
##ig
on
##ot
##ir
be
19
##ut
##ers
##us
al
##ist
##ul
##im
##ow
##em
##ith
fr
con
##ay
wh
with
##ter
by
##ver
##ge
##th
##oun
##os
##and
##op
##her
##ra
un
de
it
or
ch
com
that
##ac
##ies
##um
pro
##ity
se
at
##ian
20
##est
##un
##od
from
##ess
su
##av
##ain
##se
##ere
##oc
ex
##ate
are
he
pr
##ab
##if
were
ne
en
##ich
##pe
ar
##ia
##ort
##ud
##art
##ip
##ial
##ill
his
##ated
##ld
##ant
##ment
##igh
##ap
##all
##ber
##ak
##ard
le
pl
##ive
##og
##ag
##ical
18
##ary
##qu
which
tr
am
inc
##ish
##ount
sh
##our
##ine
##ib
##der
##ast
##ction
##gh
##ther
##ome
##ore
##ov
##ost
##ie
##ell
not
wor
comp
##pp
##iz
##ure
cl
had
##cc
us
##ame
sp
##ear
ad
##du
##per
this
##ous
##so
##ong
##ans
af
res
##ens
##ough
##age
##ave
count
##ound
##rit
##pt
##end
##ub
also
##ight
mar
cont
200
ab
##ect
man
per
comm
int
whe
##ition
part
all
201
##ks
##ican
##ord
##ust
##fer
##ence
has
sc
new
##ry
##ass
##wn
##ations
##out
##ign
year
##ates
other
its
fir
##ue
gr
can
##mp
te
##ult
##ory
##ual
cent
there
##ire
##ater
##tern
have
amer
one
##old
##man
##00
but
first
##ph
their
##lud
tw
##ces
##over
ser
dis
##land
who
pop
##ru
col
##ang
##ied
##ree
##ace
pe
ind
##own
##act
includ
rep
##ide
##ould
##ict
##ime
##ile
bec
##ice
pol
##ond
sy
##ack
ro
ag
##ited
##les
form
##hed
##ely
des
##ose
rec
me
##ational
##ach
##ke
popul
city
##ite
american
county
##ouse
after
they
##ents
##ff
ph
two
gen
par
##ance
##one
##ubl
over
car
##able
under
199
bo
been
ev
##ions
ele
##vel
sch
##amp
##te
br
##ok
pres
##ade
more
spe
her
out
acc
war
some
house
##aw
##ors
act
##ail
##ood
co
##we
fe
##ced
##orm
##uring
bl
most
eng
reg
fam
##olog
ear
age
pre
##oll
##ild
med
##ics
fl
##int
##ath
cons
jo
may
up
hist
bas
we
no
years
off
such
##gr
rel
kn
bet
##orn
peop
when
fil
into
play
exp
##ake
app
198
ma
ap
famil
people
##iss
time
states
##reat
used
sou
imp
##ool
mus
nor
##eral
##ivers
ac
att
sec
char
min
##ities
ass
##inal
##ons
during
##ings
##ism
##ury
loc
trans
produ
##aus
publ
united
197
inter
##ts
ter
town
##hip
so
po
sub
population
lar
tra
world
film
thr
##ve
17
high
##io
bu
##gan
##are
than
##ween
##ale
school
##ific
between
##ious
##ales
##eld
mon
state
##ative
dec
mod
dist
##oup
only
inf
many
196
met
househ
##ase
est
##oth
##ward
##au
would
##ft
liv
##overn
them
li
govern
##ved
how
##stem
##ton
##iet
these
##ished
##way
num
will
##ys
about
##urn
str
qu
##ember
def
##ick
system
##ind
##ten
##ne
through
##ince
she
work
16
inst
cap
air
##ep
##ix
bel
##ug
set
do
univers
call
##raph
##rib
##ral
##lish
##ier
em
him
##ution
10
ed
century
##ress
15
##ock
ger
spec
national
bro
north
rem
inv
ge
##ists
##ern
sm
##ower
area
old
made
art
dep
including
refer
found
known
##its
south
##hes
##velop
##cted
##ject
##ines
##ins
where
##ating
supp
prov
household
##lo
##anc
while
stud
##tle
##urr
##ted
develop
later
##0s
ob
194
king
##ollow
writ
##uc
##hn
general
##ences
aut
##ife
cr
follow
day
end
pos
gu
##ames
##ron
commun
dif
195
##ric
const
##ient
##ular
##ures
mov
fem
##ah
any
##res
main
land
##ize
var
add
##ss
sim
oper
pers
german
##als
three
arm
im
dem
##ork
##tain
##ograph
##ise
serv
##iver
use
government
well
##ty
12
soc
##ever
both
polit
##con
cens
##ural
brit
##ank
##up
##ized
ever
group
##uro
dire
again
early
john
##ery
##ision
##ann
##ather
##ident
then
##az
orig
##ement
##ause
dr
##cept
census
mem
history
ty
mil
rev
id
##ology
##fore
el
however
called
##aces
living
sever
sign
being
university
ext
intern
##iam
second
nov
sl
##ium
##ctions
sa
##cess
became
##ually
since
193
cor
aver
##air
maj
##ments
ret
colle
public
##ield
family
cre
cal
lead
11
fun
long
op
if
sur
##ically
##other
val
gre
##ined
##til
euro
eff
english
mat
number
west
term
sing
law
major
la
##uss
those
##ley
average
##ional
ref
##led
##oman
estab
14
##bers
##cy
four
lin
##ik
##els
##ording
##ians
000
bar
design
##ene
red
har
lang
##ible
emp
##get
##row
25
own
##imes
see
##elf
child
192
port
histor
##ased
##ange
chr
##ature
##gest
non
##enn
13
class
differ
sw
europe
##iew
##red
disc
##ench
offic
occ
##ially
leg
line
several
##ider
##ages
##inn
hum
mill
##ina
island
desc
##hen
langu
contin
name
##ll
##ars
##ck
present
comple
av
music
contr
every
##hem
income
##eter
before
progr
##ility
##rop
conc
appe
##ues
ann
##ants
according
french
median
cour
##port
lit
##erg
##ble
record
ii
##eng
compan
ke
support
lat
bat
based
organ
water
near
191
because
##ren
##ful
great
power
mo
##ivid
each
##urch
same
##osed
##ently
##son
show
conf
vers
charact
perf
east
##ally
elect
common
##amed
small
##por
series
partic
british
families
until
##ball
##ital
result
life
100
##ting
##xt
##ived
mid
65
point
christ
je
often
death
households
##ract
mu
river
##omin
##yn
cult
##conom
towns
examp
aust
##ared
##ross
against
mark
##ason
rele
phil
24
##ives
##pl
equ
##ino
pat
president
direct
##ister
##rict
##ull
white
##ior
##vent
##oot
econom
ins
rad
##atic
##inc
like
jun
##iod
back
auth
##amm
lo
fre
open
original
could
born
ant
trad
international
incre
bus
##aking
##ius
##ane
mag
##br
##ica
arch
##bert
alth
pass
squ
##erv
list
##chn
make
remain
go
although
order
right
es
large
now
##ised
ent
##ought
size
following
my
##ont
prot
##ec
consider
person
ju
##ute
park
former
tele
##ission
run
around
stand
references
sol
coun
##ices
ste
##ets
##ued
##ator
##ccess
##omet
2010
##ger
camp
build
within
vol
##ri
home
include
##ruct
hy
appro
##ience
##ark
period
##cl
tem
techn
milit
children
along
did
##ird
down
stat
press
sk
30
repres
indu
##tal
author
202
york
jan
modern
##und
even
##ired
##ried
requ
##ille
different
roman
head
##ides
##ret
far
alb
##read
way
##bs
##ively
fin
country
fur
##ified
effect
success
church
aug
another
hel
##duc
##iation
##ization
2000
ep
##ert
##lu
among
just
##itions
located
##ief
district
due
##ival
adv
post
rest
##ony
import
21
members
##ison
##ography
net
gl
allow
geor
##ax
##lished
del
example
black
##ove
##ams
males
##omen
##pect
crit
local
began
rece
party
ir
oct
##aim
females
place
##ended
##ily
ang
hand
##ilt
prop
award
##ency
assoc
##ae
##co
##bo
##ai
##uary
##ensity
##ode
ital
established
nort
##ries
august
process
much
vis
##yl
song
##ured
poss
educ
##min
language
prof
190
individ
##ash
represent
start
##iety
opp
older
named
last
game
march
report
military
##ately
center
##iven
foot
##ese
##estern
individual
what
##by
eas
##ner
god
arr
william
book
##que
curr
##ott
return
company
##oss
character
exper
fact
short
russ
density
bre
##lic
jap
##par
using
dra
sept
##ternal
word
hol
##ided
total
political
##oph
republ
further
canad
million
civ
japan
army
read
typ
mass
describ
stre
vill
##urg
central
june
sum
addition
still
popular
july
rail
january
##rip
vi
dece
##ases
##ata
##aving
##ril
led
div
km
lim
men
189
human
##ats
nat
township
external
final
pal
very
square
##reek
development
##ober
##aced
star
september
##be
rout
contain
real
field
tit
##ford
##mber
band
mor
lond
resp
october
##ling
##idge
22
pa
##mer
social
##akes
london
##hest
super
hig
mount
##ilar
##alth
indust
##cil
best
treat
lab
beg
level
bi
road
influ
hous
##gether
together
##rodu
service
civil
december
phys
community
##ves
23
links
similar
##line
hal
late
prim
##olution
resid
son
ra
188
top
arg
##ness
##ories
austral
april
##ms
##ibr
built
western
##ler
##iness
feat
sen
##ipp
sour
relig
##hing
tour
sal
##ville
##xim
control
times
said
tradition
aff
left
rock
##let
expl
##erc
union
published
five
november
##ven
bod
ill
26
six
player
less
free
space
bor
resear
##ological
female
vot
court
mult
##yal
##ards
##epend
cle
low
##dom
afr
battle
##ths
council
##day
dev
kill
vir
independ
##irc
cat
event
##pan
##ged
##vers
27
##ument
##cer
##ration
bra
iss
187
det
turn
let
meth
##vision
gra
light
san
team
28
held
largest
african
rac
cy
women
45
du
den
##loy
##ays
##ring
chang
european
particular
##hel
season
comput
manag
##ria
somet
##bru
##ob
##sc
given
comb
##ones
##ague
official
miss
cities
races
dav
third
186
france
pur
rich
included
album
anc
cer
considered
though
circ
acad
##sh
claim
region
areas
hun
##aster
ident
took
prev
various
units
##ps
lou
important
imm
without
instit
##arch
special
##augh
init
project
febru
force
indian
february
released
lake
you
married
cam
ide
struct
##ters
academ
business
single
##uted
##ript
few
introdu
##ges
gold
view
mot
##empt
test
##lin
nav
vict
##ald
inform
sug
cast
activ
become
##ruction
pain
##hern
television
##anish
##ama
ce
enter
mic
production
pract
##iated
grow
##work
native
base
films
engine
der
youn
care
50
rul
##yle
football
coup
works
er
bir
29
bill
games
kingdom
england
cond
caus
##ither
education
sit
proper
good
exist
earl
ur
college
northern
won
##dle
broad
44
##me
repl
role
##iction
40
##orts
##ends
64
method
jew
race
##ox
mean
##rote
##na
mich
##raft
sold
developed
##thern
fed
need
bur
places
libr
##ows
##ink
##ning
christian
perform
##ots
##af
##ogn
conn
invol
office
##osp
forces
31
usually
##inning
depart
research
dest
##ental
##ored
natural
hen
##imate
jud
royal
##ably
prom
##oks
##ician
##mit
father
southern
ve
command
anim
systems
##ape
case
below
cross
##ways
mile
relations
fac
##olic
tre
##ops
sat
##band
wrote
profess
185
territ
grand
calif
##istic
gener
news
##app
story
##ham
californ
beh
##lex
created
greek
version
syn
league
anal
don
##side
attempt
priv
##ying
earth
##ances
mal
empire
having
##ky
win
2020
sil
mater
##ected
fall
tur
middle
muse
##gy
california
radio
side
wal
member
constit
ru
belie
america
dou
countries
##ze
society
green
james
##ike
species
science
mer
##eign
##gen
never
written
ber
##ids
##ification
came
must
hus
##ination
obs
building
##ana
sym
##ificant
##ney
franc
produced
2007
##ention
##acks
2008
##go
democ
ox
sun
data
sea
george
plan
theory
male
significant
ren
others
sent
coast
##ita
separ
station
received
dut
##acy
que
ship
help
admin
##bor
product
died
meas
cath
##etic
museum
hill
function
pap
germany
village
fire
thus
route
##ergy
##to
economic
ver
##ability
appear
hon
does
wind
charles
eastern
philos
compos
##burg
princ
schools
played
##sequ
louis
body
enc
take
cop
##ential
wee
club
individuals
jour
##isc
pot
groups
##itive
##iving
##ining
host
##gar
full
housing
che
should
##ising
##ched
ps
##ple
##oy
republic
type
half
strong
##aken
establish
transport
uk
hom
2012
2006
standard
ara
culture
##urs
days
2011
cost
##ades
material
object
##ctor
library
bc
2009
proble
hall
##craft
##ma
cro
frequ
##pec
transl
##ains
mart
sov
china
previous
suggest
sometimes
decl
et
site
##ches
##uel
ast
interest
minister
tro
coll
cell
##wards
##oint
heav
making
street
##ead
soviet
little
##inese
compet
cover
express
eth
described
##ka
##emb
capital
##ending
hard
husband
robert
fri
bal
italian
thom
spanish
32
##ware
next
184
liter
market
sex
chinese
colon
wood
##field
##rew
35
##omb
##ara
##ense
polic
##iple
##anch
##aries
##ators
##ee
style
health
attack
fund
cit
avail
2013
redu
either
model
paul
sound
##most
mac
deb
doc
2005
##lect
founded
fort
trib
recogn
novel
temper
information
rather
##ipal
exec
##cent
henry
##orman
agre
##ban
env
brother
continued
champ
hold
discover
scient
pen
fail
invest
##nal
##older
##orpor
##yr
183
##wood
generally
david
actor
##gress
##ien
dig
sn
##ico
energy
##cle
element
current
##eth
events
served
rights
2014
japanese
fa
##used
##uf
##ude
administ
access
sain
neg
food
throughout
lower
mun
di
ten
##self
range
position
vide
text
study
deter
##iron
once
employ
alone
chem
log
##tic
2015
pac
performan
##val
##ounced
##idence
young
##ength
trade
color
##asing
upon
commit
services
domin
formed
hor
racial
sem
##oms
##ta
impro
program
##ique
ancient
emper
secret
##face
##gin
wall
espec
pet
20th
tex
available
himself
pred
hispan
desp
especially
##form
network
##hers
instead
liber
books
fer
democr
distrib
makeup
##umb
2016
wil
##ked
foreign
aud
norm
##less
##ached
##com
2004
##here
##cul
approxim
live
artic
dam
ground
householder
across
above
flor
environ
##ole
movement
##itect
##den
federal
election
spread
tar
ach
offer
higher
prote
##ensive
russian
night
becom
architect
anti
tax
catholic
##iers
possible
##rael
##nes
languages
poet
##amb
seen
change
account
defe
least
politician
##ych
commission
##ster
##edi
find
2018
##rug
##hib
##ope
related
complex
##ago
subject
parts
occup
historical
schol
##ey
wife
##ael
mother
alex
wid
##ucle
##aps
##utions
viol
cd
##pr
33
2017
canada
terms
bud
##ateg
mach
rate
today
key
put
fig
##ements
60
##anted
mary
concept
##ii
##gn
##ffic
36
director
israel
personal
2019
lost
department
ul
opt
2001
bay
bank
moved
dom
revolution
##apt
dyn
asian
diff
##itan
certain
accept
includes
jose
mex
eight
##ained
regard
##aves
##ceed
know
reb
##ani
despite
board
meet
step
couples
singer
emperor
##arily
##west
big
afric
religious
students
video
almost
hispanic
##ula
##uation
reported
computer
entire
##chan
historic
frank
india
private
phot
##uit
ball
nucle
inte
prime
2002
introduced
front
##isl
##eder
##rap
##iff
ben
vo
mc
fest
cur
laun
##iest
##wor
##aff
critic
title
hit
valley
wat
airport
soft
##atory
2003
##ume
richard
##itor
magn
someone
##ota
traditional
journal
##ours
##lands
80
##ero
##ites
media
abs
washing
hot
parl
commerc
followed
past
chief
contrib
sam
##cast
##ex
originally
gar
consist
tal
prob
##utes
origin
environment
climate
whose
##aign
capt
rom
##itz
##of
australia
applic
thomas
seven
kh
glo
dutch
card
canadian
association
indic
islands
mathem
lu
fav
34
division
plant
except
nar
sett
##key
los
surv
##onst
##ida
oppos
pacific
##writ
aircraft
mur
construction
latin
means
##ania
seat
37
##erous
industry
eventually
fut
##ming
washington
rob
elected
respect
##itar
19th
rh
notes
taken
tom
epis
congress
surr
africa
campaign
geography
fle
paris
theat
psych
itself
travel
##ufact
independent
successful
foc
code
##heast
ess
manufact
1999
parliam
##rial
rap
source
constitution
mel
went
##leg
leading
##atives
rank
condu
maintain
pover
bure
ze
181
##pre
provided
##ems
poverty
##erson
summer
characters
##tt
qual
##aut
38
opened
##ving
percent
structure
clos
##bal
actress
##ror
sus
cho
associated
scre
##ols
##ingu
disp
forms
mad
recorded
parliament
action
rule
##ett
displ
##gypt
hyd
##ership
technology
creat
scott
lived
##ishing
##ering
features
grad
numbers
corn
##ote
bureau
##oney
saint
egypt
##orporated
exc
adop
fight
killed
182
subst
speed
##road
beginning
economy
altern
notable
self
review
gro
latino
##ises
##berg
thought
announced
##elling
influence
centre
##uments
cultural
programm
elements
outside
##nam
increased
##urity
##mar
evidence
remained
micro
arab
months
primary
symb
90
territory
achie
residents
##cing
##mon
constant
forest
pan
performance
reform
demograph
##ha
say
##ki
sources
designed
saw
close
academy
value
##asc
##ropol
stra
1998
nature
respons
##ilities
mechan
week
meaning
career
appoint
virgin
appeared
settle
studies
daugh
##hood
##rupt
neigh
subsequ
##sel
70
uses
names
alexand
gal
##ansas
##ulation
particularly
legisl
commercial
##icult
relationship
ord
##lement
cut
working
governor
started
bound
convent
peace
gave
tim
reading
estim
pay
##king
era
##ference
conserv
quest
##ym
arts
mix
border
##ump
##iding
##rated
referred
lay
1996
words
van
provide
records
swed
ham
pit
deg
blue
sequ
australian
peter
##ij
jewish
##wer
##bon
##stand
##iting
concern
iii
highest
majority
##reg
##antic
italy
##odes
##ls
lear
police
able
km2
1997
##ado
specific
writing
ven
allowed
typically
emb
spir
oly
cann
highway
41
britain
cand
connect
##put
communities
fair
39
##action
future
pun
##for
##uck
date
required
angel
capita
destro
policy
olymp
get
##ened
gun
gas
##umn
birth
communic
prec
##rian
philosoph
minor
##ysis
particip
tor
fif
cases
##che
##li
ho
via
bul
42
##ights
shar
returned
instr
regular
fell
atl
love
plat
pow
wr
writer
surface
prince
##lam
chap
mos
mission
lines
musical
cele
prior
growth
lord
limited
1992
electron
##iment
##usion
1994
round
##inct
document
sports
irish
##olf
release
loss
professional
##aker
leader
##men
nations
iv
security
mont
increasing
kar
versus
brought
##ties
away
companies
myth
##bit
1995
legal
clear
points
amount
##bc
agric
gard
lik
hu
1990
bridge
spring
stage
##ush
too
financ
ban
tv
georg
##hab
acqu
500
demographics
##enced
##ection
oil
michael
##istan
difficult
greater
types
##atively
defin
plann
chann
##ulf
emerg
queen
##ores
screen
players
pra
cause
munic
chic
os
approximately
##ques
ha
##ift
dise
##ground
blood
larger
##ibility
rat
stated
##edy
labor
might
sele
##pper
print
##ios
##igan
brown
ca
caused
##ropolitan
wild
##fl
agricult
francis
increase
online
##ga
purp
##ips
assemb
collection
electr
##ned
##lict
believed
added
municipal
##view
##orial
earlier
bene
smith
mountain
divid
##lim
##ayed
statist
magaz
75
pie
##lied
come
##ano
regional
##ension
##ishop
##kn
nation
##ands
changes
mostly
organization
imper
remov
##erved
##de
saf
rome
champions
section
festival
unit
1991
180
##istry
adj
length
esc
operation
designated
##inois
##ste
replaced
1993
ol
continu
webs
industrial
##ini
theor
##ona
quant
179
##ffer
dim
illinois
wars
celebr
medical
integr
electric
prevent
physical
soon
oce
bow
sac
48
##aged
##ested
laws
##itude
kore
ec
tun
gall
defined
complete
deal
ult
counties
observ
therefore
##uth
victor
recent
daughter
effects
ris
##uk
accom
corpor
spain
##opp
broadcast
writers
43
cust
practice
##iences
democratic
conver
institute
assist
location
resist
joseph
software
##well
prem
##oles
##eration
famous
##ify
##olk
fiction
operations
citiz
##uries
numerous
surround
commonly
lack
1989
##ya
pil
chicago
break
ib
ens
##inary
2021
ethn
month
##utive
##ca
annual
##porary
remains
jul
##igr
always
digital
sand
americ
look
whether
railroad
sant
##ba
hosp
gir
our
address
nob
classical
##col
buildings
destroy
deaths
##pected
management
performed
committe
proposed
##airs
##ena
navy
occurr
themsel
themselves
bit
determ
wide
edition
letter
##ker
cab
russia
burn
##aching
completed
religion
##riage
longer
shows
47
multiple
protest
cry
independence
railway
ey
conflict
involved
necess
nuclear
pict
dynast
towards
##att
##off
contains
literature
jer
edward
49
##writer
##izing
polish
urban
1980
whom
##ari
vari
##ires
theatre
##isions
iron
##ipl
troops
treaty
##ledge
baseball
##anced
path
pressure
##oura
produce
asia
islam
##elled
inn
##ola
##med
cdp
dead
republican
woman
##ready
##lor
ire
amb
temperature
mess
additional
##ris
authority
box
property
register
training
##onse
separate
heart
##iance
##hic
rot
sout
##oted
mathemat
##iana
extre
michigan
contem
dial
metropolitan
medic
##bridge
cra
threat
##tered
require
directly
website
variety
politics
expand
weap
conditions
1988
52
florida
already
##ung
##enc
changed
ireland
categ
luc
martin
stone
##itation
discuss
insp
widely
##vey
##head
##och
problem
measure
nearly
supported
results
##erve
virginia
conv
elementary
##pap
1986
##ality
##oration
financial
carol
honor
46
better
here
##lying
51
active
global
reason
immedi
autom
residing
status
resour
winter
od
analysis
keep
flow
worked
implement
money
1984
55
larg
haw
texas
cart
##ression
reached
response
products
pope
create
maxim
vehic
sir
diss
##oid
##ros
##ston
distribution
track
columb
candid
smaller
artists
##iant
##asons
true
corre
prison
cred
deep
1987
penn
##igned
newspap
ice
progress
upper
magazine
freed
mexico
compar
likely
controll
##bour
scot
##mitted
1985
cas
largely
quick
province
ly
metal
pu
winn
provides
placed
portug
00
problems
article
transfer
behav
##nd
scholars
roll
latter
poly
give
##esh
purch
administration
producer
##ds
spirit
duke
1979
95
1970
committee
web
poor
##rison
##resp
##ologist
fourth
issue
consum
##mark
previously
thous
detail
initially
##chest
ocean
paper
##change
##aur
##oe
bab
1983
imperial
scientific
1982
target
move
sens
1980s
##ously
examples
ran
levels
divided
guitar
il
playing
wit
##oses
hyp
bell
anth
claimed
directed
subs
dark
1970s
##une
##ables
vote
owned
episode
stories
##town
##ada
1968
viet
##isation
hydro
songs
voc
##ivity
fel
##use
##respond
taking
correspond
suffer
die
farm
estimated
nomin
quar
promin
joined
chemical
1972
scale
friend
1976
##iber
occas
hop
featured
benef
##inet
forced
inj
178
idea
mention
marriage
mob
heavy
protect
##ription
currently
focus
##aled
issues
volume
flight
1975
ax
##oon
oh
happ
##cher
closed
##oke
appointed
kent
lad
##bury
discovered
cov
##gl
##ream
signed
ded
academic
programs
dia
table
passed
sav
awards
##izations
##ram
##itors
populated
running
##ech
##aches
primarily
cru
whole
vac
beach
regions
##za
stock
appears
championship
block
billion
behind
##outh
ple
branch
counter
investig
mir
draw
complet
muslim
rain
ray
1974
lie
1973
decided
ath
##inian
oxford
bomb
dynasty
makes
concent
cup
1981
starting
represented
53
##ellig
1960s
prize
bad
guard
##onia
compon
rang
flag
adopted
orth
bib
simp
1969
##ulated
rules
nine
contract
invent
adm
enough
friends
obtain
##gon
exhib
1945
##ructed
98
stars
artist
##rative
channel
shown
##nel
composer
mainly
internet
##stein
alexander
highly
##ette
jean
mut
##iate
transform
1967
georgia
1990s
flu
pack
presidential
99
feature
assembly
drug
coal
##my
memory
mayor
unl
##iter
##ching
1971
conference
lee
cham
basic
demonst
##hi
hund
noted
carry
##yer
compared
##het
done
neighbor
rapid
yet
astron
trail
distance
1964
ended
##enue
intellig
basis
kind
hospital
bird
97
minnes
cub
96
functions
citizens
##gor
staff
spect
##ket
shot
becomes
mole
spl
1978
54
finally
double
minnesota
distinct
ships
cannot
##oor
centuries
anne
von
##enth
course
disease
##icated
creek
##iles
angeles
##ancy
ethnic
inhab
machine
takes
hundred
initial
lif
##ua
master
conqu
budd
##ias
dar
agreement
teams
crown
nap
secretary
incorporated
potential
philosophy
impact
##cel
mit
hours
image
carried
##ansion
rise
##aded
56
gree
##uls
hab
alt
holy
pattern
##wide
elections
activities
boy
1977
settlement
177
##hens
##onic
bishop
parties
knowledge
sar
##omy
##rovers
stations
mis
graph
##opher
historian
methods
jac
mcc
ta
campus
chall
treatment
assum
reve
understand
lic
##ocks
experience
##akers
##ients
1965
spr
##achus
question
bern
ba
letters
conne
transportation
motor
cold
synt
controvers
degree
map
braz
quality
1960
carl
##usc
##arters
defense
tenn
murder
fal
##ession
##icted
comment
supre
silver
critical
probably
virt
##ging
brand
runs
##astic
resulting
jack
operating
ros
##era
62
combined
stan
##bre
da
bon
americans
##ered
sense
dro
animals
tree
kansas
gh
naz
wa
repe
contemporary
think
golden
##wise
reference
johnson
sexual
suc
engineering
##ieval
interview
ut
powers
mas
##war
##aland
becoming
ring
movie
1966
##olved
relatively
58
##omm
plants
creation
miles
hero
activity
ga
nearby
soldiers
minim
manager
establishments
foundation
rand
nether
workers
architecture
acid
consists
##etts
twent
##pped
ful
deliver
poland
collect
bring
extended
decision
85
##gian
57
extra
symbol
failed
##izes
castle
normal
interp
##ograp
carbon
##isms
##has
northwest
occupied
applied
##board
contrast
chron
##va
southeast
##ken
jur
##iform
calcul
direction
cambridge
suggested
##vin
properties
jacks
mi
##win
##wh
risk
nic
executive
tas
jes
bey
marsh
91
simple
face
temple
fat
trial
##ibly
##zz
launched
ancest
dog
ages
winning
sport
compr
intended
operated
##rd
approach
cells
medieval
brazil
fish
jeff
frequently
##amin
belief
student
needed
opera
bond
scottish
note
##ella
remaining
uns
figure
voice
##ption
##mond
##rich
##back
justice
reign
equival
##ees
wing
pp
##gs
footballer
fix
66
1963
demand
93
##sec
87
jackson
ott
##rey
leaders
68
share
massachus
protection
jews
victory
equal
##anian
##cks
mountains
composed
decre
massachusetts
speech
dail
moon
les
contact
convention
und
##kins
advent
##mann
##ington
reduced
brief
catal
entertain
bed
appar
wave
signal
derived
meeting
dipl
##abeth
mr
##met
succeed
calend
coop
netherlands
houses
##igen
models
presence
92
pier
serve
anton
1962
61
simply
influenced
grant
freedom
ash
94
##da
captain
births
offered
declared
opening
##bi
##inem
sites
restrict
responsible
fast
##bed
invas
rivers
joint
##uated
naval
albert
listed
growing
paral
identified
diplom
resources
zealand
sister
##encies
##yth
kings
exchange
##lies
1st
##ione
300
freder
slow
gene
##ody
##lers
jim
##orph
prin
equip
59
divers
studio
ability
portion
instrument
greatest
positive
arrang
accepted
memorial
kenn
sher
samp
officer
quickly
philip
materials
destroyed
scene
88
1940
agreed
objects
neut
turned
alph
perman
dun
pian
beat
basket
mind
display
matter
63
##iger
coach
##estic
monarch
##azz
attrib
defeated
plays
heat
rog
##owa
experim
eliz
wanted
favor
officially
##hol
senate
scotland
armed
##ule
##rid
##aring
##enes
aim
applications
##ship
##osis
internal
daily
##ef
##istics
alternative
prominent
organized
illust
definition
chair
inside
occurred
##roll
fill
occur
beyond
cook
##fficient
passeng
page
formal
1939
capac
propos
ram
##iques
indiana
##oo
##edd
##vement
##anda
expansion
crew
##ylv
values
##kin
colorado
aspect
##ux
snow
##omp
1948
jers
appearance
lew
equipment
##any
##mission
##atures
earliest
tell
bass
liberal
oldest
drum
opposition
##aming
adapt
evolution
mom
swe
cel
consequ
##illa
##ois
unkn
fields
respectively
comedy
mand
##ura
1961
lands
sail
jones
adult
motion
environmental
supreme
##la
72
1944
headqu
18th
formerly
calendar
harv
##bra
##ault
phen
crime
##ounder
subsequently
apart
condition
search
reject
##dr
statistical
gain
script
told
presented
custom
depend
awarded
content
claims
wales
##wa
##gle
convers
oak
##wan
constructed
peak
turk
weight
grew
orient
retain
train
stad
##oned
han
resulted
asked
efforts
##ala
gramm
##don
room
seg
atlantic
##isters
##thur
sax
ark
organizations
purpose
##ception
structures
##ylvania
weapons
##works
versions
translation
71
immediately
fear
confir
rose
argued
##ador
##ounds
swedish
phase
things
animal
unknown
merc
##oma
nick
quarter
containing
az
connected
resistance
actually
alf
interpret
##ortun
recover
allows
##abor
##har
serves
portr
labour
##water
bob
##ato
frame
plans
install
eld
hills
distingu
medal
cris
raised
removed
rod
specif
helped
##more
1956
colonial
enem
clar
67
trust
entered
cos
1959
folk
continue
##acent
##otic
arms
##bur
leon
reserv
bbc
giving
##hesis
##ils
columbia
core
86
1950
shoot
going
generation
issued
ordered
##aver
conclud
dan
formation
officers
inspired
downtown
1941
crim
elizabeth
basketball
effic
faith
pak
horse
1942
frequency
recognized
expected
##odox
gender
leaving
planned
las
74
82
newspaper
attacks
moving
songwriter
##oud
price
merg
northeast
surrounding
##arian
ira
overall
ot
stop
##ube
##ny
##orter
cerem
##aging
santa
williams
necessary
literary
partn
effective
southwest
competition
barb
1958
windows
palace
89
archae
##aught
match
fleet
##gu
attra
dance
replace
diam
rough
programming
critics
negative
parish
spent
encoura
humans
francisco
aband
ideas
77
confeder
intelligence
recently
drive
76
tou
introduction
1900
herit
principal
arrived
serious
69
founder
##agan
##ithm
##thing
jersey
##inated
pul
176
chur
aer
doctor
secondary
cav
overs
communist
1946
##garian
##aska
emphas
weeks
mythology
vice
##ament
fuel
##force
1947
speaking
novels
84
split
charge
fit
poll
doct
mentioned
##rim
##onian
78
83
##isher
bost
goal
##rm
sie
subsequent
uniform
##ening
powerful
##ionally
opposed
acts
fifth
##actions
som
your
##erse
1957
mig
bol
allowing
selected
##house
alle
dry
limit
officials
interst
tend
link
brothers
districts
occurs
orthodox
etc
pick
spok
dur
##10
charl
penns
supply
73
existence
application
marked
mort
recording
lives
belong
carolina
churches
comes
follows
editor
universal
advant
##ighter
tower
domestic
adjacent
promot
lincol
rab
##zant
intel
olympic
lincoln
corporation
##mas
##light
representatives
gives
fully
figures
survey
##inger
institution
professor
heritage
bron
dram
unlike
sle
byzant
serving
ohio
regul
atm
planet
settled
##pa
standards
behavior
1949
technical
elev
fant
covered
##itable
1950s
sets
##oty
##rate
175
glass
paralle
decades
pron
chamber
excl
##ety
arc
iowa
withd
berlin
vietnam
shap
bapt
controlled
util
advanced
negot
slight
boston
##han
traffic
##ender
eg
sciences
sequence
pennsylvania
patr
##eds
infant
reach
rural
##ographic
exped
infr
tu
flood
edge
vary
param
dedicated
unique
##worth
wealth
swit
steel
lingu
##icks
background
expanded
##ipped
got
solid
##hedral
refers
recomm
##vert
##inate
hem
falls
commander
symp
captured
saying
flat
150
identity
zone
thir
techniques
prep
##aph
concert
completely
nas
cool
solar
observed
algor
fame
##stone
rein
##orders
scul
79
##inity
##uge
palest
dialect
##jo
stephen
doub
##mont
write
1943
defeat
medicine
##uate
princip
translated
##rine
marine
##arm
160
ign
feel
damage
wear
##iders
mixed
roads
hay
ways
causes
2nd
territories
##edia
##teen
ow
granted
extrem
fox
gained
refused
else
##ili
portugues
81
regarded
##oring
inhabit
ranked
rub
##ns
400
pros
affairs
cycle
parks
islander
attention
1955
existing
##where
sin
hands
ak
criminal
reaction
##unt
fict
extensive
hell
agricultural
believe
cu
##ads
facilities
##hire
legend
##ests
ts
##ressed
minutes
portuguese
painter
equivalent
vect
possibly
entertainment
cryst
agriculture
1953
prefer
sud
##ogue
1920
invasion
buddh
kil
exact
articles
korea
skill
leave
conduct
arthur
##acher
institutions
1954
store
greece
projects
ultim
corps
##lav
##asy
1936
sculpt
hin
seem
1952
aged
instance
crow
##can
##oral
aid
##ext
avoid
##ucky
sales
##cont
tai
satell
garden
showed
row
something
athlet
crisis
conservative
1918
strateg
sweden
nobel
says
bil
creating
weather
##rie
##iled
holly
chart
situation
##agon
recip
device
electronic
factors
begins
pione
lov
zero
##ja
acquired
stadium
effort
cycl
paid
##yan
villages
##ati
expressed
penins
safety
capacity
##hew
##ora
vel
##rier
##ellow
coord
worldwide
agency
leadership
advoc
actors
jesus
perh
combat
seats
andrew
attempted
perhaps
journalist
purs
protected
atom
cod
plot
louisiana
output
atmosp
scholar
opportun
##aud
attempts
##entially
hour
align
lith
parents
jr
pair
maria
relative
reflect
orchest
##iring
wilson
kentucky
##adel
providing
revol
resident
kept
analy
hoc
##wick
toward
avenue
platform
factor
ri
reduce
lib
user
adap
1938
##uther
tried
chronic
specifically
##osh
##onym
felt
frederick
discovery
ok
shortly
max
youth
determined
##mans
##iced
##racy
judge
liqu
meant
aqu
publishing
strug
attended
rene
index
##ouri
universe
conducted
therm
opposite
inher
indigen
1930
context
trees
##heim
sevent
accompan
noble
cancer
attend
##agn
fighting
alliance
islamic
mexican
physics
headquarters
importance
mississ
rates
bott
bibli
##aniel
1937
devices
dang
maximum
rare
##ographer
##dp
linear
##incorporated
sons
##iations
mes
susp
schem
fixed
actions
##iro
permanent
tan
nom
##ippi
respond
##mun
cathedral
1951
recre
hung
indigenous
format
lev
fu
##oh
suffered
drama
consc
hotel
sought
temperatures
comic
colony
sund
column
dna
ans
visual
votes
sab
##oul
shape
alab
forward
courts
##heless
failure
jazz
lyn
twenty
cardinal
contained
brain
none
tay
##fall
##ensions
missouri
##oir
##zech
setting
##char
notably
matt
##iel
fictional
##ras
killing
lewis
operates
argent
learning
##omer
images
terror
choice
beaut
presid
react
arist
renamed
sector
sides
reports
afgh
##ieties
inhabitants
eu
yellow
bodies
##awa
lies
cinem
czech
marc
accur
ruled
unincorporated
##gers
piece
##tra
classes
israeli
shared
summ
ukra
hypot
lady
girl
##ogen
string
difference
receive
diet
1933
candidate
principle
admir
eye
thousands
orange
##acing
ped
1929
bes
substant
ultimately
patri
borough
guide
brig
##ifying
neighborhood
17th
1914
vent
##ims
views
godd
ken
administrative
##ih
coming
budget
communication
ah
austria
abd
##acter
actual
clim
unc
owner
##ko
##usal
authors
proced
##aling
featuring
publication
typical
hug
comics
##ocol
classic
describes
mississippi
manufacturing
affect
interstate
iraq
arkansas
coastal
164
younger
expos
finished
connection
##ishes
##kee
violence
sky
solution
##urt
lun
differences
merch
acting
file
horn
##add
universities
phenomen
possess
##ali
##umes
##eed
alabama
peninsula
##book
instruments
subur
na
##50
lakes
townships
score
1919
picture
proved
gods
exam
experiment
egyptian
dynam
apoll
##uts
depending
tourism
##issance
maryland
##rad
gather
bann
shel
refuge
moment
paint
developing
elim
semi
##tar
gil
philipp
poetry
premier
##sey
orders
tel
narrow
##osen
combination
heavily
increasingly
visited
dougl
afghan
mathematics
newly
assass
revolutionary
storm
plate
transition
pc
challeng
crus
mobile
policies
1934
continues
##tery
positions
label
1935
category
##icians
sell
##hess
byzantine
canal
tribes
##greg
treaties
significantly
visit
entirely
##ologists
##uten
decline
eag
16th
bru
##zo
##isf
historically
250
draft
hockey
21st
trip
throne
ones
managed
tall
parallel
charter
##iny
texts
plain
jon
frag
correct
spoken
1928
pure
trav
batt
##otes
dat
authorities
##igrants
defence
detect
fro
experien
senior
nazi
ton
1932
pieces
vess
##iat
alco
lot
##enge
##hr
##itzer
proport
circuit
opin
1917
kit
##ropri
asc
doll
##phone
sed
bear
classification
cant
fly
bac
suff
##inson
dism
##je
feed
vehicles
wolf
chain
##ructure
communications
expedition
rug
grav
##life
chosen
gi
approved
pilot
fried
ku
components
achieved
titled
regarding
prepar
whereas
supporting
iran
refle
bot
description
multi
kir
##20
##ava
1922
peoples
composition
formula
expression
maintained
audio
##hetic
producing
easily
##igation
##burgh
##raw
settlers
reasons
apple
hunting
oxy
cem
166
succeeded
slightly
audience
fab
goods
descent
roughly
pakistan
168
pref
why
manufactur
1921
launch
unf
cass
advantage
whit
declar
korean
mol
causing
abol
magnetic
offers
goddess
##iday
imag
##ologies
kr
episodes
sust
studied
nit
1924
weak
terminal
ending
understanding
requires
voted
lor
##rane
planning
##ayer
##hann
closely
salt
prohib
1927
processes
employed
mist
musician
org
revealed
strength
persian
ford
historians
shell
##eline
ell
molec
hollywood
musicians
##anes
statement
roles
juris
poem
rit
gallery
fash
proceed
strip
suggests
rival
legacy
ibm
austrian
##ented
scientists
holds
##rence
unable
users
1925
alongside
##chers
multip
hav
rejected
dub
##hamm
##uff
lawyer
decade
stor
cars
facility
##inus
nothing
affected
springs
otherwise
begin
##inction
daniel
##ading
phr
ottoman
vow
##iants
simpl
1931
1912
gate
engineer
##lines
quantum
ron
infrast
##cycl
orbit
kid
absor
sty
napole
routes
##iang
##ulate
christianity
establishment
##ilton
height
select
improved
174
victoria
describe
input
bull
isol
adapted
heb
philosopher
circum
##sa
want
determin
dor
finn
champion
morn
corner
advance
##zy
hyper
wides
vehicle
infl
exclus
rig
##order
##inton
join
squad
repeated
osc
##enna
worth
representative
leads
criticism
##umber
chapter
sel
mineral
##eman
truth
joe
coc
##iser
firm
davis
documentary
##rum
wheel
3rd
obtained
taylor
theater
ratio
harry
##uits
01
ka
buried
crick
danish
##utation
hat
norwe
brad
obl
restaur
favour
amend
standing
cape
documents
cooper
similarly
##rees
fashion
cot
ministry
sugar
bible
uncle
soil
sole
##agu
processing
08
purposes
radiation
skin
hors
##opol
estate
bands
mars
1930s
geomet
167
continental
homes
vert
waters
si
##ambig
genetic
##aria
bowl
bush
mathematical
1926
bom
theme
banks
##right
infrastructure
ine
reconst
slov
##joy
##osa
1923
theod
plane
cow
leaves
bibliography
polar
##opes
traditionally
purchased
##rom
##oen
twice
hungarian
norway
oppon
titles
##born
theories
douglas
limits
locations
##icon
##ropical
personnel
popularity
persons
##een
albums
franch
principles
technique
veget
stress
wire
mathematic
depos
##stream
depict
useful
sover
boundary
um
simon
denmark
rebell
gulf
job
auton
sovereign
clay
mining
##amental
##kh
random
##enh
##aka
disney
##rete
seasons
163
##uing
##pread
medium
circle
taiwan
sufficient
##shire
jefferson
feet
reality
170
fine
nich
pel
##rest
alge
171
lt
bang
abandoned
cable
hindu
hope
##ila
speak
lind
procl
##anth
vit
##iary
constitutional
innov
encycl
howard
severe
networks
winners
extremely
##uses
widespread
olympics
vector
spiritual
quite
##rel
alumn
##aine
##isp
senator
walls
##rations
crop
1910
logic
harvard
lawrence
oxygen
norwegian
bright
mah
exerc
##iar
tail
aspects
highways
fundamental
recognition
resolution
fought
franklin
advert
reserve
##rix
desert
practices
harm
slave
ends
comed
biography
4th
##atically
cards
recon
hart
fresh
twel
##licit
allied
calls
bos
dream
06
boys
illeg
shall
hans
confirmed
christmas
abb
influential
priest
educational
om
##heas
##inces
continuous
consisting
ideal
cad
##lets
walter
##yd
painting
treas
##time
04
diction
tang
origins
hosted
layer
vic
##esc
johann
##etime
birds
measures
##iph
scenes
brun
hair
pig
liquid
##ew
spons
##oster
##set
broke
ny
##uting
ruler
theorem
princess
##ords
compl
accounts
03
pruss
inner
converted
protein
rud
##iking
kal
goth
##sp
absol
partnership
##down
##mod
governments
extreme
##hester
mode
ale
##ceived
strate
173
##western
thousand
##ople
exists
entry
sic
##ache
indones
##usalem
dates
concluded
twelve
enemy
populations
intellect
manusc
lect
hub
preced
contributed
nam
##adelph
hungary
sympt
linked
##kes
nep
##ruption
jurisd
streets
enjoy
engines
##alo
traditions
fantasy
drop
##ographical
explos
##pton
##umin
drink
attract
stay
jerusalem
##ivals
alleg
encyclop
boat
disambig
##under
agent
phon
pir
##sen
myst
##cules
600
##eland
thor
cosm
representation
satellite
##aya
bacter
goes
needs
flying
debate
tournam
##iency
grade
worship
strategy
annivers
costs
1913
hence
1916
samuel
interior
alleged
##emp
performing
pav
computers
greg
defend
experienced
conservation
1901
usage
analog
disambiguation
##icial
##rator
##isted
danc
caes
greatly
jord
movements
##olas
straight
inters
equation
kong
##ira
incorpor
capture
hydrogen
au
scand
perfect
05
alumni
founding
##iac
formally
vul
determine
gib
##akh
statistics
02
##vis
allies
##itled
assigned
chemistry
focused
roc
cabinet
declined
holding
ker
##ela
##inth
rapidly
piano
nut
performances
tenness
margar
magic
diagn
salv
dv
##bro
colour
165
bou
##ji
moral
pin
laure
strongly
##erts
turkey
shut
bce
municipality
provinces
anniversary
cert
message
kel
##prise
1911
involving
##itarian
neither
##mouth
floor
improve
manner
hamm
mental
rar
additionally
07
##ova
request
kin
##una
ago
wels
incident
designs
##zen
plus
sleep
##osph
gross
orb
allen
veter
operate
starring
degrees
attacked
emot
gran
root
parad
philadelph
storage
##angel
transferred
siege
characteristics
investment
##bell
vast
extension
alfred
commonwe
morning
appropri
facult
pictures
passes
hawai
annex
zh
##rates
executed
162
172
trading
construct
hebrew
turkish
tam
driver
donald
electrical
luther
terra
mong
witness
eat
descend
retired
commonwealth
hers
159
##ranean
nominated
pse
assess
##hl
strike
##abet
gang
tennessee
##aly
1915
##fully
industries
infantry
##come
anglo
legislature
##fort
##heastern
slaves
scout
clin
##ima
admiral
##active
kl
onto
101
separated
clock
mm
soph
##etery
christians
ern
cemetery
testing
seems
spot
wine
##pir
bag
initi
brid
femin
dominated
haz
ic
##ifications
resc
laid
businesses
pseud
lam
##idden
racing
sort
gor
expect
increases
distributed
branc
120
warm
explor
##jan
walk
successfully
protestant
landsc
ariz
escape
bah
158
offices
##cles
passenger
09
##unk
169
##wart
transc
superior
philadelphia
fellow
radical
interpretation
enh
transmission
clubs
##phy
##orus
roger
welsh
##aug
##ek
1908
emergency
##erce
component
154
##emic
swim
teaching
considerable
sixth
andre
partly
transit
swiss
extent
gab
##ighth
lieuten
##ipe
##arn
800
yield
chairman
capable
proof
selling
essential
##tes
alaska
sult
##enses
bind
##uous
##eness
##anz
winner
nfl
##ito
normally
interpre
landing
mamm
habit
algebra
effectively
1905
ment
particles
dick
domain
arizona
##aga
socialist
algorithm
machines
161
mail
mouth
accident
writings
##vant
explain
dol
relation
represents
anat
stopp
##ye
infin
concerns
successor
lithu
dominant
##wich
heard
tact
pear
buck
pages
destruction
tracks
massive
commerce
hitler
details
adams
fruit
abst
mediter
vocal
fishing
periods
drawn
underground
5th
abbe
soul
maine
##rod
serb
genre
miller
burg
fans
156
dies
tank
dropped
##bl
##dale
##avery
contra
doing
##cers
belg
##ilit
attributed
minimum
##pective
germans
##ika
##icut
steam
##chester
pierre
factory
hamilton
practical
ss
spaces
rav
gay
strict
brook
selection
bronze
check
legislative
trou
vision
coalition
##agen
sections
liver
maps
rif
bart
##contin
##unte
insc
##ipping
##mat
ridge
loyal
guitarist
ric
deleg
solo
##ares
concepts
pleas
canon
soldier
visible
dc
usa
deput
cultiv
deriv
##bec
mediterranean
153
classified
edited
eval
slavery
##pass
##uch
##velt
ip
margaret
##ture
##adow
tony
1906
commem
armen
hong
chanc
adam
modified
##rose
copies
colonies
characterized
kennedy
gent
collected
biological
fo
preserv
ion
taught
emerged
##lusion
stable
announ
assumed
symptoms
mike
buff
laboratory
variable
genus
submar
ere
measured
genes
passage
##uled
generated
tet
norman
occasionally
hardware
indicate
##xual
arabic
bernard
##opl
protocol
gradually
volunte
satur
cul
##aimed
maur
##sk
cloth
wildlife
apollo
##anta
rum
markets
optim
cogn
satisf
mechanical
basin
visitors
exception
concentration
adopt
##di
fm
girls
propag
connecticut
ali
compounds
sched
collabor
publications
puert
passing
sunday
ross
intellectual
##icide
##ounded
manif
lieutenant
bottom
sid
marg
roose
poems
clean
forming
##play
try
lowest
interests
corresponding
therap
comparison
##vi
steve
##ripts
existed
bid
renew
deploy
##antly
rena
##real
##chy
physic
argument
portugal
ports
viewed
roosevelt
ceremony
thing
ibn
##ander
regime
items
baron
pic
rugby
democracy
unp
trig
upd
chrom
mosc
alcohol
horiz
##commun
ww
compil
controversy
clark
##soft
cited
##ista
eyes
157
signs
stal
romans
representing
##issions
candidates
bour
economics
changing
##bes
elder
neutral
winds
palm
cp
wet
adaptation
rus
error
unus
##aza
grown
gdp
restored
carib
155
dating
puerto
renaissance
##mill
archb
hundreds
marshall
hosts
reputation
adding
accel
calling
juan
##igur
knight
sultan
len
entr
experimental
voy
##eenth
ced
wel
atmosphere
fan
membership
borders
ko
centers
entitled
pas
##ped
##eless
##urance
stret
blues
##omorph
legislation
celebrated
thick
voters
fighter
gord
##oto
divisions
napoleon
rational
1907
julian
##ez
roy
##fare
khan
tribe
aviation
rebu
arn
##organ
promoted
opinion
nickn
##what
##ello
probability
##oa
phoen
excess
somewhat
anthrop
outer
sor
decor
surf
shaped
volumes
nevert
nevertheless
rising
patterns
nan
reaching
lux
battles
clinton
dictionary
##olis
volt
##rat
romantic
roots
waves
spin
tools
animated
axis
##erted
rice
treated
strategic
##roc
pent
wisc
showing
stim
trains
enforce
##ials
monument
cultures
earned
13th
franchise
achieve
exclud
rid
safe
##onsin
sale
attorn
##dam
sharp
federation
export
lane
moder
##appe
driven
consisted
finland
##vements
##udes
angle
predomin
shif
explan
afghanistan
microsoft
faced
##emen
##eller
##ran
prepared
goals
heads
experiments
lanc
isa
##iah
partner
covers
rebellion
wisconsin
programme
denomin
attached
relationships
mine
couple
surviving
##hammad
tiss
sr
minority
tong
meat
marx
accused
15th
##riptions
doctrine
divine
jacob
##uster
receiving
##grad
##ikh
task
lod
##know
152
arrival
##ager
grounds
niger
ancestry
##iner
massac
ske
moscow
wrest
1920s
ritual
jobs
sacr
quad
karl
integrated
portrayed
papers
##rehens
1904
##ication
1909
benefit
6th
berg
jane
##uan
recall
1903
criticized
alan
employees
scar
lem
##athan
bought
##ructions
dak
breed
atomic
queens
lists
broken
orchestra
chile
dod
artific
##bean
##going
##iful
debut
amendment
arrested
blo
caval
consec
boundaries
sha
physician
symbols
reduction
cotton
ye
##asts
valid
researchers
reviews
foss
##rogen
##tym
voting
cler
affil
jump
anderson
categories
##lem
##lah
##idae
##hum
withdraw
evil
##rical
flo
faculty
##rac
acknow
businessman
trump
speakers
ov
apost
grass
ensure
tox
##oked
12th
copper
switzer
invented
reprodu
explicit
etym
ward
funds
funding
pont
paintings
learned
drew
tap
longest
chancell
chose
##stood
athens
mechanism
colleges
lex
explained
evolved
belgium
syd
false
##burn
styles
supposed
studios
dir
occupation
humid
exceed
temp
looking
orle
carrying
pine
##iot
returning
anthony
hou
signals
datab
dal
purchase
##point
chess
##atherine
investigation
credited
switzerland
questions
conscious
ampl
croat
##olia
tests
##zer
situated
committed
conj
##igration
shore
depression
surg
filled
branches
broadway
writes
diamond
starred
portra
tob
##stan
##chen
stores
efficient
journey
bin
reun
##ront
phosph
jordan
suit
pip
##olid
bath
teacher
##cs
##bing
lyr
cher
##apse
##ensional
intent
survived
promote
weapon
eug
pyr
ministers
##abil
err
theoret
variations
stream
brian
drugs
annually
telephone
hier
1902
subjects
rib
##gi
abbey
##ophers
involves
slav
sweet
aw
##eston
##aux
prisoners
movies
##inations
leban
orleans
settlements
assistance
installed
rear
capit
tennis
controversial
##illery
1890
missions
marie
trying
consult
retire
sche
encoun
harrison
supporters
constitu
honour
printed
scheme
tub
twin
stating
diplomatic
shift
parent
##certain
guns
saints
accompanied
dual
activist
registered
##aware
##ersed
finnish
hang
finding
hur
organic
depicted
eric
patients
##standing
chlor
recru
gn
duc
russell
minute
charged
##gb
cm
lud
##alia
seventh
veloc
filmed
merged
conquest
immigrants
guar
retail
noun
##iop
##rot
anarch
##abilities
grove
substantial
declaration
briefly
distinguished
marit
prices
crossing
agents
14th
grey
residence
philosophers
newton
produces
baptist
opportunity
dismiss
comprehens
moore
##oes
flav
appeal
##aki
fisher
kim
##lev
polyn
talk
##rog
malays
behavi
bry
mast
##wers
monaster
ontar
wy
missile
archbishop
##din
125
tone
dependent
rarely
kat
sod
advis
indeed
shakes
bh
explo
frequent
##uv
playoff
##iami
diseases
ontario
percentage
cord
##lete
essay
commemor
##chang
laur
quebec
icon
spoke
symph
door
partially
maced
##alf
secure
##ogy
weekly
hind
preserved
delta
surrender
cave
christopher
teach
delivered
proteins
remark
virtual
civilian
commissioned
rhyth
punish
junior
thin
##oslav
concerned
##iable
guid
matrix
bic
imprison
penal
sydney
enl
##itic
##eton
partial
themes
collections
camer
assault
##oric
farmers
reduc
1898
tournament
tab
organisation
1870
lis
##cts
interface
argues
implemented
patron
camera
miami
##roit
instruction
composers
identify
employment
detailed
constantin
carrier
metro
directors
headed
sustain
belt
##illes
statue
psychology
drag
divor
complic
balance
losing
gardens
##hard
##oli
##eto
##apping
optical
ll
##unc
requirements
antonio
##ctic
desire
##helm
1896
##elson
succession
escap
coff
pus
##tering
guine
literal
##aked
municipalities
149
retained
##rig
subsid
giant
##enburg
##iling
adjust
repr
chance
expensive
##onto
watch
easy
archive
rocket
precip
electoral
crystal
newspapers
attorney
philosophical
##mi
waste
disorder
philippines
warfare
beliefs
ninet
130
render
mathematician
vienna
revival
loop
imposs
amaz
electricity
##unction
heir
harbor
madison
reforms
consumption
ky
gray
relief
everything
mainland
indians
empt
variation
neuro
enab
pad
prol
begun
predict
contributions
golf
simult
hear
epic
1895
##11
coron
simultane
parliamentary
responsibility
understood
structural
neighbour
##pes
##itt
stanley
contest
##aho
challenge
caribbean
cha
##elli
##jection
absolute
interm
touch
pale
fertil
ghost
##iology
benefits
really
prompt
passengers
possibility
detroit
stro
engaged
matters
##otype
regularly
##bourne
##ml
##mo
warr
owners
##while
distinction
taxes
losses
proposal
##elle
ltd
shakespe
lion
ranch
pant
oxid
tells
phrase
save
crimes
earthqu
conventional
anything
finite
implementation
##ni
originated
700
harmon
dimensional
meg
lock
noise
cinema
computing
amounts
artificial
reloc
files
confederate
reducing
esp
stands
bruce
charges
molecular
murr
sample
1899
carp
ecc
##uma
termin
liberty
personality
##rus
stages
shooting
fled
##iva
immediate
##ixon
cf
huge
##ws
sounds
approximate
fasc
##car
democrats
forests
oklah
mall
flows
profit
thirty
sacred
warren
screenwriter
credit
apparent
exhibition
muslims
molecules
fred
indicated
progressive
seek
horses
tourist
exposure
discip
symmet
carter
perm
raf
ranking
encouraged
shakespeare
experiences
rolling
tropical
alc
powered
oklahoma
vinc
kaz
harris
mt
##mel
manchester
antiqu
##hips
##cht
debt
unsu
spacecraft
playw
gordon
hein
guest
##anna
archaeological
engineers
residential
dict
aggress
##iy
consolid
bun
artillery
revenue
uncertain
circumst
ownership
substit
##str
michel
angl
##roe
morph
pioneer
hud
violent
particle
elsewhere
recreation
tort
pregn
championships
kam
benj
##regon
sig
compat
characteristic
restoration
dated
din
drawing
finance
copy
##yon
farming
assistant
##otte
crypt
colonel
muhammad
territorial
flash
evening
disappe
##employ
7th
monitor
vl
airlines
editions
alphabet
tube
chris
##rec
diverse
throw
1888
attracted
##oming
hend
perp
##lus
cuis
vessels
apply
maritime
heaven
preferred
hypothesis
vs
congreg
##osexual
##iti
scientist
patent
hurr
##uct
##omes
returns
brazilian
electrons
landscape
shield
offensive
buddhist
##asm
intervent
##12
appearances
server
technologies
pool
signif
##lington
##oking
romania
send
##fe
##ishops
commod
illegal
variant
channels
pand
rou
operational
##ikes
victims
##itis
##ipher
##ante
squadron
neck
provision
10th
fib
broadcasting
buy
warner
ambass
##roph
chancellor
##uations
childhood
bald
ruling
essentially
connections
caesar
producers
licens
##ruck
diego
plural
sad
compact
covering
chapel
regiment
recommended
pitch
wright
##mud
tool
##ribed
skills
##mes
unemploy
toronto
demonstrated
oregon
struggle
arbit
continuing
ms
morgan
apparently
102
germanic
nik
tons
sulf
1880
pries
milk
balt
conversion
metaph
1871
biggest
sau
##iration
morris
offering
benjamin
administer
##sex
appropriate
impossible
dress
tib
104
execution
1889
neur
##then
depth
syndr
answer
babyl
ech
##amese
camps
wayne
colors
preval
condem
collapse
atoms
otto
binary
resemb
nba
provinc
damaged
diver
scheduled
##berts
encyclopedia
##ridge
##opping
suicide
knew
8th
##emble
carn
constantinople
publicly
turb
wrong
matthew
fern
surrounded
##lyn
murray
functional
absence
1000
ceremon
##agues
1887
blind
furthermore
sight
dangerous
arranged
##gom
learn
##ori
alpha
basil
steps
decisions
dre
##zh
dall
##atra
##orous
fired
astronom
##apore
##enez
knights
hob
therapy
1861
##room
##istol
105
influences
fold
##wig
##ules
acknowled
ost
teen
belgian
establishing
graduate
##veland
voltage
##imb
cloud
agree
remember
grammar
patrick
dispute
##mund
exactly
mounted
indicates
##80
persu
millenn
##riers
estimates
cous
##ystem
htt
indo
bringing
enth
110
closer
prosec
corporate
evangel
##place
##eas
ferry
photograph
singapore
designer
intermedi
serial
1893
tot
##apolis
artistic
##inder
arrow
mainten
deputy
##fs
seeking
printing
lasted
##idents
##iere
museums
prede
kur
define
spectrum
gau
mechanics
eagle
##osc
syria
##borough
subt
narrative
hybr
jurisdiction
dakota
canc
11th
concerning
profile
unless
benn
##vens
##anium
wins
replacement
herself
uss
duty
manh
etymology
hired
1892
elevation
yug
##iley
##iveness
tales
libraries
comprehensive
saturday
maintenance
marks
identical
license
wes
peters
pars
##30
##iography
athen
approval
cavalry
hole
scored
tempor
dvd
prayer
painted
##wall
##ader
gy
##itudes
reception
##olith
streng
lyrics
vii
tape
discussion
cruc
monte
graphics
9th
cort
discussed
leonard
telecommun
750
meanwhile
sah
reactions
##udi
##erb
##berry
battal
palestinian
2000s
106
campbell
1897
nasa
ukraine
threatened
defic
homer
houston
##chi
catherine
trained
1940s
inaug
temporary
##attan
torn
oral
subd
##illing
##intend
lifetime
##nia
bent
tru
autonom
##box
theolog
societies
junction
raise
discrim
tick
grades
inqu
remove
faster
boats
##estone
rio
gregory
##rav
fluid
py
##arus
wilhelm
predecess
##iki
cattle
plains
solutions
clearly
unsuccess
heights
beautiful
productions
1891
accord
legit
physicist
transmit
perceived
cooperation
velocity
tomb
recordings
moroc
##86
ranges
##gm
##ublin
perse
database
gothic
recept
referring
surve
hamp
resign
nicholas
raw
lap
##ses
##amps
jam
stopped
configur
hipp
casual
magnitude
##celand
jet
##idal
revised
survive
glac
sq
##ctors
exile
##tz
armies
1894
flour
mild
##ho
abbre
montgom
leo
interested
bibl
argentina
juda
procedure
1885
indonesia
tip
cleveland
va
##net
scen
reconstruction
montgomery
stem
ordinary
wag
encod
nomination
##esian
phill
moves
##sky
syll
ae
choose
abund
assign
stead
##lan
disk
ranks
mills
demol
furn
##graph
abra
naming
dj
motiv
syndrome
politicians
inse
shock
describing
honorary
negotiations
vertical
upgr
migration
thinking
wol
chip
shir
##pson
flower
accommod
##acles
sheriff
##part
varies
globe
dio
abc
supplies
lunar
##bb
seconds
zo
##ortion
depends
exposed
theology
neighboring
##no
##father
consistent
duties
##gate
cash
abbrev
conson
yugoslav
##ierra
1884
avo
ranging
scat
galax
##imore
toler
singing
dragon
joy
cuisine
guinea
vern
##icance
revolt
involvement
presidency
theoretical
1848
##fr
amate
gosp
##ulus
invited
infer
currency
seed
connecting
thompson
##ding
pitts
rhythm
##ratic
1873
consumer
publisher
democrat
##ao
##hal
equations
##urb
measurement
##acle
##lication
##avel
##eing
grace
tribute
unusual
session
anna
segment
prosper
codes
coe
##onymous
##atus
##gal
ingr
defensive
##ti
cla
##oria
1881
oriented
circumstances
guarant
oz
lac
140
psychological
hunt
robinson
verb
##oust
wheat
poets
operator
##erald
shr
breaking
conven
creative
novelist
restricted
ni
##ilian
guy
anch
autob
##eno
window
calc
significance
stood
enterprise
mans
atlanta
1867
suitable
##ifies
judicial
variables
massacre
provincial
1800
friedrich
wings
##achers
driving
1886
meetings
manufacturers
bulgar
mack
##ais
##eters
locally
descendants
dramatic
instructions
cum
mines
merchant
##hy
peas
iceland
delaware
participated
hurrican
adults
framework
##oga
colomb
##bu
immigration
mp
prost
insurance
151
agencies
hip
1882
bishops
harold
forb
tol
coverage
portray
isot
turning
enforcement
##sm
outd
mason
cuba
compens
##bar
##osing
portions
##scop
rulers
ethiop
kra
arena
sword
##inner
fewer
mercury
quart
103
1865
##avian
stu
chick
reflected
##ulating
cbs
variants
cartoon
manhattan
shopping
roof
tri
##pping
illness
1876
##enz
##rol
sut
poison
phoenix
compound
horror
mond
gon
biblical
blocks
trek
strugg
pole
judg
romanian
biology
eis
saxon
rever
architectural
bened
bears
thermal
##cha
presc
separation
##unct
admitted
pull
wedd
funeral
##xide
interaction
dialects
##low
dy
encl
##tr
amph
1850
##break
nag
liberation
borrow
ready
tat
flex
##keley
automob
adventure
marry
metall
baltimore
mend
venez
plut
rocks
perspective
stored
holiday
1860
criter
removal
facilit
tunnel
resort
finds
resource
sudden
gust
wonder
hut
##fts
organisms
isolated
107
supports
conflicts
##ints
anyone
sket
corruption
coins
stability
phenomenon
denied
jacques
##bin
sup
sentence
mold
1872
jay
lan
judaism
kick
keeping
kab
mainstream
testament
singles
ski
silent
gam
wake
ay
##athy
1879
banned
##ieth
##adesh
bridges
lag
##oca
shares
turner
##fish
falling
##omagn
nev
corp
excell
diameter
dallas
archives
interpreted
gym
##gas
baby
celtic
##aboration
remote
stewart
##omon
127
disaster
stalin
stones
permitted
bav
yard
bombing
happened
religions
unity
pharm
yan
##esco
chal
resol
1883
possession
##chell
buffalo
bog
##imir
##ills
nash
##ynam
holland
wooden
acceler
##oning
educated
worst
°c
participate
bund
nbc
restaurants
##ando
##auc
overl
mixture
alternate
bonds
kos
efficiency
supplement
tag
beng
##40
speaker
gamb
concrete
curt
observations
jar
papal
option
struck
gone
hes
##acc
##rupted
rings
republicans
enjoyed
vacu
dw
enroll
regulations
##hu
botan
##iga
1864
##ishers
berkeley
emphasis
pronounced
##icop
##utor
crops
pto
metals
iranian
responded
approaches
retirement
eighth
logo
submarine
ein
##osition
##rick
barry
3d
arrest
##inters
relat
playwright
nu
147
martial
instrumental
gw
pump
geographic
surn
##dy
getting
burned
clothing
shop
departments
abraham
craft
nelson
sans
preserve
entering
bits
thereby
##minster
sard
vietn
aimed
sang
switch
wool
synthesis
monarchy
dioc
earn
##zing
slowly
##rons
vietnamese
lesser
proportion
roberts
recovery
eleven
manual
aired
109
congressional
thro
1878
unified
rush
tale
lip
proto
governed
strat
venice
##uter
patriarch
crowd
1863
dublin
jenn
##van
comedian
statements
walker
suffering
developments
128
decrease
repair
1868
coordin
rescue
empty
flights
matches
mario
leaf
excav
cs
cyl
wells
trials
##izer
festivals
bacteria
claiming
replacing
##icate
hudson
explorer
##isition
affair
toxic
missing
decay
notation
wider
alice
##acts
mete
##folk
notion
advice
hawaii
sull
##oker
richmond
completion
venezuel
tied
hunter
shah
participation
sierra
smo
viii
contribution
usual
##iture
stevens
##aeus
146
florence
por
injury
diversity
entrance
##umed
manip
retreat
thunder
exclusively
##wald
filming
milan
##anni
beauty
autonomous
##emed
integral
varieties
neo
idaho
hugh
surgery
sib
##irect
reverse
foods
praised
trigger
gap
sri
butter
guer
citizen
reportedly
##phal
consecutive
##ocent
dup
bases
plastic
pd
barn
rick
francois
wealthy
crash
turns
laser
##sburg
amateur
vacc
ble
##enberg
1869
vocals
summit
varying
unemployment
##ocene
celebration
institutional
chen
##ulsion
##wal
substance
animation
americas
disag
collaboration
triple
dust
ongoing
frances
infinite
##after
bread
nord
##anny
migr
equipped
tanks
specified
manifest
acids
vowel
outstanding
coinc
argue
exercise
expert
judges
tast
luke
barbara
##endum
binding
##ea
##uras
membr
intervention
vital
controls
1862
vas
##pool
radar
pyth
secular
forth
specialized
recommend
summers
isaac
##encing
homosexual
dynamic
##ourse
necessarily
gilbert
memoir
restrictions
outl
alexandria
manuscript
##oons
##ulu
mud
lebanon
dos
alger
merely
ptole
##avia
1874
followers
moz
accum
amongst
recognised
coin
maintains
rotation
buddhism
conspir
accurate
brigade
##lov
##pie
courses
grain
caught
afterwards
cock
rico
ahead
illustrated
antib
##teenth
complexity
dave
singular
displayed
geometry
deliber
##ompass
magnet
integration
##aro
##ashed
initiated
wounded
beer
##essions
herbert
load
encompass
mitchell
tissue
resigned
euc
##lock
array
spart
compete
observation
simultaneously
baker
alien
inspiration
overseas
initiative
wallace
undert
2022
dwar
##heric
dean
##othy
profession
gary
marvel
recovered
sphere
##boro
ml
achievement
ambassador
hearing
cargo
##load
ties
consequently
strengthen
nixon
peru
gem
extend
arguments
145
rect
keyboard
spending
##vo
kelly
pom
shadow
griff
electromagn
vacuum
seal
circular
fusion
participants
estimate
##iast
customs
palestine
jonathan
curve
##away
sacram
intermediate
facing
yards
protests
commentary
##nut
alk
135
adventures
opponents
erected
altitude
manufactured
hidden
pairs
precipitation
##riet
burning
##ulum
numer
comprom
bone
distinguish
abstract
mant
inhib
joan
denn
coat
invention
lucas
destination
##iller
cathol
hull
nato
civilization
hits
winters
dogs
enemies
flowers
symphony
##olo
conquered
##ami
commissioner
##roid
1875
iso
ruth
##using
##rett
##world
conductor
lutheran
norfolk
disorders
authen
melbourne
marketing
woods
billy
##fc
##wing
lav
nest
##ensively
kle
##akia
mck
##ivan
##ithms
exploration
oscar
portrait
lords
referendum
independently
connects
distinctive
##aco
releases
##oly
cricket
advertising
stere
petro
##andy
nerv
obst
explanation
bak
##ele
##equ
bever
1877
gates
eds
inflation
117
soundtra
partners
perseus
shorter
reagan
remainder
concentrated
boom
franco
##anche
##esse
##ailand
airports
jama
birthday
greeks
##hold
julius
##gue
##feld
singers
ronald
##ifer
friendly
gabri
bert
thailand
starts
sequences
##inter
manufacturer
walking
malaysia
gly
linguistic
rely
wis
ferdin
robin
recipients
clinical
monroe
arrangement
pret
surviv
outbreak
##thouse
familiar
opponent
filed
transformation
forg
regardless
haven
leop
edin
earthquake
literally
alp
prove
oblig
mh
guil
infection
aristot
listings
1854
trium
shipping
hierarch
sap
##orship
difficulty
clergy
exit
daughters
horizont
##ications
denver
hybrid
duchy
intersection
##night
##ophy
115
helicop
148
educator
ukrainian
improvements
metab
integer
aber
pup
filmm
didn
funded
##gra
pollution
receives
fortress
campaigns
mammals
princeton
panel
gear
##chron
authentic
bohem
elite
prussia
austin
inhabited
catholics
chest
fisc
##aic
elabor
electronics
rainfall
athletic
mul
inland
##aws
lose
lank
113
murdered
##bus
##imal
topic
##zi
regulation
traveled
xx
sicily
centered
##olithic
definitions
digit
tens
##outs
conclusion
vig
##isations
presidents
tibet
consort
appearing
eggs
bulgaria
toll
monet
timber
gaul
retrie
monthly
kilomet
sanct
collins
##haust
persec
java
seeing
kern
phone
patient
gest
devoted
objective
wearing
##rage
quantities
##borne
saudi
ster
honey
##sch
sharing
behaviour
enthus
augustus
punishment
##asi
refugees
benedict
client
reservoir
hil
constantine
enact
naturally
documented
dialogue
jimmy
laureate
stayed
seemed
utah
victorian
##illed
antio
strings
equil
claud
twentieth
wed
nebr
discontin
herald
##ieu
teachers
##olds
targets
cousin
edinburgh
subsc
##iii
maintaining
vulner
mann
keys
cc
autumn
1866
1859
##ige
meteor
millennium
willing
kingdoms
planets
alloc
abu
rocky
##cca
southeastern
jup
129
quot
monastery
alter
requiring
clement
administered
accl
libert
heter
##etics
##iden
parade
privile
continent
essays
exhaust
nebraska
pon
photos
marion
pianist
thereafter
polynom
##olph
finals
evolutionary
119
##apped
bloom
vibr
automatic
##lide
lloy
prest
mini
ecl
rating
inventor
gymn
##rh
eugene
guild
kon
112
behalf
collective
quarters
farms
opportunities
pod
##rell
scope
##agger
900
forum
126
gravity
interchange
demands
abuse
fault
smooth
##cester
caliph
entity
moderate
courthouse
sene
fellows
brick
occurring
predominantly
##olar
prey
delivery
cognitive
punk
proclaimed
##ław
auto
tyr
violin
beam
logical
##oven
preservation
##16
governing
involve
##umps
##ensis
exports
hampshire
##urre
##ictions
norse
thanks
##gie
##bod
congo
##ailed
occasions
operators
##amine
114
consequence
##aks
1858
synthes
##ibilities
glen
1857
cheap
frontier
exclusive
bicy
duck
pill
##orted
width
indirect
publishers
commons
mutual
##uable
competitive
lob
telegraph
humanity
easier
raid
crossed
fulf
kan
aest
assassination
##acco
##kyo
##hs
meters
companion
confer
veterans
fossil
lomb
carlos
##gio
##iments
oliver
hack
1855
##tha
moreover
soccer
jupiter
##stad
generate
algorithms
ral
hughes
epist
zeus
virtually
lloyd
##vious
empress
merger
gif
handed
serge
valle
identification
##cia
##ask
buses
permit
vlad
ferdinand
notice
prair
measurements
loan
swimming
surge
amster
reserves
132
craw
odd
##eda
pointed
sensitive
##ateral
besides
##coming
coffee
wedding
wavel
attempting
associate
chemist
anglican
explicitly
kiss
configuration
108
psychiat
terrain
battalion
charlotte
ride
westminster
aux
##illo
##ellation
mirror
prefect
##ancing
johnny
luis
sculpture
boulev
abolished
geographical
situations
trend
disapp
armour
sponsored
amsterdam
1856
alive
reed
rooms
##nat
romance
dissolved
ou
cole
##owski
##esty
jerry
sudan
mechanisms
lgb
beck
verse
minimal
consciousness
eating
arabia
nitrogen
terminology
##ennial
##kt
bristol
##acht
raising
layers
correl
vat
contrad
lamb
antic
aware
kevin
##aneous
immun
samples
stein
tobacco
radi
graham
intention
ian
overt
118
heroes
nurs
##ders
##weight
gol
centres
catch
happy
wik
consens
imposed
pagan
extends
northwestern
jury
##cos
nova
everyone
parker
tribut
dollars
collaps
devast
stabil
relevant
concerts
##master
respective
equilibr
sees
kopp
boliv
sick
yor
civilians
pink
lung
##fast
##ocy
137
marshal
##inced
##ologically
renov
difficulties
ultimate
consequences
sovereignty
worn
pla
injured
nevada
##via
116
##iqu
##othe
navig
upr
tokyo
cere
##kshire
grid
##itary
##eli
mentions
invaded
disputed
##oro
144
desired
creates
generations
telecommunications
##krit
mouse
decreased
finish
gospel
giants
##ails
reich
deemed
convicted
##opal
abolition
potentially
improvement
##bach
gur
##ean
hex
obsc
handle
mystery
stuart
landmark
hym
procedures
constra
ceased
hann
varied
madrid
messages
hurricane
##hist
##onso
convinced
sisters
convert
obvious
122
injuries
lon
push
vincent
pittsburgh
aar
delay
rent
##ellar
tribal
penet
##forced
kinds
##enda
evans
extensively
##iffs
restaurant
lgbt
cn
smallest
economist
##urer
##adi
overw
interv
burial
mrs
indicating
arnold
trian
1836
##gram
dimension
carth
promised
134
prevalent
tum
##bow
cutting
myster
giov
corrid
survival
eccles
reaches
presby
travels
adoption
nintend
##ev
1851
baltic
astronaut
nationalist
1812
##oan
##itals
receiver
errors
neighborhoods
isle
hond
tight
missiles
interactions
rays
displays
fragment
##uz
termed
nintendo
111
##orf
tril
bangl
blacks
columbus
spark
nominal
deer
canyon
##inted
creator
shops
supplied
aristoc
alg
##ahl
extinct
rifle
ix
inherited
acres
customers
addressed
spelling
soundtrack
##eb
regist
methodist
exhibit
navigation
witch
sullivan
##rin
##rating
drinking
nineteenth
dil
pond
abroad
##gart
##ifice
vessel
ry
##itative
##icing
123
atlas
##odynam
139
scandin
namely
##lain
complement
##arth
plas
rebuilt
finger
gift
dischar
ernest
blow
pilgr
##restrial
##ogle
136
accessible
quantity
dimensions
axi
fabric
arbitr
nur
friendship
promotion
minerals
foster
##eries
visiting
bore
##ayette
citations
dollar
zones
bless
##fire
entre
ft
enabled
##quin
grave
embedd
perry
legion
demanded
diplomat
friday
departure
##uns
processor
bio
124
europeans
##boy
alumin
suspended
1840
ask
meets
unsuccessful
toy
##donald
perception
trails
egg
##ingham
##leton
133
guardian
marath
underlying
intense
telesc
##math
##overs
1600
mcg
priests
##dd
##alus
##icus
arsen
wilder
##ingly
montreal
lodge
aur
##owed
epit
ethics
closest
dale
preparation
readers
troub
predicted
koppen
121
phenomena
dion
donated
math
##elines
assets
gand
##apor
feast
emit
darwin
rut
joining
hed
shan
monk
verte
feeling
discrimination
##anning
entities
isab
##ido
##ifier
traveling
##idel
prospect
presents
##nie
##irical
beta
larry
stick
trinity
143
grandfather
permission
##icism
##achment
##aha
associ
crosses
lancaster
terry
episc
##igible
valuable
organised
landed
copyr
1849
repeatedly
ivan
forty
conce
runner
manuscripts
drivers
casualties
##fri
spa
smart
##omed
##igo
expon
##die
defines
cypr
anten
fraction
##ento
transformed
breath
announce
activists
drain
martyr
magazines
emotional
metric
##unciation
fitz
uncom
lights
recognize
rogers
boulevard
harbour
##enders
acted
culmin
theodore
prefix
fi
yale
reson
populous
trace
edmund
ralph
compression
##elin
portland
##erver
considering
rhine
triangle
commanded
oscill
##oard
##ashes
monopol
rebels
feud
deployed
proxim
topics
divorce
marqu
##yard
afford
1852
##izz
adrian
##estyle
calculated
attractions
discipline
pam
studying
astronomer
yam
posthum
playoffs
peng
acoust
helen
millions
recurr
photographs
bub
ug
tested
dip
beings
gluc
##ovo
lithuania
gauge
expanding
perpet
bones
tea
extending
google
drummer
fiber
##vised
ferr
habitat
##lon
##ilst
prussian
deities
dish
voyage
distant
og
pist
antioch
##uman
northeastern
##po
unre
morocco
occasion
frequencies
glas
reader
railways
promoting
accuracy
deposits
weekend
citizenship
aside
tours
serbia
airline
sheep
volcan
bulk
ninth
lasting
fifty
fallen
astronomy
inch
considerably
competing
##mingham
wish
bearing
equilibrium
##bird
mao
consensus
gel
tourists
doubt
dioxide
birmingham
translations
aftermath
ryan
ted
gets
##fa
chi
counterpart
temples
dys
##ayan
concurr
militia
stronger
##group
##sters
reporting
recreational
queensland
masters
whilst
regent
towers
easter
recipient
##agne
tech
comprises
eman
poles
1830
correspondence
interval
overth
dismissed
billboard
nephew
barcel
mood
synd
looked
raymond
cec
quint
##iev
handling
slavic
franz
assessment
compatible
likewise
springfield
guilty
equally
fighters
##asia
revel
##sole
postal
agreements
commissioners
##ui
concord
pilots
innovation
##itch
gabriel
vine
##haw
iber
##pher
bars
prairie
hag
##dule
motors
closing
lens
nass
unex
##rys
petersburg
##sts
##uin
butler
recalled
estates
informed
nobility
decis
liturg
##gel
brut
belarus
##ressive
atmospheric
##do
momentum
licensed
wick
missionary
requirement
bulgarian
options
unw
realm
1837
##marks
strait
assisted
watson
contribute
danger
brooklyn
pm
hemisp
##ulates
southwestern
maurice
##icia
##aders
silk
fairly
orbital
acknowledged
##irm
designation
##hm
sessions
##oni
bend
thames
prototype
palat
grammy
##nell
##estab
legally
voiced
unic
##aint
##lining
breeding
electromagnetic
ceo
kay
ply
##raction
tries
##amma
sequel
trick
engag
pearl
##ochem
giovanni
adher
wu
##gro
##lie
nonet
schedule
seeds
uranium
aristotle
enters
tornado
mhz
warning
requested
restore
explains
overwhel
##ario
appointment
##engths
penalty
faces
peer
transmitted
troy
environments
nobleman
submitted
memor
columns
exchang
muscle
sending
vik
eve
##umberland
bruns
pray
enorm
confidence
acquisition
charlie
henri
welf
evac
virus
fate
##oque
athletes
uprising
142
internationally
##roduc
clause
nonetheless
gill
##zig
bullet
prevented
monarchs
chromos
##actic
1846
vowels
##eper
radius
subset
kirk
lithuanian
imprisoned
astero
dimin
##itely
##anthrop
ket
guards
fet
lenn
disputes
##rosion
drums
anger
exter
passion
##ocket
nickname
##zed
suburbs
surfaces
##omot
favorite
legs
liverpool
arose
fragments
nhl
##orig
electro
forcing
impression
aragon
wore
##osystem
organisations
cambod
cros
annexed
sv
fraud
steven
1853
sculptor
altered
suggesting
propaganda
absorbed
##pat
severely
presbyter
realized
outdoor
quiet
awar
tasks
##opot
carriers
delayed
heath
gast
tin
ptolemy
##isk
##ether
automobile
gig
##pro
horizontal
awareness
138
bankrupt
plateau
dubbed
suburban
horm
audiences
secured
cuban
laf
theologian
pushed
sanskrit
ht
deity
spar
##itus
equality
sul
##utt
wre
saturn
somers
surname
cia
arctic
interc
hoped
console
bros
copyright
rows
precise
##agonist
diagnosis
##anto
predecessor
##nik
partition
garrison
tie
##aire
victim
thorough
charity
uniforms
##care
##okes
prophe
www
fol
##uri
calvin
syrian
backed
1815
helping
sag
nucleus
challenges
seized
sodium
endors
venus
paramount
antiquity
monetary
kath
##strong
galaxy
##oba
eighteen
cataly
detection
theatrical
##odies
rebel
premiered
canton
jason
clan
differential
commercially
harvest
kazakh
powder
yugoslavia
##bound
examination
mongol
exceptions
margin
interact
emir
##graduate
kg
##bel
##occ
tram
linux
accounting
graduated
embra
escaped
acceptance
membrane
barcelona
##19
thorn
stroke
yes
scoring
vermont
relating
chand
##mph
##gent
reef
extract
##sche
wagner
implies
dock
whites
manuel
councils
employers
commented
substances
teeth
geoff
nearest
brunswick
boeing
deck
hospitals
unclear
wireless
observer
aborig
##atorial
marcus
bast
ana
##ourg
demolished
md
piet
##amation
##iano
gaz
derives
confusion
hugo
entrepr
legendary
node
chains
placing
athletics
temporarily
enlight
boost
naples
merchants
mull
ng
emerging
##eping
confused
saved
tract
facts
partnerships
anx
odys
armenian
entreprene
weaken
induced
plantation
panama
hast
stack
##aughter
warsaw
herb
montana
sacrifice
##oka
covid
intensity
orientation
daw
##aton
gravit
mb
seas
inherit
encountered
conform
comments
caps
deeply
##eta
##opotam
oath
rhodes
##ouses
charts
nem
kills
##ascar
plato
civic
bach
dens
oakland
skull
housed
##adic
##izers
pride
manage
politically
embass
molecule
syl
evident
salvador
chester
fifteen
proc
consent
legends
speeds
http
ves
armstrong
signature
sack
##atern
artif
utility
##istent
seb
##sea
fever
believes
proportional
updated
##rill
##inas
authorized
dop
tut
tables
warri
knock
distances
governors
swing
villa
cauc
ming
rental
surpr
raids
hellen
stir
batman
boss
battery
graphic
##ometer
purple
adject
devil
gathered
colombia
350
cluster
plasma
warriors
metres
##inia
canter
barrier
manufacture
scholarship
duration
pronoun
evangelical
ions
provisions
personally
josh
prisoner
volunteer
disagre
numbered
advocate
cou
thread
attitude
welfare
ammon
astronomical
seattle
reformed
dum
ja
scr
##auer
nomine
directions
package
ora
solomon
laz
prehist
croatia
tension
##furt
##leum
##ilding
ns
conve
shuttle
##hd
lig
xi
intr
apprec
intercept
photo
##atch
##arr
emperors
assyr
dennis
styl
pitcher
accompl
aus
engage
edwards
bangladesh
##enne
neil
churchill
fatal
belonging
##thel
stanford
withdrew
span
relocated
arithm
quoted
criteria
nm
modes
1832
inaugur
##aca
presentation
sloven
shifted
amazon
pall
apartment
bypass
andy
gases
theological
burgund
##haus
##inery
thai
antar
##lectric
payment
bordered
arche
renown
##ymes
luxemb
rhet
amino
doors
posit
aids
milton
ancestors
dancer
condemned
lamp
##the
traged
confirm
scores
brooks
periodic
silicon
tunis
##15
cooking
##ocaust
##inum
##aran
genres
latest
competitions
fortune
defining
properly
spell
scots
potato
newer
capabilities
##ucks
shaw
##anger
nicar
thirteen
unions
measuring
moses
carroll
expelled
dealing
pix
signing
1835
scandal
firing
irr
priority
sectors
geneva
wald
snake
module
##anks
##ilia
worlds
circuits
1844
conspiracy
arithmetic
strikes
claude
talks
withdrawal
circulation
findings
pandemic
interf
powell
waiting
eliminated
##rain
premiere
confederation
episcopal
interactive
graves
lighting
stall
holocaust
munich
dominican
oliv
##holm
nights
defect
petition
epid
##gence
celest
prohibited
einstein
##usters
cyprus
fbi
extant
oc
highlight
ideology
rubber
sized
informal
##lings
burns
affiliated
##isan
sheet
screenplay
sarah
interviews
ches
heating
ecosystem
canterbury
##encer
corridor
sz
anthem
##boards
hollow
paras
##ographers
enhance
dh
comfort
touring
boxing
tactics
spend
harmony
hir
robot
##roducing
spy
prose
truck
carb
freight
stops
technological
photography
crack
attraction
carries
opposing
kenneth
##rah
##ardo
obama
baroque
1839
##writers
chronicle
volunteers
##esia
##enues
strictly
coordinates
clot
chero
nominations
autobiography
compiled
dawn
lectures
experts
dishes
defeats
closure
subdiv
riding
##redited
beatles
embedded
coined
freeway
1845
complicated
tenth
chips
rip
##bek
susan
assert
1847
nad
tamp
##asp
proven
helps
youngest
tig
sure
spher
##13
accus
opens
##osphere
eleph
topology
reorgan
flora
venue
paradox
inducted
wrestler
conrad
sentenced
dow
##recht
gren
##gow
##ctive
relatives
cancelled
##isons
##isa
inequ
serbian
wo
##ersion
neighbouring
breaks
fertility
vand
merit
threats
pub
monuments
autonomy
ink
primitive
viking
extinction
harvey
##ashi
sacrific
capitol
abbreviated
citing
interference
developers
drives
dancing
dionys
##onal
stamp
enhanced
addresses
linguistics
terrorism
anticip
##aters
contrary
oxide
ordin
##anus
johannes
lift
comprising
gentle
pash
##oper
soci
imported
holes
zoo
##omo
balk
proposals
cricketer
elevated
explosion
ore
specim
bachel
rhe
1814
timeline
challenged
doctors
firms
synchron
architects
##aman
tak
listen
symbolic
compromise
burton
filter
platforms
vladimir
perc
categor
##uating
systematic
##airo
1838
certainly
yang
feather
acre
volunt
fount
pleasant
petroleum
decide
traded
flew
permanently
ved
inver
costa
crowned
bavaria
outcome
suspected
vatican
aph
torped
clerk
hide
princes
jail
senators
hitch
##regular
pyram
glob
craig
cun
reluct
foundations
venezuela
gamma
ambig
eldest
travelled
grants
discrete
lightning
neighb
##ijing
##arin
boot
##ourage
implic
cream
grandson
##osaur
irregular
aj
siber
##alism
divide
sizes
emissions
##uba
reliable
associations
widow
##pert
talent
patrol
gm
parameters
assembled
gains
inquir
##iko
terrorist
monster
##ilda
smoke
wait
luxembourg
conventions
pedro
feminist
consolidated
##ci
lecture
excellent
##mith
##oux
micropolitan
##agh
chambers
triumph
pound
pend
##sis
##asse
semicon
crucial
locomot
##affe
enormous
mate
tok
genome
fee
defended
separately
suburb
##eur
derivative
teachings
approached
1821
##mal
##aceae
rated
tends
##acon
chase
valent
contracts
volcanic
##oys
armenia
##asa
detected
##ections
semicondu
tear
trin
1834
putting
##ulations
nationalism
dense
innocent
hopkins
aboard
vitamin
venues
##ouver
masc
modest
galile
seriously
summary
qing
travers
crafts
cannon
farmer
dynamics
##orp
backing
squares
poorly
rede
physically
lak
mak
hemisphere
##atri
static
##atories
ludwig
##hor
##dish
editors
vend
##oslov
##ophone
fon
unesco
sulfur
spider
solely
denomination
rp
##icular
removing
encourage
celebrate
taste
##ski
beth
1843
seasonal
walt
mortality
bombs
till
##orum
trilogy
dying
advances
renewed
insisted
cherokee
beijing
philanthrop
happen
tiger
switched
doubled
caf
##idad
fires
blu
##usa
telling
##atur
angles
tongue
bip
highlands
cellular
gott
prix
actively
##idian
##ners
alm
whate
worksh
heinrich
onwards
mosque
hod
lumber
##illy
applies
adaptations
cpu
uncon
attendance
crusade
treasury
nigeria
formats
kw
rally
sop
overview
fier
##rators
decree
breast
vacancy
croatian
dot
##orious
floating
wise
pirates
apoc
habsburg
hammer
brass
ware
absent
beneath
azerb
gravitational
##imony
arguing
suffix
azerbai
##cock
compositions
physi
reformation
czechoslov
privately
ballet
faction
##brook
prompted
polynomial
whatever
qur
360
continuously
allegedly
beau
adequ
governance
transist
masses
organs
conjunction
synthetic
##zyme
sophistic
##cano
athe
##iolet
angels
ethiopia
visits
integers
neutron
stol
founders
satellites
arriving
frankish
reservation
une
brill
hog
##ampton
colored
capability
swift
subsidiary
burr
tensions
carson
midd
lp
marking
arrive
1842
indies
##books
aboriginal
##ilation
##ogene
incidents
instances
assumption
argentine
proximity
transpar
depot
thirds
comparable
pupp
occasional
delegates
ussr
chel
mys
##inians
socialism
wart
enz
commitment
valued
titan
trem
renowned
##front
crystall
manga
emergence
vulnerable
uz
##quer
brew
focuses
ghana
lenin
spo
bruss
transported
compilation
##bul
##rist
cardinals
lying
assume
versa
precurs
revived
anchor
##ede
##iri
secre
coral
keith
reserved
manch
precision
felix
diesel
asking
monks
facto
consistently
pursue
unst
##ovich
1841
coordinate
ernst
vest
peripher
plaza
settings
vanc
##omic
statesman
metam
##aukee
##loqu
determining
mesopotam
lanka
hood
enable
suppl
raj
1833
##yers
##orate
unix
spat
##auss
healthcare
uno
resurre
attacking
glad
##lett
advocated
considers
myths
burials
mickey
practition
hd
##lore
filip
sporting
##ema
decomp
##riages
xen
savoy
cig
targeted
athlete
##sl
abilities
improving
prepare
##yc
anime
##ipel
geological
retrieved
highland
cuts
##ogenic
duchess
sherman
##teries
gaining
leap
geometric
warrior
##hill
editing
sink
##istence
1500
segreg
bachelor
reduces
automatically
evaluation
##etta
conceived
attributes
##iji
painters
##caa
nobles
auxili
fastest
reinforce
##lass
##gg
##ogne
attending
cycles
pronunciation
somerset
kor
wiz
overlo
##ugg
motorcy
##ahu
directory
##idays
factories
sitting
##millan
ticket
registration
scales
meter
defunct
arabs
bombard
##ray
stern
sandy
dwarf
##abul
aggreg
revision
brussels
nc
ally
default
operas
calcium
cruz
biod
pere
##elian
pregnancy
beaches
segments
sony
remn
gathering
strand
nose
streams
biographer
genesis
eisenh
zip
albany
taxon
chapters
belonged
owing
ces
colonists
##body
##rocess
extraord
leopold
mg
edgar
algebraic
circles
availability
riot
acoustic
pour
##anas
##orre
revers
baldwin
##phis
monday
gael
arbitrary
orch
prophet
##loo
surprise
strategies
judgment
##rent
strange
governmental
footage
accomplished
essex
favored
terrestrial
prohibition
sacramento
##ishn
undergo
estonian
appeals
albania
1820
emer
cabin
concentrations
reli
practiced
##ht
soy
elaborate
lions
inscriptions
cedar
unlik
sailing
indonesian
windsor
ramp
##rano
adolf
harsh
cancel
phyl
sung
journalists
venture
bluff
ct
wang
hotels
hazard
headquar
wage
disast
eisenhower
quin
bobby
abandon
undergraduate
endang
landmarks
choir
glasgow
herm
accordance
ecclesiast
trophy
##14
##elia
##station
vancouver
##enos
##alon
plates
amp
herod
tc
deals
catalan
nicknamed
cameron
discontinued
##atar
enterpr
##yll
##oshi
kol
pace
pose
banking
gustav
macedonia
dreams
dart
##rup
surpass
controlling
subm
loos
solve
##uates
##omi
ist
kurt
cornwall
focusing
cinc
vamp
##yg
fork
glenn
reflecting
aggressive
cic
fitted
vegetation
enlar
item
cruise
symmetry
valleys
##uli
##kees
sinc
##isely
chrys
introduce
unlikely
novelists
aims
metabol
##naissance
clarke
scouts
trouble
dome
##insky
jerem
worker
combining
lombard
##32
##mm
disl
##zzle
tendency
ignored
venet
hawk
unt
nervous
reward
performers
ethical
flooding
immune
pursued
artifacts
##emann
embry
nationwide
remembered
##pin
acute
demonstrate
folklore
legitimate
wisdom
plymouth
videos
fing
vil
##aining
livest
##ormal
communists
praise
prague
demonstration
##anton
specification
kidn
enlighten
boards
disappeared
morm
striking
##ju
intelligent
##17
##erm
##adows
inverse
bitter
relativity
bias
conservatives
ancestor
suspic
##itated
fract
heinem
revenge
defeating
actresses
ncaa
##loid
swan
acet
bengal
limestone
aaron
aub
nancy
colours
generals
nouns
rna
##heus
descended
sustained
excessive
cameras
brows
photographer
##power
##ynt
believing
preventing
contempor
##inte
presum
##acular
confront
observatory
dramat
scholarly
determination
pleasure
counsel
rim
humor
basilica
æthel
incom
reconnaissance
competed
prevention
reflection
mim
##enson
honours
conquer
engagement
trim
greenland
oxidation
##rang
##lee
rivalry
pi
##reen
##ettes
headquartered
##aser
##uda
commands
##iae
##bard
##quet
palmer
explored
decorated
dame
manor
paths
##enton
talking
gerald
rust
bills
lawsuit
nutrit
heinemann
pled
moor
tenure
##oland
##umen
superman
diocese
rounds
cylinder
##went
##arte
statute
murphy
ceremonies
overwhelming
sebast
##atem
chin
adds
proceedings
certified
shots
outline
archipel
deterior
unification
##ods
geneal
medals
anto
chemicals
lynch
chiefs
paying
##000
greens
genera
contributing
julia
dissolution
corresponds
eb
introducing
posts
##comes
inscription
steep
frost
nun
leip
limitations
collapsed
veteran
font
leagues
credits
vag
asym
plum
##castle
harper
promise
scattered
demographic
##oline
blank
registry
substantially
##omorphic
##eu
thy
##oda
counts
preceding
grim
remar
lesb
interpretations
##fit
##inating
plague
computational
##case
##atin
##irth
thrust
dozen
1831
libya
forbidden
fond
##rome
stake
enlightenment
consumed
bomber
tactical
tiny
##ng
phases
##waukee
cox
assassinated
spirits
fifa
abundant
orland
kap
##amo
##eme
drawings
##rs
##amer
peaceful
livestock
kash
yu
disappoint
grande
investors
voices
bess
yemen
ecu
nashville
##rand
bermud
expressions
isolation
phillips
sussex
##jar
##urst
noting
chad
soap
##anim
##abulary
generating
planes
feeding
enterprises
sear
blade
pilgrim
atari
##illance
leather
tasman
##stown
salem
execut
lacked
arrangements
chaos
##aun
successive
comparative
syntax
encounter
persecution
##cence
##ouds
resolved
descriptions
eventual
hawaiian
sustainable
##jections
brah
drove
##18
##woman
contents
hamburg
bold
##enter
gibson
##star
marginal
emission
ottawa
coding
cosmic
sho
memphis
insects
porter
salmon
monitoring
1825
feelings
fiscal
tier
##yo
##oths
##otypes
jav
olive
truly
pdf
presbyterian
ace
kun
##arians
marble
helm
evol
##natural
##itution
##tec
irving
chronicles
bicycle
corporations
institutionalized
certific
rendered
cats
clif
combust
lifestyle
cement
embassy
##estrian
##agua
mobil
coven
aerial
mcl
1818
rabbi
bryan
sanctuary
augustine
cheese
metaphys
soviets
buddha
eagles
surveillance
##alach
##gee
discussions
inex
##roscop
stap
resignation
advantages
purely
opinions
explosive
maz
precisely
avoided
assyrian
##kel
replic
eul
##ropolis
guidance
brands
ceremonial
britann
colleagues
volcano
##ophon
benz
##rous
capitalism
mam
passive
shapes
endangered
ai
jen
##zan
disestab
milwaukee
ellip
catholicism
exhibits
picked
##xx
cong
trends
humph
commanders
jamaica
jin
terminus
dramatically
tended
malta
hostile
1824
wound
##cious
ruins
##kar
applying
transf
casting
consonant
1789
eaten
rises
ard
administrator
asks
witnesses
til
##onaut
##orrect
##bank
latitude
fruits
besie
instant
cooling
lean
inclusion
inflamm
vin
##pent
thesis
risks
sd
tubes
accommodate
pike
enzyme
publish
pompe
incomp
hypothes
geoffrey
jak
##otherap
mock
##rics
readily
uv
satan
hiv
wan
normandy
cyt
broadcasts
chocol
managers
jurisdictions
sak
tac
protoc
glou
cease
servant
ecological
enacted
diod
##abe
acquire
zhou
encoding
algeria
tent
##ulator
rudolf
hale
##mad
##arms
propon
mv
##notes
chim
regulated
relax
holmes
goddesses
incorrect
malay
qualified
wesley
reyn
aftern
subord
antig
continuity
bosnia
wra
whist
macmillan
jerome
dolph
sketch
##gard
indoor
layout
gaza
mansion
suppress
consideration
boxer
allegations
cott
lub
edges
kitchen
leipzig
##sd
##word
moist
##piece
sikh
##phan
spont
carved
lighter
mik
fris
traits
##enger
radioactive
reveals
thur
linking
processors
collectively
##mented
##ulture
hermann
##kow
guatem
responses
##hall
##heimer
unexpected
##escent
triang
angular
synag
aided
nab
rockets
bounded
ecology
polymer
##bold
participating
cree
zur
forever
##erville
webster
carne
supervis
##gun
famine
freud
riots
##atical
##ulin
excer
##rugu
chicken
asp
flee
baha
excerpt
nerve
##kien
##60
bedford
saxony
phrases
absorption
rag
tusc
vapor
criticised
crawford
cis
##olly
guided
##boat
dul
##arium
##ados
georges
associates
##ostic
resistant
monopoly
qualities
hanc
skept
looks
subtropical
ki
flint
discipl
digest
pasc
relie
archaeology
shells
bam
unve
freely
delhi
viv
##ifiers
##achi
managing
##eo
finishing
##text
hierarchy
##cat
##vas
##neum
constantly
flowing
laugh
##cott
##bage
fore
450
healthy
wyoming
##cho
everyday
honors
reveal
cultivation
battlefield
salvation
decisive
##fan
kazakhstan
glucose
percuss
unrest
blake
geology
victories
traced
archipelago
todd
##igs
raz
urugu
##aba
armor
traders
diana
##ghai
constitute
psy
iraqi
cay
zion
##gam
dominance
##etti
pulled
detective
hinduism
inheritance
metamorph
hij
null
preference
similarities
cincinn
frames
##abad
tribun
virtue
loved
tamil
##held
imaging
tradem
clouds
infrared
loyalty
achievements
reflects
tragedy
##icity
interesting
correction
instruct
ballot
echo
steady
brings
1803
gateway
bennett
mlb
caucas
adela
ensemble
lanes
pact
##fo
destroying
auction
henderson
erosion
##zes
alternatively
zen
##wait
legitim
helicopter
hoff
mere
butt
##uity
installation
alpine
sixteen
verd
conception
wrestling
wilderness
communism
1819
abbot
survivors
fog
subgroup
rapids
paradise
hancock
##cot
ammun
##orne
travelling
depicting
ecuador
inert
##ester
##oi
alps
##pace
advised
killer
ultra
assuming
##ongh
effectiveness
camden
creatures
bankruptcy
resumed
expend
mature
holidays
natives
compensation
riv
##tical
frust
counted
##ucker
unoffic
##ovic
spencer
reporter
hydra
fathers
analys
##rians
##rington
reasoning
retro
explore
conversation
pregnant
##itism
genoc
insu
louise
encry
nodes
winc
motif
ornam
impressed
cran
greene
thoughts
ig
kau
##ulative
vegetables
telescope
russians
turks
provisional
##vet
##itory
sto
garcia
reconcil
congregation
hort
brack
failing
feared
##eric
hered
omn
prosperity
customer
amid
scal
polym
organism
helium
accounted
nazis
excluded
wavelength
##colm
arcade
vectors
furniture
##onium
crust
countryside
digits
illustrator
frankfurt
schemes
clo
investigations
fart
##arre
beet
weber
guests
lyon
rigid
mour
saving
stockholm
owen
pius
paragu
estonia
##cker
sentences
controller
tsar
sufficiently
rifles
##mother
ing
##overed
flags
pulse
persuaded
tert
poetic
antis
protagonist
##enhagen
ammunition
vegas
railroads
conjug
lover
morrison
doesn
differs
gardner
consumers
nominee
sophisticated
orlando
cumberland
gut
attested
literacy
ratings
mps
persia
reversed
##eches
indianapolis
fert
compass
edwin
irre
catalog
scripts
designers
cincinnati
##hand
##obe
depicts
fles
##lements
adul
marin
expense
imports
virg
rouge
bohemia
##rik
babylon
yorkshire
html
herman
consuls
viewers
blog
broader
##backs
##omal
oracle
auxiliary
treatments
flux
malcolm
##iper
eclip
openly
acceptable
lacking
##nan
##erated
polk
questioned
imprisonment
consonants
pocket
marker
##igrant
affects
kas
##isers
relay
nepal
borrowed
rams
##hero
##plane
enzymes
##elihood
lil
confess
machinery
cambodia
pipe
accessed
diary
eliminate
incorporate
liz
##aa
ald
decimal
emphasized
protocols
treatise
##antes
elli
denoted
wellington
eligible
1828
##olin
nile
staged
##izable
hardc
reproduction
sends
reads
mascul
peasants
accent
asserted
infect
professionals
intervals
##xy
##isible
overcome
maple
##fi
##enstein
crom
guad
proposition
sediment
rah
saga
whale
underwent
providers
##inned
carlo
fuller
trio
nationally
profits
rabb
discoveries
submarines
tampa
alfonso
revenues
solub
babylonian
##anor
verbs
hap
suspect
enslav
propriet
destinations
gul
##dia
##phones
outs
translator
accomp
multiplication
dair
regulatory
##spring
##dal
##advant
##istani
traces
homeland
hardy
hoover
discl
cairo
anywhere
stretch
rituals
iter
airborne
marathon
vista
##tor
tack
defending
developer
garner
oriental
xv
hamlet
rosa
reactor
bombers
conducting
##emia
shallow
appalach
identifying
maternal
dealt
switching
eco
wives
kids
##ogenes
knox
fourteen
sailed
fountain
gandhi
inequality
##aj
accomplish
##rep
extensions
commodore
##inos
##isi
##icz
##storm
##illion
disadvant
relied
superf
tomato
recount
offsh
interim
typh
profound
##ascular
fertile
tah
##elius
##lla
kenya
paved
anxiety
cigar
chocolate
blast
francesco
claus
allan
##oku
generic
etr
facilitate
exempt
suddenly
newport
diagram
euclide
debuted
fug
turing
##uy
##usted
twins
redes
1790
revelation
hak
##pc
disband
weigh
ratified
abbas
rectang
##thr
patric
copenhagen
toled
sox
kre
shrine
servants
##edients
##elt
shores
helena
euclidean
##wid
earning
condens
replied
gaming
eddie
statues
vocabulary
coronation
##holders
extraordinary
pete
##omorphism
bug
##var
conclus
originating
1829
python
ecclesiastical
templ
bord
coupled
parameter
isotopes
das
wants
zimb
displace
planetary
baptism
pneum
##ovsky
assim
yields
nicaragua
collector
combinations
altar
mk
##lined
afl
routledge
celestial
uc
##rels
##ometric
##far
##ropy
wages
##rawn
methyl
combine
arabian
suspension
aure
tud
##press
thrown
lum
chat
gregor
aerosp
##aan
##itivity
programmes
advocates
recruited
ont
##imer
fees
darkness
belongs
examined
tibetan
bee
corinth
harp
cyber
heavier
##onscious
ceram
vernon
numerical
spawn
##stra
##assic
touchdown
topological
richardson
##heed
reass
colloqu
whereby
##hyd
##mid
formul
belle
astr
amphib
##alid
embark
dinner
##25
##elong
##intosh
emmy
loose
colonization
birthplace
tolkien
rican
375
##married
ingredients
kosovo
incomple
##alan
##abwe
##wey
1826
anno
glory
##ische
lep
##landers
barrel
representations
payments
bourbon
nim
xii
##found
intens
curtis
adelaide
fauna
deliberately
shanghai
kom
rt
##adian
1880s
pursuit
jas
sas
wheels
georgian
protective
##urities
stark
berry
##eding
contested
slope
integrity
mapping
kant
jewel
turbo
##flow
cultivated
announcement
yuan
worse
220
minorities
denominations
zinc
##ente
crater
crystals
ellis
zimbabwe
tow
carr
valve
##iker
observe
recurring
cb
releasing
asteroid
##64
outcomes
handled
##nals
pepper
offspring
platinum
surrendered
maker
deut
louisville
fen
thess
haiti
arise
lessons
1792
pied
##fried
##ivism
1813
calculus
wished
##run
##kk
inspect
happens
##irus
amal
completing
##itian
beef
suite
##iago
basque
gonz
##atics
inches
##writing
##irable
##ogr
celebrations
trustees
##si
convey
microp
hanover
##fia
##aku
waterloo
straw
isabella
speeches
inquiry
bis
vass
##eves
plug
shen
rotating
preparing
depictions
toledo
midnight
castile
semiconductor
##asis
container
occupy
selective
antenna
azerbaijan
caves
jets
rous
fres
newcastle
popes
maxwell
dell
dign
dru
##jab
##umann
doz
arrives
pottery
torture
ling
##iculum
abn
induction
boris
communicate
advisory
combustion
bols
##igious
infections
##aea
peaks
possessed
correctly
neighbourhood
sauce
##manuel
knowing
murders
albanian
insufficient
##assium
calculations
lisa
dug
##vern
smoking
##borg
honored
observers
rangers
##imon
doom
##obs
##uta
unanim
biochem
percussion
pt
tant
strongh
##icking
parking
visc
tiber
suggestion
##omach
accordingly
racism
coastline
missionaries
clothes
numeral
kingston
gifts
transm
bacon
fare
##etus
spite
marl
keyn
holl
flem
rodrig
cors
lent
alcoh
fairy
horizon
##stock
aspir
##oves
draws
##eted
counting
laud
afternoon
##iens
scroll
guidelines
anthology
skilled
derivatives
##enary
##iane
balls
torah
climbing
modification
seleuc
supposedly
fascist
receptor
eternal
##fly
##atl
##enzo
toured
mask
wreck
funk
##guard
mtv
inferior
1816
moments
harmonic
enrolled
employee
lymph
spatial
competitors
prominence
ease
economies
rape
projected
microw
urged
potassium
##otten
trucks
shor
##owner
barra
physicians
collecting
viewing
talib
trop
##urred
labels
malt
cyn
##ibus
cliff
recurs
spear
domains
banner
dere
mn
brom
potter
scotia
riverside
jos
##nic
leone
economically
philippe
attractive
annexation
uzbek
##etes
alberta
jess
##hart
muss
johns
predators
pakistani
poster
realism
remarkable
##stadt
taj
antony
reunion
chev
compiler
##omatic
spur
weakness
reprinted
duo
enabling
genocide
haus
chate
abortion
genius
flown
journals
stolen
spelled
inventions
freshwater
panc
archer
antip
##esch
##alm
##ailing
##iversity
##ums
##essa
declining
wartime
##tus
##elyn
loud
composite
##mons
##utz
##empl
repet
hopes
rochester
carthage
##people
plac
patriot
db
zu
##ilder
rehab
marriages
##bria
theaters
treasure
diving
tuber
cooperative
eugen
syllable
monter
doctr
##thood
pseudo
carnegie
roth
disgu
derby
lyric
excluding
##osity
##grade
classics
leis
perce
bloc
microscop
vault
loaded
casino
cater
conceptual
nikol
tributary
wax
ideals
santiago
thermodynam
sits
##imar
##imid
whenever
lawyers
barr
torpedo
newman
emma
juven
lynn
dietary
feminine
discharge
mascot
carc
uncertainty
gaelic
warned
swamp
castro
nou
padd
dewey
##iances
ende
missed
escal
##eit
##isbury
disrupt
muscles
immigrant
abundance
rider
bride
subc
shepher
congressman
hampton
uef
##iciary
clusters
supporter
histories
aerospace
##uki
##imo
innovative
undertaken
##otherapy
mgm
##mir
##agi
basal
##conn
dances
nig
cir
xiv
chorus
##ogan
##ullah
motivated
bermuda
dairy
esper
morality
meanings
fus
##rea
##fta
declare
andrews
##lag
portable
##ienne
mott
moss
##rant
##jud
##sted
##ete
dayton
incorporation
euras
##fu
##inks
forec
sean
newfound
1700
mothers
shelter
whis
memories
colleg
devot
tribune
reviewed
##astics
conting
nickel
migrated
acceleration
cherry
clients
protecting
dover
°f
anders
##reated
##rock
##utors
planted
technically
salary
collaborated
martha
slot
mixing
spectral
ti
##ping
carefully
##bourg
constellation
resolve
kernel
naked
oss
incons
surreal
aligned
handbook
hayes
##lar
contex
limiting
1801
charleston
heated
welles
bark
propulsion
lafayette
worcester
bant
proton
##oche
raiders
hook
lope
deskt
cly
wash
##oki
confuc
liberals
investigate
abdul
contacts
catalogue
contexts
lys
cone
intra
wend
##ithe
tran
addressing
seab
collision
tao
##illon
prelim
britt
laura
immort
peaked
rey
incumb
shortened
##2o
thomson
jointly
negotiated
nice
shipped
tonnes
miners
posted
dispos
timing
printer
marian
specialist
strongest
prefecture
##eys
##isy
##opic
gloss
respir
investigated
neb
1827
cycling
capitals
flexible
meal
summar
nuclei
guerr
exempl
insert
##boys
mandate
rd
##icles
##awi
marketed
melting
advertis
burgundy
insurg
1810
##trak
scenic
triv
macdonald
aluminium
hp
##anol
chore
souls
deceased
taxation
1795
##ochond
divorced
rode
unn
committees
recruit
1823
impl
servers
troop
gradual
trademark
fool
lug
pater
sg
empirical
confined
declaring
occurrence
nicolas
concess
##opy
transp
artwork
packet
preceded
constituent
##hell
shi
derive
bradley
ovid
totally
rivals
tidal
elis
krist
explaining
ober
norton
marxist
parsons
penguin
probe
##ellers
##annon
achieving
makers
puls
joel
anthropology
adequate
dent
##atha
metre
1822
1809
protestants
uefa
dose
mint
mandatory
editorial
patents
davies
filipino
##isch
##emon
##ichi
##anned
entries
shoulder
pitt
punjab
1806
tanz
philippine
tallest
##oz
thurs
beaver
decreases
unmarried
clips
depr
barber
albeit
feedback
kuwait
##friend
peers
soils
threatening
ferg
2010s
supernatural
tetra
lobby
knows
slopes
650
passages
plantations
1817
responsibilities
mathematicians
##gia
##fax
formations
dozens
dors
##uine
treason
weld
strips
baden
anarchist
##zhou
https
adoles
circus
putnam
sailors
eur
##dot
##igi
exposition
costume
reciproc
antoine
unveiled
stance
incarn
##related
prehistoric
reynolds
truman
suprem
reinforced
remarked
##uen
##soon
fortified
dressed
hul
##bone
##hev
##ianism
exiled
append
thresh
communion
skating
onset
suited
relates
affecting
##lected
##aven
reds
discourse
magical
secretly
breakdown
vikings
maya
guang
factions
macedonian
inaugural
##rooms
speculation
firearms
rapper
displaced
czechoslovakia
kang
##pike
##ayy
byte
cob
greenwich
conferences
voluntary
ud
##onne
##idon
##ensen
eleanor
objectives
fails
dissol
fossils
625
biodiversity
casc
gram
1890s
departed
chord
chuck
mank
violation
turkic
memoirs
precursor
pascal
playstation
solved
currents
sexuality
favorable
bench
modifications
parishes
danube
accurately
athenian
tolerance
slovenia
##gger
##imp
marched
stationed
witt
cruel
##rov
hawks
mongolia
anatomy
leisure
ulster
suffrage
##zon
motorcycle
curs
grows
jesuit
danny
seiz
owns
pue
##leted
seaf
choosing
carnival
peasant
claudius
nt
##ourt
minne
talmud
##nas
neolithic
shoes
keen
simpson
thursday
##ilion
friction
orn
usd
underworld
engra
eden
melod
loosely
sided
bea
lennon
mell
rw
##nt
##ardi
##agers
underwater
tommy
labeled
pyramid
directing
210
##aean
aesthetic
lumin
tart
sega
badly
guarantee
hels
crest
drought
volks
illum
##eee
mythological
admission
kilometers
##ocation
##mitt
hereditary
misc
paus
wer
countess
##erner
1804
drafted
##uh
##fight
240
melody
winchester
##iston
cables
proceeds
##width
mikh
healing
##elles
routine
testimony
magnus
lantern
practitioners
maneu
phant
sixty
constituted
performer
ethnicity
napoleonic
ceded
acclaimed
mormon
projection
interrupt
acclaim
lago
##raine
prolong
bolivia
kub
intact
##condu
salisbury
1776
explorers
energ
deposed
verses
rhode
illustrations
nin
zam
##ady
frig
disab
physiology
caroline
aggression
surgeon
taliban
lact
yah
##rag
regen
vicinity
flank
drainage
exterior
##mates
exhibited
ahmad
reasonable
lockheed
rc
##igm
guit
textile
bureauc
##heads
durham
shaft
##iors
##pm
seals
fourier
storms
yout
strang
dried
heading
miguel
bust
della
stur
amtrak
commuter
##worthy
analogous
gauss
##mus
##sten
alam
panels
pharmac
nassau
tir
##jor
freeman
optional
consul
impair
volley
posthumously
cecil
koch
knot
aurora
flanders
##fus
heracles
latvia
constituency
monasteries
wals
##ulous
nec
pressures
##arthy
overthrow
##caster
##wana
alto
coy
swords
contracted
sparta
gius
andalus
compare
compuls
commut
intersect
affiliate
fou
commune
myan
dukes
circa
rhetoric
lopez
rash
##words
##atile
critically
blocked
spokes
disciplines
wishes
##ingo
##utical
slip
conversely
mistaken
slovakia
complain
luxury
ez
##rors
spots
fission
implementations
pia
##oughton
peg
##sson
performs
semitic
unconscious
delegation
convenient
parody
decreasing
turbine
enthusi
privileges
trinidad
##amas
visitor
employer
rabbit
innovations
absolut
granite
filmmaker
##irts
intensive
cret
continuation
watching
joshua
myanmar
edu
##bn
arid
airfield
reop
infected
privat
sterling
##ogram
rook
humanitarian
halls
tune
scandinavian
presumably
##athetic
whales
parach
attitudes
loans
ivory
fals
disturb
differently
distributions
simplified
aene
##etically
chamberlain
witnessed
##bons
ish
multim
turnpike
##oxide
silence
cromwell
##ilo
parkway
cartoons
diagnosed
confederacy
entrepreneur
adverse
cinemat
wwii
enslaved
slower
identifies
1793
transcription
##beck
damasc
comparing
desktop
kate
magist
pawn
impacts
falk
aquatic
welcome
elephant
flemish
lots
locals
crane
socio
pag
standardized
respiratory
ieee
lengths
requests
debated
corners
tissues
homosexuality
fc
hate
inject
unh
confron
broadly
endorsed
weakened
rejection
##ipation
##iously
mccarthy
tigers
expatri
extraction
uncommon
jor
piz
##yt
##chus
als
##sover
ups
essence
strain
timothy
elimination
coefficient
griffith
irrigation
stuff
colin
##ilde
processed
negro
laurel
disappear
##gang
##avier
matching
macar
inev
nes
wasn
mesopotamia
nets
newark
trap
dictators
veto
flame
solving
brandenburg
dorothy
armoured
kb
##mers
grammatical
unofficial
ras
##amoto
serpent
accidents
blamed
angry
1811
cage
##ogether
este
##inski
##loys
portal
##ariat
permits
shed
##iating
privacy
injection
cure
hi
eleg
transactions
liu
accession
##cliff
savage
metallic
preliminary
##ght
syrac
synod
1808
calculation
##70
##arity
quartet
ich
tyler
denis
sometime
settler
canonical
tide
##cci
##ructive
devised
comprised
pard
denote
demonstrations
mitochond
fernando
etrusc
notorious
##eppe
documentation
1791
altogether
portrayal
threw
spreading
linda
elderly
upgraded
unpre
nee
##arded
##ieri
256
seeks
runway
functioning
marcel
covenant
##iao
suppressed
pointing
##plus
productive
quarterback
##ennes
invested
##cod
conject
curves
rancho
sebastian
jub
##py
##ologic
psychoan
treasurer
unstable
investments
rankings
celebrity
mobility
lisp
##vd
ambit
##issa
##rients
hartford
metaphor
implications
nie
##alam
anonymous
resemble
biographical
soprano
buffer
##brand
rehe
##adier
fremont
commentators
pioneers
constraints
lever
brent
convergence
landscap
rope
##cling
summon
tender
tournaments
orbits
lans
crashed
bandwidth
deton
simpler
stevenson
bard
##rust
##igrated
dear
airways
benton
endeav
mikhail
guitars
##lights
##aceutical
incumbent
floy
1798
corpus
bould
chan
phara
moh
concludes
##keeper
##fil
marines
##keeping
depiction
sonic
erie
##ourable
linguist
coordination
np
nac
pension
##peg
huntington
proceeded
##uria
crist
entropy
1807
apparatus
giuseppe
courage
obso
voter
favourite
incomplete
genetics
thriller
suscept
bailey
repeat
flavor
apocaly
flesh
mald
##witz
##itas
##elic
hash
##rible
workshop
drake
mountainous
rendering
lc
sara
rept
##ells
culturally
cubic
struggled
jaw
qa
##22
vols
hosting
gould
zar
patch
complexes
pulp
kane
##function
##bane
##oughs
button
holder
portraits
quran
a3
##xi
##appa
ladies
dodge
executives
fergus
ucl
wess
##atche
agn
ante
incent
academics
automot
withdrawn
bacterial
gt
temperate
1802
galleries
klein
critique
treating
generator
choices
olig
purchasing
leslie
botanical
##tles
shog
genuine
narrator
laboratories
##uku
sardinia
redevelop
comet
1794
##ivided
myc
warrant
##annah
homest
ruby
hymn
##ective
descript
accepting
deployment
yankees
nih
interd
argu
dividing
##efin
faithful
ozone
lime
##houses
##rob
contamin
provider
sabb
##orff
theorists
lucy
aberde
contemporaries
cologne
germ
ranged
inserted
prominently
dedu
advisor
floyd
rack
##hedron
holdings
websites
demanding
swept
chilean
lebanese
adjusted
automotive
##gement
##osure
crescent
justin
castles
bigger
tunn
dwell
##imeter
expectations
obsolete
##inge
pamph
guatemala
pork
##ptions
##uez
curriculum
intest
1799
imagery
cerv
##brates
winston
screening
watershed
inaugurated
creature
mistress
quit
punch
subspec
controversies
globally
humphrey
envelop
trapped
seym
sue
confident
ancestral
##child
##otus
##ographies
domini
1775
societ
corrupt
##obic
rolls
licensing
##igraph
##ibal
respected
censorship
##lette
unfortun
resurrection
mum
isles
damages
necessity
pert
intake
yearly
transaction
875
wur
##azi
probable
guaranteed
bare
zamb
##pic
scrib
##anga
registers
breton
##fficients
hearts
possessions
proclamation
coefficients
##urai
##iani
desper
minds
preston
ordering
similarity
dias
filling
predecessors
venetian
displacement
stip
chatt
develops
seemingly
receptors
certificate
dag
##hurst
carm
referenced
providence
##ophys
francisc
dah
##kov
##atisf
##stead
##acs
##luence
dominate
incorporating
##foot
thatcher
demon
humbold
declares
wikip
archaic
bike
remnants
mons
oswald
giul
optimal
arsenal
seymour
capp
latt
stems
enables
##ylan
fluct
ses
##cz
##itate
nept
barnes
prints
pueb
converts
pharmaceutical
gloucester
newfoundland
threshold
##esters
semant
jab
hew
##ogens
coch
traff
harass
postp
feder
ambitious
cache
dix
##idd
##idan
modules
drown
zer
blanc
interfer
sao
download
cleop
recommendations
humboldt
johnston
prayers
odyssey
franks
somalia
phosphate
monastic
generalized
maximilian
exhibitions
euph
uruguay
##ben
employs
utilities
cocon
pomer
dew
emble
socially
debates
pierce
kidney
philanthropist
screw
1805
descendant
nomen
##gic
chir
##into
##otechn
steadily
antisem
##alis
percept
obtaining
apostolic
##hardt
imped
emil
sanction
sharon
##hydr
hm
sect
piv
prone
aden
booth
rachel
burst
phylogen
##45
clara
implied
longtime
lineage
structured
burke
grandmother
fortun
tracking
jeffrey
negotiate
neighbors
kok
##vic
##oras
superhero
brab
burden
auditor
lighth
nost
bloody
terminals
boxes
minneapolis
damascus
syracuse
dams
sensitivity
migrants
##erian
bris
successes
sunset
surveys
hiro
pounds
commenced
boone
boarding
spectroscop
dependence
sculptures
breathing
tudor
youtube
tuc
listing
affili
panic
fatty
behavioral
brighton
footh
feudal
rs
arlington
polo
warming
##neys
appealed
lengthy
frozen
##ulent
amy
##ellular
simulation
joyce
noir
attain
campuses
capturing
fluor
gibral
biz
hey
1601
unpop
cylind
troubles
afterward
linn
uganda
middles
paraguay
austro
volta
robber
bruno
emotions
nordic
cleopatra
trips
wednes
gan
tense
bonap
inherent
characterised
productivity
verbal
kinetic
##cill
denotes
##isse
##adequ
likelihood
##lein
tracy
latv
pressed
republics
balanced
unicode
gum
fraser
hercules
warwick
barack
##inae
1870s
pastor
voyager
wikipedia
##isle
##encia
masculine
inadequ
crete
##linary
fleming
definite
forgotten
hijack
rans
##lair
##atz
presenting
trojan
fortifications
cartridge
complications
gambling
##oge
brock
cleared
richards
khmer
odds
zhang
volleyball
yak
spac
##hend
modeling
robust
microwave
ya
buzz
wednesday
warn
gerard
semin
subjected
reunited
astronomers
mozart
virgil
dess
##wind
lateral
failures
approximation
determines
searching
nationality
realistic
judiciary
logar
nurse
specimens
cicero
dud
lone
xiii
regards
midway
##print
expectancy
sketches
##endon
submit
successors
breakthr
randolph
sportsc
blessed
transistor
ego
roland
economists
stressed
##ingen
apprent
augusta
africans
##gradation
vaccine
farther
guerrilla
bism
sina
##esy
aging
woodland
employing
802
concerto
resonance
thumb
reper
buying
eighteenth
1797
amplitude
allocated
pharaoh
xml
##wyn
##awed
##ahan
rainbow
jacksonville
jumping
robertson
alcoholic
cohen
meta
crude
##retion
fears
aesthet
resided
wei
combines
contradict
reliability
synagogue
tues
wand
pk
##isting
burlington
1796
encouraging
gibraltar
##hea
##etz
##ishi
promising
bassist
carpenter
##racted
knife
email
batteries
comprise
tubercul
tuesday
dac
proud
edison
surrey
differing
exceeded
##jet
##itter
##ounters
notre
##phi
##ffield
homo
##ogeneous
##yp
##jin
fritz
##avez
##ometry
1783
oaks
emanc
spherical
joins
modulation
elm
organize
jung
hoping
chloride
hellenistic
convex
tul
##uer
accelerated
collegiate
disabled
##gov
##heid
##erting
councill
logan
gag
##ozo
arbor
readings
computation
##chev
taft
decorative
plaque
oman
##maker
##ος
stomach
publicity
justified
salam
keyboards
hanging
sinclair
mund
tuning
signaling
iconic
lisbon
##walk
segregation
##pow
##alling
hunters
latinos
dynasties
accompanying
homestead
mog
##houn
modeled
guitarists
transcend
dragons
lesbian
notting
libertarian
##esa
##ishna
matilda
mugh
bios
dispat
skiing
offshore
cipher
riders
intu
encounters
specifications
##ouk
enric
companions
alternating
trunk
weights
occupies
garfield
cowboys
triggered
luck
shak
zepp
rosen
nh
tus
##gated
##estation
advers
optics
fitness
morton
siblings
chateau
rite
sf
byr
decoration
numbering
ambul
beneficial
reproductive
deficit
gore
##olini
##tene
finest
domest
symmetric
assignment
avoiding
beating
insulin
horace
oceanic
sleeping
axiom
coss
hep
liked
grouped
nutrients
vampire
chavez
canals
##lude
falcon
speaks
laurent
fibers
mckin
loth
##aten
usaf
burma
##usions
papacy
sultanate
deaf
matric
gong
creed
grape
satisfy
insect
rend
ubi
exagger
trit
clair
artem
##obia
botanist
bubble
bj
mou
sheets
marching
grains
grossing
aunt
##atro
##aze
mysterious
emerge
hurt
ili
mound
##hey
deeper
mats
titus
attribute
boroughs
kinder
fingers
tz
##keys
induct
sidney
##lishes
rex
habitats
ethiopian
helicopters
##rush
##dan
coher
judah
alternatives
theft
elk
bats
##icester
beginn
ave
sank
amiga
##aceous
automated
sampling
orchestral
pter
##ei
topped
beans
exploitation
bout
##ilitation
noticed
catast
mi2
retaining
exclusion
niels
jain
##andro
##ablo
sperm
270
expressing
chapman
mutations
brittany
iod
institutes
throwing
resembles
encompasses
counterparts
unpopular
equity
##ecd
assumptions
encoded
stronghold
spanning
popularized
1850s
berber
lifted
cooked
##osaurs
prestige
dic
armored
##afi
ahmed
upgrade
##estown
manages
##90
##usive
##inki
abnormal
##elly
##roy
ratios
slo
##quit
madag
dorm
kod
sheffield
##getown
bail
eruption
forbes
diabet
tunisia
##arc
##imet
deeds
xer
yar
peck
willow
specially
ensuing
##ifa
230
##took
settling
lenses
m2
##gins
unrelated
loading
cube
##owing
320
imagination
##iseries
##grave
organizing
swimmer
icelandic
prestigious
caliphate
senegal
vie
endemic
##ogly
##iba
neutrons
tunnels
porn
##oco
leicester
agenda
##inda
journalism
cornell
spiral
challenging
saharan
mozamb
jesse
drinks
##gener
gasoline
1788
##entric
203
##aved
lucius
pupils
##class
advancing
##ylon
facade
norms
rounded
dealer
catalonia
tajik
jedi
##mail
stellar
recession
flam
miniseries
discovers
robb
##iffer
underm
inflict
enlarged
eclipse
jum
tl
thebes
amber
invade
avant
granting
##cies
arama
abdu
interven
sworn
ideological
##kinson
sailor
dylan
gos
##olt
unde
dispar
drift
1860s
##lemagne
aberdeen
ci
ole
##tv
shiva
secession
charlemagne
montene
instability
confluence
deputies
excavations
##eroy
diamonds
deficiency
ain
ashes
amended
establishes
harald
listening
discussing
struggles
hitchcock
chelsea
peripheral
refined
235
280
doug
crews
complained
stopping
prosecution
rites
##amination
relies
##ographically
europa
##engers
researcher
sunk
punct
pathway
diagon
##oros
cyan
paperback
levy
enclosed
gog
pbs
xavier
##omans
##eling
##antine
indefin
carmel
feas
creole
commanding
mali
bm
##ioned
puts
luft
##iso
beds
expeditions
tanzania
aramaic
leib
shat
coaches
duncan
rf
prejud
slide
streaming
piedmont
subspecies
##ptic
carriage
skate
##ylene
harmful
mammal
physicists
dm
##inent
beeth
sued
soup
aster
glacial
remarks
##oping
juice
##ylum
##terson
sexually
rainfor
pulitzer
##ulton
lovers
accusations
fron
formulation
favoured
cheaper
fitzg
ek
##jing
asserts
busy
olivier
siberia
tes
thera
musc
insight
footnotes
purport
brotherhood
ellen
iberian
tooth
supervision
tung
medications
##aise
calhoun
pioneering
sioux
allegiance
plutarch
shin
subtle
neurons
fulfill
bonaparte
beethoven
ank
##chs
arth
##ogues
##atham
buchan
variance
historiography
snowfall
enrollment
epistem
nursing
lut
oy
enjo
blair
westward
empires
definitive
calculate
##ianus
##ango
clem
homage
hitting
update
psyched
##eer
##ocles
namib
griffin
tones
##igl
unchang
grip
schwar
decent
solv
approaching
satire
platted
conviction
madagascar
belfast
patriots
##amon
expenses
stefan
schles
temporal
##iol
clash
##ubs
manit
##coni
harb
jules
renewable
wizard
monterey
shepherd
perspect
villain
networking
financing
miracle
tertiary
disbanded
ds
kins
vid
##path
enforced
disability
decides
exceptional
tian
##inely
admit
greenwood
sunlight
violations
antarctic
fow
##opia
deuter
##mentation
##endicular
extr
honduras
microprocess
##post
stamps
##gestion
tenor
oversee
subdivision
zap
launching
polarization
huss
iw
nl
devon
happiness
dropping
lambert
pentec
behaviors
compatibility
nutrition
tuberculosis
wille
exotic
chartered
1200
hunger
watched
melan
surgical
beverly
brilliant
helsinki
activated
careful
meridian
psychologist
safely
utilized
perpendicular
formulas
##rans
semantic
lithium
athena
pompey
ero
kum
chol
retros
initiatives
##geon
macro
diplomacy
coca
enlisted
flourished
pretty
gd
kend
##cal
##99
inability
freezing
##comed
utrecht
lotus
diminished
barracks
pentecost
tucker
scro
twelf
fantastic
indirectly
auburn
barriers
embod
julie
criminals
accidentally
psychiatric
##berger
##quis
invitation
insign
busiest
admired
floods
reiss
mush
midwest
inspe
careers
gaius
alignment
perfectly
arguably
nathan
##55
##entry
flute
invisible
50th
customary
quarterly
regulate
uniqu
degradation
lease
worm
##ledon
occupying
cyclist
baghd
commemorate
recommendation
arb
##owners
tributaries
paternal
bytes
regiments
##ometers
sensory
wheeler
##opolis
strengthened
interfaces
boiling
extracted
fernand
##lord
##ayana
grat
upcoming
subgen
hume
##ielder
astronauts
perth
functionality
aston
##written
reconstructed
anatolia
##roft
wholly
monsters
idol
exercises
earthquakes
euler
koh
omitted
##alla
sham
agr
##amba
smithson
doubles
amendments
panthe
surprising
diabetes
##gem
##amous
carey
agrees
pluto
surpassed
ranc
##ietz
emerson
seminary
oceans
ef
##wara
##urd
magnes
dominion
heroic
analytic
tough
smugg
rowspan
embarked
twelfth
##irmed
recl
implicit
broadcaster
citrus
sophia
propagation
prevalence
reluctant
robots
theatres
theorist
graphical
beside
ineff
##esis
##oved
meyer
equator
handful
routing
apostles
hymns
conclusions
131
rhy
lyndon
proponents
bahaʼ
##midt
wounds
##iov
##ilated
regained
lawn
restra
merge
frog
illegit
anatom
versailles
pilgrimage
##ono
atp
offset
justification
oppose
holt
instituted
##gara
harding
samar
adjective
rehears
betty
surplus
refusal
solic
exercised
obligations
spontaneous
##erie
##adia
subdu
barth
##roads
drops
##hawk
hague
##utic
oslo
retains
diaspor
willie
speculated
famously
ensuring
burnt
analyzed
suffolk
immunity
cafe
aurel
lacks
mw
##iya
stain
ears
sociology
humanities
chiefly
gaulle
erupt
joc
unin
chiang
shannon
shear
emmanuel
biologist
##enza
debr
cola
exploring
bonus
shifts
jenkins
unpreced
dental
impressive
illusion
prevents
550
humidity
prolonged
mysteries
unprecedented
spor
confisc
##building
nath
##fold
##fred
runners
papua
congregations
beast
afro
herze
phonetic
krakow
jeremy
rca
prizes
additions
viable
multipl
martine
ottomans
browser
besieged
wah
##kal
spike
fundament
sympathetic
iz
jug
##base
logistics
complaints
##iler
edict
fungi
foreigners
wolfgang
tickets
isotope
puppet
##ynthesis
compulsory
arte
maori
locked
##anias
reinst
##arck
##utory
suppression
sharks
divides
onward
##immer
viruses
refugee
criterion
transparent
fitzgerald
foll
rejo
salad
sitcom
viola
rabbin
canceled
chau
bells
flagship
pueblo
##mate
dei
hect
airplane
identities
cheer
bolt
fellowship
spiel
peruv
introduces
negl
rhin
shifting
perspectives
##mor
wherein
annot
survives
infectious
yuk
##arp
##isans
##odus
apolog
tombs
egyptians
lorraine
defendant
wagon
roma
graduates
##ijk
defenders
explanations
macarthur
tup
##atism
##orian
chant
instructed
supern
salts
370
substitute
hue
##iator
##chel
neoc
walked
ballistic
pirate
lexington
morphology
transmitter
chromosome
engaging
samurai
hof
##harmon
stretching
maiden
##rows
influx
cameo
resisted
whitney
galaxies
excellence
gad
##aric
seaw
succ
apache
elector
janet
semantics
##utan
##arta
##ondo
workforce
##bee
etat
mcd
keeps
mutation
nicol
vocalist
preserving
welcomed
pipeline
correlation
fulton
##bat
sealed
recorder
25th
observing
kyoto
fierce
pivot
##vol
capitalist
mcdonald
pitched
##itarianism
seneca
devastated
quincy
latvian
fayette
208
diaz
nomadic
narrowly
validity
esperanto
norwich
jurist
herzegov
##non
fraz
marco
gameplay
260
liturgical
##bral
drained
greenhouse
wilde
shark
variously
1780
preparations
sigism
mantle
##tw
##tsky
webb
absorb
golfer
stab
##apo
scra
everywhere
hunts
savannah
subdivided
guadal
examin
posed
waterways
glut
##market
metabolism
recy
limb
pigs
portsmouth
exported
dump
photographic
mistake
teenage
intrins
galileo
elliott
breakthrough
##bius
##anti
insult
obscure
fidel
homet
##fect
##aris
compress
cane
magnific
printers
beaten
syllables
dwight
##lace
pliny
brien
remin
angola
mercy
merchand
unusually
##ogenesis
dhar
imply
alexandra
premiers
cfa
wester
bury
gav
forens
absolutely
oste
sind
##sville
upset
3000
mcle
##mart
infinity
themed
visig
destructive
sensors
huron
dres
##vor
##icol
##iked
##mberg
denounced
mosaic
fuj
##eens
##igma
formulated
cobb
considerations
1900s
middlesex
hometown
tann
##iche
centennial
wolves
zurich
mice
##onde
flies
skyl
diffusion
captivity
victorious
vacant
proprietary
clap
141
possibilities
connor
harder
achilles
1787
archaeologists
horns
nure
rats
##vae
pri
##oglo
quotes
singh
premium
kabul
urine
£1
##jou
parth
scripture
pioneered
##bot
##thy
meh
wein
skater
constitutes
sportscaster
xvi
##zn
##pers
eva
stripped
swall
hamas
celebrating
pseudonym
##aments
communes
sync
cornish
bowie
breakfast
##otechnology
##orical
maus
expressway
licence
##yi
adobe
placement
slovak
feathers
herzegovina
persistent
civilizations
translate
parallels
##edient
##urable
hass
knee
custody
##zzo
firmly
sharply
jennifer
phantom
##cery
##wen
##acrit
neural
mono
deform
satirical
sensor
kilometres
##edes
##stones
georgetown
sami
dismant
quartz
feld
wires
##heart
prc
##ovan
meditation
opium
barely
supersed
dund
lia
##code
marina
lifelong
bn
kai
daytime
execute
khrush
bowling
elisabeth
ape
emily
guides
##brian
photon
predominant
hs
##pot
##iman
##race
##ppers
desirable
spotted
folded
##inqu
##esses
brush
somewhere
developmental
inputs
uzbekistan
canaan
continually
songwriters
##icultural
##lation
eliot
##verse
sunsh
cites
indication
laden
fuji
pige
patronage
##trans
hesse
shu
moons
cubs
bottle
inscribed
exponential
aa
bg
bison
##reet
##istically
unne
pastoral
thickness
lungs
##eve
##kir
##hoe
trauma
##ylus
qualify
gunn
convince
##hetical
apartments
shorts
constructing
wetlands
maneuver
yo
204
##mental
##izational
##rite
drunk
equals
anticipated
dahl
vor
wi
reside
propell
sentiment
damaging
laying
##achev
tasmania
kamp
kyr
##icides
retal
collar
voiv
coloured
1800s
zag
amen
offense
answers
unsuccessfully
scandinavia
potatoes
rectangular
##iotic
##onn
commissions
##grass
remem
clayton
consulship
inadequate
nero
bras
distur
##lination
taxi
principality
hubbard
leonardo
unnamed
khrushchev
pf
nationalists
1830s
pavilion
aphrod
analyses
##len
dee
hyperb
gle
divis
merced
eccentric
nomencl
##olome
##grams
##ankton
macintosh
dickens
ammonia
##alled
expans
imf
##apeake
##comput
clarence
dining
##dn
##24
##inished
asylum
manila
securing
denial
curved
restriction
soluble
ars
boer
coil
##eps
lineup
cardiff
levi
##continent
disestablished
##vs
##onna
publishes
microsc
shawn
##esville
##reb
##aden
shoe
delays
profitable
garde
taiwanese
proclaim
motivation
sergeant
hydraul
gond
cron
interviewed
equivalence
lorenzo
dancers
cunning
fiji
##ilus
##ibald
brune
braun
crushed
hutch
bae
daim
##iad
##geois
specify
deport
refuses
streak
transfers
##etr
phd
overhead
postwar
messenger
stripes
attracting
pythag
alder
backward
eighteens
survivor
ff
sass
alike
subway
averages
nowad
privy
financially
predictions
manipulation
chesapeake
illegitimate
wich
adorn
bugs
jungle
lowell
screens
1774
poisoning
chromosomes
ecosystems
sigismund
plag
##asted
##oko
occult
switches
sino
viz
##yards
##oton
schne
autoc
lowered
333
utter
##continental
arrows
exchanges
nowadays
moll
ruther
##alous
stiff
atoll
minh
superst
1750
andrea
scattering
##enzie
supers
tribunal
##enas
raph
awaken
outlined
brisbane
cag
eject
hiding
forts
chu
laos
##psons
watt
cavity
umayy
balkans
ambiguous
baghdad
##aid
remind
##unda
commodity
gp
##nn
##23
seize
##ansen
securities
viewpoint
succeeds
rebuilding
malaysian
dolphins
oval
impose
transgen
luigi
implementing
clifford
mozambique
##irl
scrip
joke
##tiles
tunes
cocaine
artemis
hern
##heng
camero
assumes
experiencing
moroccan
zeppelin
schwarz
sunshine
pens
##zilla
##wagen
##erable
##arius
parag
refere
passport
karen
medici
simplest
rented
##asses
expulsion
interrog
seventeen
caucasus
rica
##ctica
grun
monkey
mcm
manifesto
nuremberg
##fol
compressed
petty
##rophic
doctrines
lah
roses
##imov
scan
davidson
turkmen
substitution
overlap
devastating
tears
seld
##kers
##aby
spinning
bran
locks
buren
stationary
1784
incorporates
##garten
axioms
##vie
beard
incidence
precious
protector
emphasize
cove
rale
##how
##hof
##itius
topography
offerings
continuum
analytical
crusaders
deposited
chandler
epidemic
##sein
terrible
travelers
##ijah
ultrav
prolif
prescribed
moisture
##anians
##atu
bean
chor
##abl
outlets
discusses
stafford
680
##66
##arez
costly
bulls
wavelengths
confirmation
epidem
dictatorship
##fam
##itives
205
genetically
generates
imaginary
##conduct
pemb
sake
sne
uph
##lane
maid
communal
cortex
chrysler
diaspora
ji
werner
##mu
stam
##apa
playground
glam
orthog
jacobs
certification
##anne
meadow
myr
superintend
activation
tablet
autobi
staple
plent
crashes
patented
dissent
hammond
myself
secrets
aka
hok
worms
filters
financed
212
walton
palestinians
adherents
genealogy
wessex
lus
menn
##itone
equatorial
textiles
captive
somali
hare
bees
nationals
sanctions
practically
copied
consortium
asymmet
boulder
##bles
##pei
##quest
amar
impress
contributes
andreas
##xley
excommun
incoming
basel
organizational
1763
bilateral
mesa
throat
zoro
seap
discography
backup
needle
codex
cannab
encryption
mughal
ebert
wab
##pox
interrupted
225
aztec
barbados
bourgeois
aluminum
incompat
lattice
emblem
rutherford
##upp
theoph
##olan
percy
invalid
authored
tariff
1777
wonderful
etruscan
lighthouse
vall
subordinate
trivial
plots
trol
remake
matched
samoa
loot
whig
##ifiable
breeds
cyril
loses
kep
##wy
theres
erik
fairfield
contempl
bonif
derivation
laurence
algae
unnecess
##uni
ida
chronology
saxons
explosives
ultraviolet
erit
clocks
##ende
centred
##onson
viral
eliminating
cartoonist
unwilling
vedic
nomenclature
hiking
asset
debts
transitional
abbott
##estershire
hz
ile
##ør
##lection
##oded
relate
monaco
ordained
warships
747
analogy
##human
exodus
##endale
##azar
adopting
bonding
dye
pays
wak
##fman
##ulators
conclude
hindi
emitted
antarctica
taxonomy
pausanias
smithsonian
nk
##cus
chop
206
navarre
balloon
toul
advancement
rehabilitation
##cliffe
nir
nuts
wip
##kie
willis
232
brigadier
gorge
unchanged
naut
fratern
##anca
improv
void
fluores
unfinished
deposition
highlighted
pendulum
ia
designing
irene
promises
lifes
comedians
##chaft
kand
costumes
deadly
staying
diagnostic
jennings
hastings
ferguson
peruvian
bots
pots
reck
medication
pelop
bombardment
cau
mith
activism
separating
##ridges
amazing
culminating
rodriguez
##lance
##mic
##ingual
indicator
scouting
matrices
hms
kip
muc
alv
##ologue
persians
refuse
antit
criticisms
problematic
akk
emotion
telecommunication
theologians
disasters
herodotus
tm
inclus
canoe
traject
infants
simpsons
generators
malaria
roberto
1778
##oult
debris
ioc
##card
spani
weimar
universally
macau
acquiring
flowering
##leen
italians
238
apartheid
disciples
reconciliation
logarithm
dresden
##inctions
##asso
amn
hypn
packages
doctorate
erect
usur
modernist
destiny
subjective
mutually
climb
intellectuals
gat
##iland
##apest
remix
diat
rotor
transformations
aristocracy
dionysus
##aq
##abel
nigerian
liberties
cottage
reperto
##icans
toys
trent
morse
domination
occupational
banker
graduation
theodos
##iotics
britannica
dit
lined
nak
##vre
##ouch
northum
christie
myers
rhod
odysse
viscount
sep
shang
shrew
noah
budapest
butterfly
sparked
luftw
bree
lips
##quito
islanders
philips
octave
urbe
contingent
dana
historia
loeb
statutory
deny
krishna
sponsor
bia
dash
mish
condemn
filmmakers
therape
gian
rue
distress
slang
residences
pipes
fischer
spielberg
reminisc
metropolis
prediction
ecumen
mirrors
1770
symbolism
satisfied
subscrib
juvenile
phones
mayer
255
baton
snakes
eighty
focal
coordinated
fuels
affiliation
##itious
stocks
##oder
enduring
wards
##vich
resorts
frederic
fas
indus
discs
verde
330
forestry
converting
senses
crowds
venezuelan
surprised
vendors
##holder
peel
schu
stepped
broadband
naturalist
escort
##escu
kerr
aege
colombian
ome
##xes
##onds
barker
violinist
gladstone
nietz
sage
tiles
conway
centr
turtle
blockade
invasive
compliance
resembling
renovated
cz
kot
##atio
stuck
daylight
woody
browning
risen
gin
kry
ld
##sses
averaged
##bras
epoch
condita
storyline
applicable
choct
pedestrian
emancipation
dune
iq
##ceae
calder
##aney
granada
hormone
uh
##brit
reflex
patterson
judged
chef
hispanics
fights
substrate
revealing
supremacy
nietzsche
sask
##idia
recognizes
texture
1781
collectors
scrooge
##adors
neill
contamination
solids
simultaneous
lagoon
unhapp
gull
##asting
consoles
longitude
judith
417
hello
sacked
stanton
pean
proving
elastic
affirm
adjo
conditional
cleaning
intentions
##birds
##kan
##opter
superv
cardiac
murd
rahman
##ogs
statewide
suppose
demons
annie
ivy
hazardous
energies
uly
wic
wimb
##anum
seam
##agus
emigrants
refusing
downs
omaha
heirs
numerals
ely
mural
sally
forget
colleague
natal
sahara
##frame
hick
qin
##odon
centaur
undertook
curv
absurd
precinct
climates
##uana
##osi
leh
tromb
partisan
urs
bergen
hesiod
reid
##ellations
reply
procession
affection
aeronaut
trumpet
efficiently
istan
rall
vishn
crem
romeo
progressed
##ihad
pau
rfc
wyn
##mia
ads
trades
verlag
defects
pneumonia
spectroscopy
raleigh
##etown
unitary
nasal
pronouns
jubile
##oire
##35
presumed
johan
invaders
specialty
secretariat
mccart
principally
tomatoes
upp
##cut
##mb
##strom
##aye
##onyms
girlfriend
consolidation
appalachian
saus
##entz
refract
redisc
##afa
penny
reactive
scenario
concurrently
nod
itv
arises
aires
oceania
premises
vocational
motorway
sympath
espn
tiberius
martinez
##opian
suits
violated
progression
invasions
solidarity
beginnings
pest
poker
##atan
##acies
planc
provence
presenter
popularly
labs
racist
tablets
sponsors
raven
deutsche
dixon
rapp
yoga
##nian
professors
tariffs
renovation
hedge
io
retreated
markers
methodology
positioned
concurrent
cork
monica
aval
induce
clyde
istanbul
pept
saul
helmet
brewer
atlant
prolific
duplic
metabolic
gregorian
aet
kens
##tics
breach
blocking
ranger
uncredited
kirby
floors
sabbath
##eri
stun
##ulse
atop
novella
eponymous
donations
hydr
1785
sheridan
vegetable
proliferation
##omac
byron
avon
landslide
laureates
legitimacy
derek
wimbledon
lust
##elage
socialists
1786
coleman
mckinley
repertoire
##angu
presley
co2
dirty
reopened
forensic
##88
##olation
finale
translates
boyd
archaeologist
examine
nons
abel
iris
informally
1840s
graduating
innoc
overturn
prophecy
dive
dante
rover
##onius
##ingian
stutt
##arts
abrupt
weaker
advocacy
oblast
stretches
physiological
patricia
luftwaffe
qatar
##edience
##leigh
walks
##baum
ignor
shirt
embraced
incap
cliffs
edda
automobiles
mussolini
cil
hire
##vir
##inational
electors
accepts
lamps
pax
##uka
##cr
##jib
##erget
##gren
receivers
optic
sanders
paraly
qaeda
cbc
crossroads
480
licenses
levant
friedman
sutton
relativ
motto
##avan
impe
loops
recognizing
dunes
cocoa
flexibility
ordinance
landscapes
coconut
hank
##uto
##opus
schmidt
##plant
ceiling
checks
minimize
skeleton
exploited
pushing
rafael
raphael
iec
kara
pah
##eaux
##akov
inventory
lemon
anarchism
balkan
disposal
buchanan
nj
nike
##pole
##ilis
eras
mosquito
targeting
protectorate
mystic
schiz
sunny
325
850
riemann
flet
##pur
##static
adri
##anson
##ancies
armist
opus
brave
##iscip
puzzle
buddy
eager
psychedelic
gov
m3
buenos
215
camel
ambrose
##iasm
barton
hilbert
unfortunately
ub
##yria
##icle
isn
##yson
replica
objected
savings
branded
belarusian
odysseus
##gone
##amy
distortion
fleeing
cartridges
libret
deposit
fisheries
alchem
cus
dau
pv
guth
inception
##astrian
atten
proposes
palaces
dedication
paradigm
clinic
purported
mits
nil
underne
photons
medalists
sellers
earnings
damp
##ongs
agnes
volatile
verdi
programmer
reactors
kalam
exceeding
brutal
crosby
pasha
omar
sadd
##rina
##77
##armed
##aline
forc
joa
guilt
waterfall
justify
salon
purity
coptic
hypothetical
patriotic
expertise
deliberate
walsh
sonata
prevailing
##ographed
locomotive
wichita
##edo
shadows
estuary
biom
josef
miranda
superiority
phillip
pixel
##alle
replication
larvae
himal
objections
christine
gunpow
controllers
flooded
bernardino
##oplasm
renewal
prosperous
thessalon
hepburn
bp
##44
##enaries
##ieg
clare
outward
tragic
godzilla
destroyer
precedent
montenegro
dough
kaw
deciding
antagon
candy
celebrit
lucky
mccain
##modern
parachute
##harmonic
brunei
underneath
lau
##rice
##fest
spears
apples
taxa
ambient
jurassic
toxicity
stuttgart
bt
bates
##anu
slogan
planting
odin
carthag
nd
funny
365
chaplin
gorb
ridic
vernacular
##accur
redesign
mankind
rost
tate
##asu
shortage
please
carbonate
doctoral
ascension
bismarck
gunpowder
celebrities
inaccur
feels
noon
##look
immense
hussein
convenience
euk
tint
##aryn
wors
waterfront
lethal
royalty
liberia
1772
unders
neutrality
nanjing
bavarian
subdivisions
ecole
multimedia
reptiles
ubiquit
eh
seated
warmer
submission
namesake
nobody
puzz
individually
captures
vertices
dictator
brewery
deng
##rient
consume
quasi
livingston
dissatisf
panther
susceptible
taur
pradesh
ada
rooted
discount
##ecraft
satir
shelby
confrontation
mick
oed
##pit
##opath
seville
perl
slam
fearing
mercenaries
umbre
picnic
prophets
cull
##erun
leak
belgrade
lovecraft
revolutions
cassette
exploit
culminated
sacrifices
namibia
##hams
##pas
##itted
acorn
attained
poe
##rophe
halted
potomac
truce
inexp
incarnation
superintendent
dab
hain
mord
wade
##eous
stair
barg
irrit
garland
jackie
posthumous
densely
##taine
citadel
buckingham
diph
violet
##umi
doo
personalities
battalions
manitoba
##lli
##riac
tomor
cruiser
##controll
zambia
gale
nsa
yog
protons
halt
holders
bordering
clearing
evaluated
amplifier
persuade
jol
##kas
peac
geographically
berkshire
crazy
sinatra
stretched
antibiotics
##yen
##alt
##raf
parity
greco
starr
existential
cathode
entirety
dodgers
##say
##leading
alta
perkins
emile
devils
methane
roller
anthropologist
glacier
##park
aless
leiden
minist
telecom
treats
313
baptiste
pupil
##adder
neumann
regency
appl
commentator
mandarin
cooled
cyclic
eure
vick
##arine
recapt
regain
quote
barons
anglic
realize
affinity
coasts
santo
kaiser
vishnu
##zburg
##yah
##esque
sting
clip
transitions
musicals
ratification
tuval
reflections
adjectives
dd
yosh
##ivities
arising
alliances
challenger
##osaurus
gps
pablo
##zel
shout
undergoing
smok
kmt
##alde
cw
tres
incon
elvis
##inness
##ergic
obligation
aleks
accidental
bulletin
sinking
cannabis
bolog
eun
ery
sis
##horn
fry
spice
##ignon
polls
blend
humanist
ballad
campaigned
mighty
spectacular
paramilit
muller
kashmir
##lid
##alysis
##raid
enum
internally
##eteries
gravel
entrepreneurs
eukary
boles
hail
tb
##chat
eastward
hyde
positively
hoffman
rookie
##jiang
##orb
##iza
##actory
postmodern
realms
275
sunni
launches
promotes
cemeteries
jasper
summoned
cite
##inement
##idi
unav
##oding
elevent
magdal
steiner
birch
imperialism
commemorated
sinai
unnecessary
konst
wiley
##rise
spinal
##tenstein
linguists
emirates
inspector
toulouse
lump
##erd
socrates
##appropri
homeless
curry
futur
hubert
concentrate
motorola
pursuing
rescued
bipolar
##niz
##hin
envision
calm
issuing
northernmost
watts
dispersed
commentaries
shirley
guru
ulysses
##eg
notions
spare
parab
##adeus
mayors
##ysc
nazar
apostle
yankee
##frey
incred
teut
williamson
trotsky
hardly
darius
splitting
synthesized
aggregate
transgender
##uling
unaware
severity
teleph
##atsu
sicilian
miniature
evacuated
iliad
gorbachev
upt
##ounce
revital
finances
##quez
originates
bronx
bradford
excavated
thunderstorm
eleventh
doses
ith
##ratives
matth
investigating
interstellar
theodor
whistle
ethern
amin
upstream
reliance
howe
##manship
abbreviation
ambulance
choctaw
tomorrow
##des
##otrop
invading
bohemian
ural
##illin
agrip
aviv
downstream
##link
consistency
comparatively
neoclass
orthogonal
tad
xia
blades
postmaster
##fields
##forms
curse
witchcraft
cake
goss
jagu
vhs
##sy
pecul
modify
delight
micron
macle
tuned
quarry
vacation
trusted
bilingual
squadrons
phosphorus
leibniz
armistice
ethernet
purg
vint
##orestation
207
dob
chey
cornelius
hawth
spectators
miy
ezra
forrest
exac
hegel
boe
elijah
supervised
audition
##chet
bleeding
nasser
wrapped
ionic
beats
##uld
medina
paired
accommodation
inflammation
tt
##ulo
harlem
empower
moose
hahn
detector
dudley
magnesium
2d
kram
##27
hadrian
spans
gnu
exacerb
kass
pud
##lake
##erick
##iaz
amus
emigrated
everett
homeowner
detachment
southernmost
payload
connector
possesses
hannibal
exchanged
aphrodite
##arf
unint
suez
edit
contributor
psychologists
ventura
tonight
answered
struggling
eury
wen
##oise
highlights
stras
invar
crocod
hatch
mentor
heinlein
allocation
complementary
ecumenical
##nius
##iaries
shia
terr
pearson
hydraulic
trolley
##mium
grind
grams
defender
discoura
##erged
dependency
klan
demolition
inexpensive
##roke
##odorus
hector
energet
disco
camping
214
holstein
222
##psy
nr
plunder
facial
faust
##islav
shelf
orphan
clone
api
jealous
hanson
pietro
iro
##chool
alma
liability
southampton
cray
##ahar
humorous
robes
pathways
rumors
tapes
lid
rapt
grapes
promul
synonym
assemblies
ensured
shooter
interpreter
yeast
penalties
peculiar
a1
jokes
##33
inuit
seism
regret
##ippers
straits
strauss
rotter
brigades
goths
hippoc
sins
orator
##techn
modular
endings
couldn
##unders
gros
springer
quantitative
1782
lexical
degr
209
leigh
tricks
decatur
surin
limbs
donation
hydrocar
mortal
rebuild
constituencies
##jah
defenses
slash
slaughter
confession
khal
sandwich
tavern
patrons
libyan
quadratic
resemblance
disappro
ferrari
awa
nascar
alert
contig
relics
edith
humour
steal
torch
liturgy
mennon
##lia
##idium
meadows
presided
emigration
mythical
bahrain
voivodes
akin
kemp
reigned
overnight
rotten
1779
aeg
antiochus
siberian
brabant
calab
221
labelled
owens
##icates
##asaki
coloss
idi
titular
dissem
delivering
ding
dong
gilles
pes
##rak
sev
augmented
ethanol
premature
##azzo
df
##electric
##fle
sew
ashley
distinguishing
multiplic
disliked
lund
##irt
##akis
trout
afi
demise
terminated
restoring
galactic
ingredient
specimen
disastrous
aegean
boul
dani
spit
cols
##awat
bloch
mahar
##mington
rotary
comparisons
proportions
1660
worthy
privilege
hypotheses
jubilee
drey
subcontinent
##ups
approve
##gaard
promotional
shields
enthusiasm
superseded
eph
##lif
trench
chariot
additive
marquis
schleswig
wines
sci
##oppy
accumulation
volkswagen
##phem
##idine
maize
sno
melt
jamaican
erotic
##oglobin
poc
sach
##oso
alloy
mecca
evid
accredited
builder
guam
cyrus
dissoc
illustration
tremend
##ogical
boole
computed
het
pors
##wit
##inole
218
262
##werp
benefited
randy
klaus
obliged
unite
constants
tempt
synonymous
hazards
contraction
dirt
gwyn
tumor
abbasid
pratt
basically
lunch
spartan
##season
redund
resting
restruct
##gyz
packed
##zzy
slowed
orthodoxy
cooler
loving
plaint
styled
ought
##65
##arro
clown
filmography
edmon
smallpox
301
##letion
rupert
astur
havana
comfortable
suspicion
therapeutic
rotterdam
kad
##85
anast
##elope
scrat
locke
valencia
curtain
crowley
hardcore
hbo
dex
scyth
majesty
statutes
franchises
facilitated
inconsistent
intrinsic
amnesty
riley
thal
##idable
##assa
infilt
cald
executions
richest
commemorative
troubled
kyrgyz
kits
orang
archie
routinely
realised
burk
negatively
meaningful
##ijuana
innings
packaging
scriptures
surveyor
##ihu
relying
catalyst
devotion
nebula
cameroon
##lich
inference
wholes
##qual
scorp
repression
lasts
hydroelectric
farmland
elders
##umbered
baronet
hobby
coinage
intercourse
botswana
prover
##abia
##aston
impr
attachment
archim
cancellation
resolutions
willem
dt
hert
statehood
borne
sumerian
logging
keynes
neptune
rides
chances
loire
downward
acha
reprint
fda
dehyd
compute
##banks
pleist
monumental
ville
##stage
neon
hydrol
simplicity
inspection
lb
mumb
##jun
##chin
neal
northampton
adviser
bullets
convict
honda
gazette
disagreement
edmonton
##bys
##atum
##asta
handic
gradient
embarr
##color
daisy
##million
commodities
moldova
##ocl
##achim
actin
harriet
##itania
exhausted
rainforest
dumb
##emar
carbo
airship
storyt
protesters
ascii
bhutan
plurality
reverend
cnn
##green
detention
ghz
liberalism
##hammed
tatto
##hausen
dignity
ineffective
kepler
continents
militant
310
demonstrating
vassal
envelope
pinn
artery
adhes
alloys
twist
##headed
fy
##nard
##asium
colt
##ockets
antwerp
multinational
succeeding
vegetarian
tensor
rousse
##enny
centralized
hillary
spreads
adaptive
preparatory
franciscan
colspan
cern
fake
pestic
##itans
##entia
ley
##due
teamm
landowners
walnut
softball
virtues
proofs
kindergarten
##ococc
radial
canadians
participant
sandstone
attracts
mongols
blooms
bisc
kc
##onica
stup
promet
esther
moines
hostility
surveyed
terrace
prompting
vod
##iw
turin
neglect
observances
aerodynam
intentionally
extermin
tajikistan
embarrass
kib
kah
sine
##person
##rack
amos
twil
poit
reporters
honest
340
timor
fluids
cordoba
contiguous
pistol
##mn
disks
midlands
shipw
textbook
##lessly
opted
convened
unanimously
ransom
brooke
hostage
narratives
420
##flower
darker
mystical
beverages
dich
mug
##tures
##atta
##dering
waterway
righteous
graff
295
khz
excited
##hao
installations
mauritius
concessions
contaminated
##zhen
populace
christina
televised
sixteenth
hostilities
ferries
brandon
antibodies
piston
aper
fost
##hee
##ilius
beams
chie
##illation
##emberg
annih
romani
219
sums
##zek
cello
integrate
bedroom
clarinet
joaquin
benson
##rams
portfol
223
urging
trainer
relocation
kurdish
##games
##moor
differed
hallow
axes
wanting
evaluate
##ellus
blame
##ollah
batting
justinian
380
galicia
punished
minded
nichols
hearst
dawson
tcp
poseidon
tire
resurg
boots
maturity
juliet
hazel
jumps
korn
nia
byrd
abelian
meals
caled
##oya
##ija
##limited
rainy
loves
seventy
multiplex
surnames
penetration
metaphysics
rwanda
##hound
##itating
reset
impulse
daven
hunted
merlin
glaciers
##atchewan
##with
parc
idle
##amming
periodical
qualifying
bafta
tsun
pizza
saskatchewan
##isciplinary
rebe
##adh
forem
isis
##emer
##abi
scor
freem
lima
cyp
federally
aquit
##organic
inflammatory
propellant
glands
lily
discovering
facebook
seventeenth
accompany
brightness
gymnasium
spaniards
ginger
hath
univ
##acus
##ensburg
##henes
pencil
madame
consuming
ramon
rejects
consulting
shogun
mccartney
##lay
##anese
android
##imus
barrels
electorate
pressing
toyota
appreciation
interfere
twilight
chag
##acl
##uded
betray
constance
imam
judy
reformer
dynastic
49ers
habits
baud
sophie
omega
##oft
##mc
anjou
hepat
upward
beloved
30th
distribute
rolled
dalton
macedon
spheres
##worm
##onen
##artes
overr
loads
propose
competitor
fence
mash
afraid
##assis
persisted
##type
skirm
216
nightcl
conversations
portrays
sieg
backgrounds
warehouse
##integr
uniquely
umayyad
nico
##orra
##ionage
##phic
outsk
pauline
demonstrates
sustainability
lansing
mausole
unhappy
ect
euse
katherine
niss
pok
##21
##thal
##acion
bois
traum
electrod
examining
trafficking
gland
authoritarian
biographies
apollodorus
bambo
##dorff
degener
allah
brake
figur
strabo
##flies
nottingham
pis
tect
##oule
marches
undergone
originate
appointments
huguen
stirling
umbrella
backs
cet
dl
hr
pb
preface
subfam
valves
217
boron
casey
programmers
panzer
hopper
lorentz
algerian
iberia
crossover
neighbours
motifs
decentral
fletcher
cary
kru
zak
##hra
leeds
assured
quatern
periodically
angela
trailer
asympt
rebecca
jing
cannes
belize
depended
starch
burroughs
decomposition
cesar
rabbis
immortal
aq
sart
##hus
##staff
hermit
killings
optimization
ik
pdp
##chio
##astically
marse
braves
thirteenth
##angelo
congregational
dwelling
encompassing
auditorium
referee
planck
houghton
##olysis
agu
monoc
shortages
urb
haitian
guardians
conscription
crusader
escapes
libretto
outskirts
erod
##raged
orion
##oured
##oused
averaging
##conomic
211
hanged
evacuation
triangular
hilton
jah
organist
goose
erich
thinkers
calculating
luna
reproduce
unlimited
seating
##illary
mead
tyre
imagine
databases
folding
postponed
curvature
erupted
ike
wł
anter
##rave
itu
##kef
##ementioned
weston
equestrian
goodman
burm
wilmington
melville
convoy
repeating
cantor
dispatched
schism
goat
224
surroundings
accumulated
scrut
metamorphoses
magnificent
carbohydr
rn
interconn
gujar
solvent
lett
grazing
expresses
##forward
bologna
kart
uter
##will
afor
locate
deported
addiction
reservations
espionage
##hyde
coherent
m1
nw
zach
orwell
troll
herr
outlook
flip
homogeneous
haun
tasked
compensate
ceramic
foothills
oro
##cephal
##umont
##iak
leased
amd
marries
orthography
carlisle
hodg
scalar
tackle
##range
##orrh
clad
bred
shortest
##anoke
mutant
thoroughly
inevitable
hust
##lio
##ydon
anest
290
snap
nielsen
diane
hess
##quel
spino
intimate
weird
primetime
circulated
vulcan
exceeds
##75
##wave
##stitution
disabilities
medall
##urnal
loch
importantly
sawmill
comedies
merchandise
theodosius
eureka
aquitaine
nah
rer
##ivist
##onga
infring
guess
titans
preferences
consecrated
theoretically
chlorine
robbery
##rador
##inates
##isen
##rae
nonpro
polytechn
bergman
corpse
sociologist
overwhelmingly
thyroid
##−1
##itures
##omat
##etric
##imm
twe
illy
fascism
martyrs
reinforcements
jihad
tars
##hov
##enet
##aren
heide
pele
depths
holden
panor
cosmology
epistle
submerged
expatriates
sanche
##icom
whaling
ork
blitz
lois
shipbuilding
halluc
oversaw
gibbs
ravens
delegate
reunification
errone
slavs
eclips
pumps
##atas
fries
congestion
outright
joachim
acron
##isexual
##plan
marty
globalization
saras
nutrient
judgement
arsenic
tucson
##iu
##ilateral
exeter
aryan
usc
desires
outn
paolo
fireworks
pacif
progressively
vinyl
mvp
garnered
kubrick
hos
##cie
displaying
gospels
excavation
wurtt
linnaeus
amusement
##rights
##ighed
shade
hermes
239
deviation
vein
##ginus
brady
vertex
##occup
paragraph
adjoining
paw
##ichte
meck
protested
lightweight
trevor
narc
destroys
banana
praet
palatine
mongolian
##aru
sten
pertain
##esee
rommel
respects
strains
liquor
uncovered
rudolph
migrant
bolshev
diagonal
loki
rift
cents
bohr
interred
242
creators
misunder
mccl
medalist
tangent
russo
exponent
advertisements
aforementioned
lament
token
monitors
northward
containers
233
##yrus
celebrates
propositions
climatic
announces
ambiguity
porsche
gaps
##kowski
disintegr
philharmonic
octavian
badge
iodine
paramilitary
dice
pg
yok
heidel
schen
belmont
differentiation
propelled
takeover
rebirth
indicators
dispers
mitig
pollen
kerry
prospects
##herst
##udence
##quist
mariner
syriac
charitable
obey
convinc
doubling
pyrene
ajax
acetyl
cauchy
sanchez
##icho
geologist
swear
silesia
alberto
emphasizes
feminism
hurricanes
##smith
rousseau
apt
##yder
##adium
marvin
hohen
shoots
bengali
prejudice
##lis
pointer
monsoon
backbone
dispens
667
mandated
verdict
conjecture
descriptive
fowler
hectares
iroqu
rage
##cestershire
##icy
usb
roanoke
blaz
guinness
raises
separates
fitting
nineteen
##cd
conced
amherst
##isha
intimid
publius
euros
legions
presently
potent
madness
##forth
contrasted
ribbon
overlooking
thermodynamics
mitochondrial
foremost
##erl
##ocal
disruption
##isson
supplements
eps
##lux
recognise
bernstein
lending
##gus
##oub
adler
depleted
redist
specialists
viewer
caution
unpubl
stratford
transparency
redevelopment
agrarian
fujiwara
cheyenne
icc
##atown
repairs
radios
yorker
introductions
nava
munster
olm
packers
preserves
polynomials
dauph
wurttemberg
##rats
##inius
##adena
##illian
genoa
1300
authoritative
engineered
fermentation
crab
excludes
sickness
categorized
councillors
##oken
1650
descending
286
donor
believers
neglected
haar
casimir
1769
selen
acknowledge
aristocratic
asteroids
seldom
davenport
teaches
weaver
doyle
##ikan
villains
##ischen
lifting
weighted
sabot
rhythmic
exaggerated
recycling
ges
##oids
##daughter
##imental
marino
##hedra
suggestions
learns
##grove
maltese
antisemitism
sanctioned
spacetime
invoked
divinity
sunrise
babies
hau
mating
##pi
asimov
##ifax
outlet
##eca
reno
domes
lucia
steelers
sympathy
phoenician
stimulated
carcin
seafood
psychoanaly
pantheon
pleistocene
##ishment
clans
instinct
theorems
corrected
##utsch
flynn
colloquially
relativistic
unitarian
unequ
noel
transylvania
guern
##opsis
casa
lester
euchar
ventures
updates
prosecutor
sergei
lambda
tesla
lv
vom
##rown
bez
##ungen
##alez
hyginus
##boats
olympia
float
contradiction
sinn
yid
##ook
##zb
##28
postage
rosem
elevations
admiralty
##elan
calibr
showc
borg
huxley
##rochem
reefs
supervisor
mourning
bax
##mand
##acao
speculative
234
paulo
hitt
talents
concluding
worshipped
janeiro
affordable
enthusiastic
burmese
bb
##omers
flats
landings
favourable
custer
mercer
##iatus
vigil
metaphysical
tuvalu
achaemen
unpublished
jag
jelly
##page
##rax
##aires
231
legislator
rowing
columnist
disagreed
locomotives
vilnius
disadvantage
nij
##like
##hole
reel
conan
evelyn
minus
skysc
chestnut
sta
unac
##ainted
afb
scrap
boyle
##ugu
modernization
##otti
appoints
packets
fueled
coincided
incompatible
boniface
sights
##igured
beir
##acio
1400
227
lowlands
410
efficacy
elevator
abolitionist
frustrated
hc
kdot
lance
tau
##inence
trait
elong
lao
blackwell
liberated
excit
sensation
protects
announcing
ucla
bamboo
kak
kyle
##ombe
##opathy
chis
chun
underway
preacher
duel
urdu
occupations
bonn
touched
analyze
nitrate
strengthening
bordeaux
voivodeship
bays
alve
trillion
palae
##iosis
lyons
rogue
jerseys
intentional
glyc
cerebral
jewelry
bisexual
ours
wig
xin
##tel
##arios
verified
seminole
cdc
peacekeeping
destroyers
subsets
faber
pools
heidelberg
gadd
##eria
##assus
upheld
eminent
milky
justices
430
glasses
hindus
subsidies
unreli
hormones
traverse
transistors
farewell
desperate
yun
##uce
##street
beech
overland
everybody
courty
motions
practicing
sentin
intervene
ornith
impedance
cess
kul
##tland
inlet
##ulose
chil
comets
contempt
scanning
parma
obes
differentiate
halifax
duch
putin
##author
bombings
battleship
pledged
rains
##eros
##olian
inca
resides
mare
overc
discarded
jewell
395
browns
conflicting
abdullah
heterosexual
cate
gb
yacht
##pard
preview
collisions
rods
hatred
rockef
nominally
vog
woll
##game
##wat
fright
##tley
bede
siem
xxx
gonzalez
seleucid
schizoph
foul
##26
compose
sheikh
airing
##uca
argonaut
turtles
macon
cao
randall
rodgers
lich
pile
##tail
inorganic
compelled
intrig
brib
provoked
mainz
handles
arrays
champagne
diplomats
owl
conscience
ambassadors
benedictine
wittgen
confronted
microscope
##nis
##enden
barley
programmed
diagrams
cortes
configurations
unconstitution
recursive
shipwre
eust
rb
##uo
##ayev
canvas
peat
visions
##forcing
rigorous
expectation
bryant
authenticity
##vana
##icit
sticks
##phs
##enness
psal
1762
collaborative
dinosaurs
fibre
stranded
volcanoes
kaufman
byrne
##orc
upright
mutiny
manifold
assigns
alkali
tightly
chevro
envisioned
gug
gaut
inappropri
magna
characterization
438
1768
responding
marxism
lionel
overlapping
aero
cip
lj
naur
##hou
##eses
##etto
##ongo
charm
backwards
diacrit
alphab
yielded
shrink
subscription
ponds
oscillator
cretaceous
coul
vaugh
##drop
##whe
##urus
abort
mediated
mined
inversion
mounting
narrated
psycho
premise
lup
och
pug
verg
arcadia
##agonal
assessed
nue
tand
attach
slim
descartes
cope
steppe
dissert
1760
conferred
expenditures
yukon
neoclassical
schizophren
kv
worried
##pha
mega
303
evenly
264
##panze
causal
amounted
1758
owed
ruskin
scarc
posterior
eurasian
domesticated
reminiscent
dread
gior
kron
alley
265
connot
commercials
graphite
contrasts
tempo
chimpanze
clauses
remembr
##odor
smell
austen
medicinal
sediments
quotient
niece
rockefeller
uae
##jour
thrace
##ivation
repar
constable
constructions
erad
sweep
ridges
pilgrims
hausdorff
haf
##haven
##ædia
coaching
mohammed
##shi
halfway
obstacles
evolve
microscopic
mercedes
obesity
##list
##gage
seine
blaine
305
administrators
kitty
pontiac
mausoleum
##aul
arter
##oreg
##orean
perme
peoria
##beat
columbian
hydrox
boycott
relieve
jorge
wittgenstein
zomb
##iates
##29
##jon
##alese
constellations
demetr
esot
builds
haute
cups
hannah
eurip
giles
##enheimer
hegem
workplace
insurre
auguste
carlton
utilize
ipv
chalk
pillars
inverte
insertion
seizure
fs
mpeg
zoned
##makers
schl
evergreen
latitudes
237
garage
garrett
512
thinks
stereo
hierarchical
fuselage
extrater
evidenced
mumbai
hiring
mest
##39
signatures
midland
analyst
traveller
mistakes
benny
gentleman
expenditure
mycen
eck
##uve
##bie
##aval
##asha
oils
##ommission
pulmon
hybrids
dartmouth
guthrie
dreyfus
beirut
##herty
canary
gerry
labrador
vulgar
grossed
biden
voltaire
vintage
algon
endow
##aiman
composing
textual
sequels
abuses
afterlife
boiled
assyria
grouping
249
##ijn
1648
shoreline
dmit
pang
staging
stagn
emi
patton
285
logos
torque
josephus
1773
niche
illustrate
barbar
cascade
trajectory
sings
##vine
spices
outpost
basement
systematically
milestone
fourteenth
ephes
visibility
racer
revolutionaries
torres
conquests
1603
##hrer
consultant
dwarfs
##rahim
murdoch
ngu
##ugh
inh
neh
##uben
serbs
heresy
infamous
##azoo
freeze
initiate
plea
playwrights
memorable
fundamentally
ump
reint
##aday
##idas
shun
click
newborn
##acker
coh
quinn
refurb
barrett
diffraction
reigning
colonialism
1765
prostit
nikolai
nf
##iris
prisons
clut
commence
supplying
drastically
440
behave
fundra
jacket
dictionaries
mackenzie
bundes
retaliation
adhere
resent
intermitt
226
grab
specialised
##orphism
abstraction
neurosc
marrying
##film
faw
##cian
shy
rox
carmen
##aird
empir
diaries
spray
intercity
kidnapped
bahaʼi
dundee
hailed
##fin
##iferous
inclined
shack
resume
##fulness
fairfax
margins
portraying
deteriorated
unse
atroc
offence
predator
specifies
experimentation
claire
##ophyll
embrace
##inaw
rector
shab
##ritis
carac
impart
287
instrumentation
experimented
elephants
disestablish
h2
wiki
##gae
##court
##sohn
colts
noct
charging
##yss
persona
281
##ethyl
baptized
seller
##ocytes
inauguration
gaussian
dz
kob
deacon
heap
adel
schul
belts
peterson
chooses
doubts
giac
##rophys
obviously
fused
ned
##iav
##asion
alarm
##abs
##activity
##athlon
offs
implying
endurance
##iewicz
##bye
icons
metallica
threads
dexter
yiddish
##lides
framed
##andra
huns
##liner
petr
talbot
qualification
ambitions
dile
ode
sik
flames
initiation
##uckle
witches
selecting
ptolema
bs
pomp
##bas
##hele
##atter
deed
neville
##illas
squee
shoulders
masks
otter
scarce
bloomington
blessing
hardcover
vascular
inmates
ascent
##idus
litt
morale
talented
shelley
thornton
chevrolet
kaf
sewer
exits
imposing
##planes
rails
graft
833
commemorating
escaping
adjustment
pasht
incorrectly
wired
chords
eli
##queous
improper
lancash
tonga
transmitting
cory
chern
nave
pess
##vation
expired
revisions
stephan
header
##coe
winding
costello
docks
douglass
sponsorship
interventions
lancashire
lava
x86
prok
prod
edmond
menu
takeoff
##lessness
campaigning
splend
recovering
rhythms
##asmus
schneider
kensington
bount
ips
##isitions
stub
manually
coated
blown
bucks
monty
##ysław
1100
recipes
encyclopædia
plutonium
##cu
##uti
##ellas
southward
midi
midst
factbook
paler
collier
cannons
bowls
##colo
supplemented
coincide
pillar
vertebrates
pins
heal
##ibi
thriving
defences
barred
241
278
malawi
oxides
lowering
slovene
satisfaction
lm
##kok
toile
ames
##ellan
slate
annals
supportive
##tti
lawsuits
ibrahim
maximus
falc
banning
aliens
slovenian
##atius
andr
##ogo
spurs
decommission
generous
woodstock
alexandre
disagree
nonprofit
paz
pants
##lenburg
##bh
##stick
distinctions
systemic
cores
##shaw
jeanne
broncos
byzantines
rugged
cadet
dissolve
sorts
staun
##pered
equino
alba
painful
coventry
tapest
pulling
##ku
##arat
abdom
info
starvation
standardization
israelites
magnolia
whitman
bosnian
commemoration
picasso
irrational
chieft
eigen
f1
fiat
hats
ks
tides
##arum
##omial
stakes
##acity
##igne
upwards
obsess
masterpiece
michelle
cunningham
h2o
nok
sip
yus
twinned
##berto
##obile
measurable
##udeau
galact
unemployed
podcast
prehistory
fontaine
crystalline
wander
stained
directive
sapph
epithet
vy
##enb
##ivo
chast
heis
redempt
patches
godel
transferring
taipei
1640
shirts
autobiographical
bery
dill
wies
##ioc
##atric
##ombo
##igny
recomb
relinqu
##cula
conditioning
rejecting
heming
meso
lindsay
consulted
heidegger
kier
##wear
ther
##entine
fric
##gev
indoch
geographer
nowhere
australians
weekday
583
hubble
straightforward
scarlet
a4
dn
##pse
##onies
##atia
ate
sermon
deforestation
liner
##atorium
##riot
213
goldman
inventors
radicals
dalmat
priesthood
navigator
deprived
affiliates
remembrance
hid
pn
##68
##entin
##ethe
asean
##oting
hera
251
##ammed
brewing
nos
##oit
##wed
##orse
metz
emm
generalization
917
undes
checked
coffin
carniv
bian
fcc
tired
stays
##ibo
maver
##neg
epa
seminal
corrections
memorials
crimean
clarks
nerves
chinatown
nathaniel
##leys
shame
bloss
stranger
broadcasters
##zzi
083
##franch
reorganized
diodorus
akkadian
inclusive
tremendous
eusebius
##kill
##making
##pop
charism
quas
helios
brev
390
haem
##flight
hydroxide
##hran
orbiter
gymnastics
clifton
sewage
aqueous
m4
##late
fresco
heracl
mets
1550
fairbanks
observance
cartesian
happening
1714
spirituality
beetle
feasible
confiscated
northumbria
energetic
demetrius
attic
##luent
ordn
tailed
aesthetics
retrospective
ministries
wien
##asters
disarm
##onda
translators
kenny
complaint
##beth
##jord
forge
##utable
suz
mcn
sequential
correspondent
merging
alec
burgess
##viks
ghosts
cryptography
heavenly
syllab
sardinian
repetition
disguised
mecklenburg
unconstitutional
biss
vort
−1
##uper
##bag
##imi
deco
immin
##plays
bounds
deadline
pierrot
infinitely
niagara
##itat
spars
peach
herd
245
builders
granddaughter
cosmos
bahamas
iconography
mansfield
insignia
##bern
serie
herz
coating
floppy
batch
23rd
candle
angelo
ladder
negotiation
cultivars
turbines
wolver
outlaw
melodic
abdominal
fredd
choral
shrim
##ibar
##rition
manning
twain
##sha
noticeable
euripides
##itud
nevis
compart
famed
##uga
##itsch
308
combin
firefight
mosques
cinematic
1740
ducks
michelangelo
homeric
skeptical
jessica
leng
mapped
##rio
forerun
elites
243
backl
401
argentinian
substituted
pledge
smuggling
forcibly
##itations
peab
porto
duct
ruin
nucleot
rotational
##rosse
heroin
oversight
crucif
vaude
template
##atlantic
appendix
lakers
piers
yi
##vy
##bred
##oran
##elo
##acons
seag
preaching
stealing
greenville
ballots
bulb
harvested
1764
conductivity
pedal
matthews
orchard
nouve
navajo
oecd
vivid
##alk
##ilic
arrests
osce
messiah
acidic
aiming
phonology
prostitution
dopamine
teutonic
sands
vain
remod
hinder
athenians
inertial
##ozoic
anterior
gett
nuns
rak
##gary
##hma
##itting
reinc
sofia
revis
breth
uranus
406
327
355
madonna
polygon
1771
utc
contacted
pigment
cheng
pyrenees
achaemenid
vander
##hir
##yne
##pu
##aski
seward
##este
##illac
##ansk
antique
locality
mccle
taun
1755
marshes
regeneration
commutative
jiang
##rance
progen
leuk
afc
para
evan
blizz
subun
tracts
harness
raided
honol
martian
mcfar
strained
clarendon
wears
##dioc
decorations
polynesian
epistemology
##cape
##ilyn
proxy
transatlantic
archdioc
304
voic
707
wrath
terrorists
vertically
hammers
frisian
nts
ux
assists
quo
testified
textbooks
hawkins
##iterated
aquarium
announcer
reintrodu
caffe
pann
##icillin
schooling
avengers
copp
stockton
mitch
picking
rumours
fulfilled
evolving
aeneas
hiatus
regimes
244
prototypes
##ossa
hungar
practised
transcript
paleont
weighing
pigeon
eritrea
graffiti
portfolio
mould
##ameral
##igue
trudeau
canber
desk
outrage
maybe
idf
discretion
229
billed
assassin
prostate
workshops
perez
inflicted
hutchinson
lom
##zt
##heviks
##atist
demo
antim
306
##olester
dramas
konstant
honolulu
kiel
isomorphic
peir
##otho
els
##ashing
duff
sounding
bulld
karachi
screenwriters
maximal
sensing
axel
liech
danes
pedest
orbiting
morphological
lankan
psychiatrist
pengu
brethren
gis
miz
##chwitz
chatham
chassis
clade
##tenberg
elias
concub
mohammad
analysts
protestantism
prescott
bertrand
lonely
supervisors
tuscany
adulthood
recruitment
societal
perceptions
invariant
crucifix
tires
##oum
##ounding
teresa
romanesque
sinus
advocating
climax
unfair
1707
metallurg
pistols
syndicated
capsule
polymers
aperture
peabody
dus
qi
##aras
rework
##oped
shaf
##keep
bricks
calais
greet
barrow
insol
explores
libel
tobago
strokes
quintet
fonts
mclean
unreliable
woo
stunt
washed
##avers
plaus
herbs
subj
drif
osaka
exclude
repaired
fum
nipp
evap
##tender
228
munitions
cardiov
tails
berger
fishermen
microprocessor
penguins
cardiovascular
lr
##vest
##34
##waters
##atal
##aret
##ovis
twisted
blanche
mayo
mafia
oppression
whitt
hemingway
zel
##elier
##phalia
serra
accol
replaces
404
##oxy
321
mcdon
ordination
laborers
subsistence
altitudes
murderer
conductors
cousins
##boxyl
kabbal
knocked
embryo
disappearance
harassment
turkmenistan
tigr
##rino
##hot
##enst
##owitz
projections
comply
repos
paraph
operative
mathew
254
##rique
heli
firearm
reasonably
dunn
lasers
uniformly
1759
utilizing
supernova
##bent
incurs
reputed
1620
northumberland
winnipe
recommends
promptly
authentication
prefixes
cylindrical
frazer
bau
banc
ner
sams
##orth
##ipus
##bergh
roe
##linear
640
burbank
ruined
investor
miracles
mcgovern
##pherson
disappointed
##ograms
uninhab
boolean
liechtenstein
jake
samm
za
##croft
thief
##ribe
skier
266
501
acquaint
compares
impacted
jeremiah
jumper
dada
gers
##iem
##a1
shire
##osta
sof
##airn
detached
academia
promoter
heinz
neurological
pomerania
bans
fins
tess
##mount
##chlor
indict
##ondheim
fein
drilling
salaries
261
treb
axe
cruisers
1715
mentally
jamestown
concealed
harvesting
halloween
gund
##onder
sext
trenton
clashes
phyt
objection
saunders
386
saxophon
1642
expeditionary
marlborough
rabbinic
subscribers
canberra
nib
roster
vale
##acchar
parthen
relational
wouldn
##vester
tops
creativity
cockpit
tacitus
bret
##ellate
discont
coerc
247
saline
etienne
talked
ceramics
ithaca
guten
##ayas
basins
implements
skip
vega
##atti
yourself
inherently
recruits
shocked
membranes
jakob
nacional
iroquois
##abo
disj
bliss
253
wilkes
velvet
coward
##aloosa
caesare
vaginal
saladin
inappropriate
winnipeg
aac
bw
pind
tutor
##alities
##inging
orp
hadith
usher
##assi
disreg
playhouse
solitary
modernism
hostages
covert
clearance
##steen
transforms
truths
gymnast
overthrown
assertion
dorset
prometheus
resurgence
rast
##arbon
##otics
##opf
corona
litigation
titanium
goldwater
faul
cyclops
stimulus
pontific
baths
cumulative
wizards
lauder
incentives
igor
mies
wim
##leaf
spouse
weighed
revive
24th
##aneously
routed
caste
snyder
exceptionally
1688
migrate
correlated
gastro
fortunes
moth
pending
wn
##gars
##heet
enigma
##veloped
vald
goldberg
ensued
frogs
dismissal
auschwitz
##zanne
caldwell
##sim
neopl
coler
indul
phi
melodies
fifteenth
shareholders
joints
emphasizing
ascribed
ccp
awakening
gus
o2
shining
##awak
obit
harps
residue
federalist
pasadena
redesigned
mounds
##las
unim
arches
##ondition
##ailable
maure
designations
propeller
grocery
regulating
suffers
buffy
cheshire
gentlemen
yuri
trams
mangan
engel
guilla
visa
asthma
fermi
470
freedoms
mercia
analyzing
cholera
ordnance
##upe
##fat
##antz
genital
parac
discern
perfection
committing
bombed
##hetto
jesuits
drying
1689
dysfunction
bantu
zoroastrian
imminent
gins
##uaries
##giving
##kw
tope
ench
airbus
252
freestyle
269
berth
embar
jacqu
bonnie
##iformes
saxophone
1766
angered
annotated
fuk
lanth
tug
##cas
andes
##letal
whigs
##ichy
allot
avery
refr
illumin
observes
##oelectric
nestor
advertisement
rodeo
pits
##jana
##itively
norris
corrosion
residual
288
pasteur
groves
chloropl
dioclet
transcendental
##kirk
lama
isbn
fringe
compton
piracy
hierogly
beaufort
nigel
apocalypse
fraternity
glorious
limitation
turmo
encourages
fragile
stimulation
electrode
orkney
schizophrenia
nouveau
a2
##fighter
alain
##alli
adver
##onders
retiring
puritan
recognizable
##cault
pentagon
amphithe
undertake
fresnel
lille
##oese
##mos
##ilon
deception
scler
terre
domingo
chronological
responds
authorship
enclosure
buttons
cigarette
perceive
nails
vested
##wold
ants
##andan
deutsch
neop
contention
disrupted
safer
whitehead
tito
scientology
huyg
##anoi
vaccines
suspicious
disestablishments
jal
tuls
vague
##yar
##atos
##icist
##avi
seroton
upst
runoff
##ophones
22nd
needing
donna
croydon
tarn
425
industrialization
563
imagined
##bellum
inverted
encrypt
robbins
lore
nude
rita
##onus
##esi
##rox
wills
crises
operatic
antagonist
40th
##ungs
lincolnshire
moderately
##points
teenager
colloquial
aeneid
pembroke
alessandro
dissertation
pulmonary
tull
##ersonic
urbanization
distinguishes
rebellions
amplifiers
marquette
interacting
supplier
instructor
jop
tile
vr
##cam
##zko
##mings
##95
##itical
fors
clive
marius
weaving
##ricate
westphalia
##yler
duet
chemically
millennia
lacrosse
reciprocal
eruptions
guernsey
vind
wett
##grav
##yb
##alone
perimeter
intol
reggae
depressed
##ammer
##pleas
groundwater
carolingian
reliably
adultery
spawned
eud
thuring
tristan
sco
boar
##iencies
tomas
microorgan
520
teller
byzantium
essayist
hepatitis
dilem
brett
gou
kro
forged
322
possessing
satisfies
##urbation
suriname
gutenberg
diocletian
bly
himm
##ikers
realizing
292
##omsky
improvised
payne
captains
extremes
cowboy
seizures
xerox
convincing
turmoil
jian
pets
##opt
amadeus
246
glor
236
bottles
harrisburg
anchored
reorganization
dolphin
intuition
strasbourg
kras
picks
##iq
anomal
##uran
onion
##geons
defer
##ibles
termination
designate
284
garn
coded
dressing
leopard
listeners
andersen
ptolemaic
lend
oph
##irs
weiss
betting
relev
romero
galen
acquisitions
sails
1752
advisors
navigable
nirvana
innocence
bolshevik
baxter
kann
xp
##avid
mang
outc
lax
telephones
runways
unionist
##shima
prevailed
garbage
revolts
treasures
yielding
prescription
reservoirs
cv
etern
hing
ppp
wield
zig
##rically
##yu
##bial
incub
spurred
syrup
evapor
opel
coupling
horsesh
panthers
siemens
insurrection
archdiocese
hanna
pines
##quith
cohes
quake
waist
tendencies
bibliothe
dangers
clockwise
voyages
resembled
ostens
perpetual
transmissions
tungsten
fah
jinn
kush
##lift
parental
subclass
entang
royalist
woodward
qualifications
microphone
5000
mathematically
contrasting
procedural
1713
faculties
dirac
jamie
borrowing
ceasefire
reincarn
topeka
bum
ej
rama
ure
##wright
##just
toss
asquith
chomsky
schum
##inald
persist
calgary
248
multic
temperament
forested
misleading
sprinter
paleolithic
tortured
miscell
wład
mesoamer
spies
spill
marilyn
grief
archived
squir
higgins
405
queue
macos
460
sprint
ricardo
assimilation
bgcolor
fay
##alp
##ivated
asi
almond
impract
transverse
##teness
edible
investigators
dietrich
remnant
relieved
puzzles
pedi
rath
risc
xian
zoning
##rast
##idic
beacon
##berries
##iele
repuls
cyc
veins
##islaus
comeback
questioning
circumc
viceroy
anglia
fonda
hards
sous
zw
cholester
overd
schwe
##onshire
batter
323
##glomer
sorting
touchdowns
hulk
elegant
premiership
ij
##comb
##zac
##atonic
seoul
spoon
indices
slay
localized
brakes
bali
debug
galv
1754
divergence
pumping
astrology
eurasia
pulses
dismantled
extraterrestrial
anonym
##ouin
##adan
suck
pricing
##allah
expose
wherever
##llan
##undi
certainty
liquids
##uchi
exploits
inhibitors
restructuring
gaddafi
huygens
##awar
mupp
merry
eta
participates
bono
travis
bunker
spokesman
bartholome
kj
lace
tips
yen
##bium
tec
remed
barks
##meer
312
journeys
recalls
upgrades
euclid
ether
zulu
##erius
##onte
##ignment
monmouth
parkinson
steering
epile
screenplays
1540
embodied
fernandez
discouraged
bows
cows
##anity
ono
congen
##qua
brenn
dementia
matte
positioning
casp
shaping
travellers
orbitals
bags
##wski
guarantees
foucault
acronym
pisa
##isto
enrich
contests
apology
saff
cults
motives
337
384
screened
stephenson
ignore
defendants
unanimous
##itudinal
xion
zed
##enko
sts
unm
chili
schuster
presiding
##olla
gertr
visually
natur
##letic
preca
medicare
odo
graphs
tripoli
welding
bolesław
peirce
cah
reele
##ulence
fractions
##abar
##about
reginald
betr
imitation
258
##afe
crossings
bombay
noteworthy
saturated
antiquities
teenagers
vaudeville
gs
homin
charters
armament
origen
limerick
stephens
##marine
osborne
##flix
1757
accomplishments
bureaucracy
refriger
dade
eut
##isal
257
juno
primord
probabilities
huff
fashioned
gentry
margrave
consultation
hobart
illuminated
mab
oe
unauthor
grund
bok
coel
delphi
wallach
montp
eaton
culinary
wicked
interdisciplinary
##children
catastrophic
atlantis
władysław
bing
fats
poult
primes
neph
outf
addison
elves
retention
classifications
finch
sonny
335
micros
touching
polarized
sigma
gesture
parasites
##igraphy
bhar
ls
##37
##omas
##amel
##emes
overtime
monkeys
##loaded
astrophys
woodlands
festivities
binomial
greyhound
rashid
eroded
ghetto
##100
exert
##ovia
pep
##pler
biotechnology
raiding
silica
transporting
diem
ensures
retailers
sok
##chon
##esta
acton
weed
monoch
commando
industrialist
coldest
penetrate
archeological
summarized
exemplified
rhyme
priory
nissan
guillaume
##top
##arse
thou
unaff
schw
bucc
##ussy
limburg
palo
267
melanch
commenting
constituents
vaccination
nsw
relevance
cin
allison
##actor
1710
waterford
borneo
palms
garlic
removes
nichol
collaborators
reverted
coyote
multiplayer
hassan
avalanche
cinn
vh
##nus
##church
unb
phased
childb
309
differentiated
263
reductions
commitments
electrically
transforming
decrees
chronicler
kahn
randomly
checking
honoured
telescopes
saginaw
ios
lds
nantes
##fal
adren
junta
argos
exploded
negotiating
renters
suppliers
sesame
cuc
plo
usable
##pta
##ubner
quaker
crt
josephine
proposing
ascend
illegally
hendrix
segregated
dixie
dots
##illand
endless
guan
##ikos
sorted
scenarios
jakarta
proponent
unexpectedly
theresa
##arcer
dele
##akin
tramp
twitter
slots
classify
militar
##talk
netflix
irrad
cephal
315
encirc
directional
1685
cognition
manchu
pamphlet
xl
##dm
##200
##ðr
thrac
##illi
herds
1610
##oidal
purchases
720
rushed
microscopy
thunderstorms
caut
kling
##tze
##cile
##eni
ingen
prelude
trajan
helpful
356
conservatism
documentaries
##ushi
assisting
injuring
lavish
amphibious
muscular
hawthorne
luth
##rar
##hoff
##see
boise
coke
qui
magician
##chner
angu
biot
papyrus
microbi
ambush
splits
vibration
enriched
nautical
redemption
bite
uy
uf
##hop
incarcer
grig
severus
esa
postseason
affirmed
animator
polyg
chaired
1767
hypert
lecturer
hurd
dinosaur
isabel
kramer
hegemony
indochina
kut
##67
##itored
##olon
befri
sufi
aromatic
trich
burgh
317
woodrow
requesting
bolsheviks
kalamazoo
saddam
##zies
##87
##ionic
##leader
##inals
transplant
buchar
belly
trader
receip
273
##namara
##ascript
beatrice
admiration
gambia
disappointment
insurgency
schwart
refres
barre
##ashtra
lowland
macbeth
contributors
fuzzy
ionization
sulph
sedimentary
archimedes
palermo
zir
chairs
resin
newcom
bladder
expo
handball
biased
residency
319
analogue
pleased
540
##backer
equivalently
cyclone
chromium
anarchists
faults
hypothesized
condensed
nguyen
sich
##buro
anode
unr
arteries
##othic
quir
severed
431
950
dickinson
ravenna
tornadoes
manchuria
tulsa
cholesterol
hanoi
##chie
recipe
##nev
classroom
humil
benin
385
calculator
##space
bicycles
hungarians
kem
kov
nud
archibald
moravia
bodily
271
272
rotate
chaotic
tyrann
##assee
oedipus
##fleet
fanny
##fires
##ioni
reeves
##ouss
1720
##ribution
showcase
##otta
citation
nicot
##opolitan
cambodian
kathleen
fatalities
dionysius
drowned
kuro
##lords
##bies
anab
##lew
storing
ismail
chico
feeds
offences
##umba
charlton
massacres
advisers
voluntarily
haley
plagued
potsdam
bucharest
cen
##uke
tosh
##ouncing
ching
##aghan
annul
keel
openings
clever
354
##anooga
495
914
727
confederates
1649
naive
multiplied
1745
zhu
##oplankton
rutgers
unwanted
disagreements
reversal
relaxed
suspects
gettys
sime
tn
rebrand
comte
spru
monitored
##ahon
spaceflight
denying
croix
huang
beatty
satisfying
jumped
bundle
moody
scept
##rama
forks
##utations
##ubar
filing
##iera
##cession
austron
viscos
palau
afrika
verification
improves
haul
ambition
##alypt
mp3
valentine
fluctuations
courtyard
nehru
##nor
aria
##dup
pha
endoc
lineages
irred
librarian
winfield
vera
copern
secretaries
directorate
repeal
1644
##osterone
amphibians
gild
##db
reestab
##etermin
helix
268
279
paula
##valier
lucrative
baptists
jenny
eucalypt
beverage
congru
triangles
chattanooga
unavailable
unaccept
baked
laus
wren
##yang
spaced
milford
valence
##fordshire
283
walled
banquet
reconstruct
disguise
##ulatory
carrie
militias
cato
richland
legislatures
letterman
sells
1683
agreeing
quotation
impaired
pivotal
outnumbered
kell
##leased
stoch
##idy
tehran
warlord
##issible
modelled
revue
gloria
detained
357
mcnamara
reviewers
prag
coolidge
kidnapping
indefinitely
artef
apex
uphold
fn
lute
taw
prism
##asser
grate
willy
psychic
packing
##ydd
clerical
gottfried
conjugate
thermodynamic
pious
##hild
##jani
##unn
##agram
ballads
conservatory
tracked
saxe
doris
solemn
compilers
alterations
enthusiasts
##hamshire
fencing
gc
##iators
##qi
##alom
##tech
##ahaw
##ographs
volga
faraday
##archy
314
donkey
executing
manson
hellenic
ordinances
imprint
schwartz
jans
##ilies
##rost
dekal
indigo
slain
markings
299
punic
guarded
777
1630
neurotrans
willingness
mistakenly
elo
puck
zhao
##nir
##owe
marlow
knots
seth
demille
458
audi
threaten
bernou
transmitters
kissinger
psychiatry
beckett
skepticism
scrolls
eunuch
##uber
##oufl
##olle
isomorphism
leuc
dracula
affluent
leftist
waltz
sequencing
411
pathology
coval
bishopric
stanza
repeats
heroine
737
noblewoman
unfav
earnest
ryu
discharged
compassion
ubiquitous
primordial
##lach
thwart
unsc
arund
##aggio
##arya
spam
gras
feyn
depress
appealing
drafts
pali
bestowed
purana
paine
functioned
sexes
reformers
seaside
rhodesia
nicaragu
assimilated
disturbed
jaguar
##hovah
aal
cush
hicks
pim
tyson
##icious
##igon
##illus
grasp
dungeons
aeros
hemp
soda
clergyman
pixels
druze
apprentice
dekalb
dad
##los
reappe
stokes
perennial
genitive
redwood
100th
jehovah
businessmen
inns
lydia
001
sulfate
inquisition
procure
appreciated
implicated
disturbances
##rochemical
fury
ols
##94
beads
unle
##acom
##agle
newest
infancy
guise
demeter
dred
##cki
magister
micr
suns
integrating
##boarding
ashland
sweeping
767
##ystems
constrained
intercepted
contradictory
evaporation
##jack
chow
##estan
airs
politburo
sanitation
316
hoax
rotated
ignoring
stresses
linden
roche
gangs
feminists
forbid
huntsville
bartholomew
poultry
feynman
gim
mesh
soto
vance
##eau
##otent
whip
exerted
##uala
parades
solst
cypress
ulrich
flavour
llc
discrimin
chandra
correctional
intervened
himmler
senn
walth
##etism
heel
##idea
edo
skins
arrange
hooker
wrist
karma
electroly
530
##oulos
cpus
manners
apocry
recounts
promulgated
voiceless
joker
tilt
##rida
deleted
##ako
manned
warp
joanna
imperson
willard
shepard
camoufl
erasmus
disprop
grot
vicar
piper
hearings
stereotypes
permitting
nursery
intensified
mohamed
reinstated
bernoulli
##ushed
seph
preschool
deprec
goof
academie
venom
lyc
botany
advertised
lyrical
antennas
vandals
torpedoes
isthm
lubric
hewitt
rediscovered
fang
goring
inactive
##olese
##andi
serum
weir
caliber
26th
311
riga
collaborations
ponce
lobbying
siegfried
wt
##icher
##acan
trif
accents
weh
subtra
geo
smel
insistence
radically
fielding
bests
911
crewed
meantime
transcribed
meteorological
magistrates
plenty
caledonia
traumatic
shrimp
boll
fid
kale
lal
rye
##orously
spanned
irwin
bremen
paints
malik
violating
venge
banjo
trustee
jordanian
carpet
throws
crowded
creeks
caucasian
apocalyptic
adriatic
saxophonist
hott
##ια
withstand
##heres
##berht
indra
playable
delicate
menzies
kitts
pelag
algebras
illnesses
##ocentric
enthusiast
yangtze
inaccurate
gettysburg
nast
##53
androm
clitor
##endi
##ryn
refuel
civilisation
mustang
photographed
heavyweight
winged
ramsey
diets
1701
thorium
isaiah
hindenburg
forbade
aed
dost
lsd
mard
pell
##andum
fey
flaws
broker
purification
610
codified
royals
anthropologists
uneven
ontology
choreographer
wandering
esoteric
##uously
##jans
##acial
hezb
scors
##ologie
devote
324
priorities
476
variability
fixing
encouragement
secrecy
redskins
joplin
mers
vangu
chican
nect
brat
geologic
elf
brace
409
olaf
observable
hemoglobin
loyalists
masonic
vulnerability
ruthen
scorsese
bary
keral
##amins
##akon
shank
schoen
##heny
keeper
goe
skies
palazzo
451
297
rhone
clarity
1609
picard
##oscope
wabash
bingham
loun
zimmer
##oza
debor
exiles
spun
259
aviator
israelis
speedway
reviewer
rodney
tanker
relocate
herbiv
iteration
confidential
warnings
burkina
blizzard
viscosity
dai
liga
##sbury
##owell
scaled
smyr
currencies
277
##obar
candidacy
confirming
bolster
hansen
pigments
tactic
ribbent
laplace
loanwords
decisively
rpm
refractive
jewellery
ribbentrop
gud
mia
porph
##zza
##urers
##utta
alman
ort
carver
proves
downfall
handheld
276
davy
429
celtics
pulaski
evangelist
lagrange
dipole
sabotage
##onnes
##ande
spock
regina
distorted
quark
bela
millet
slayer
##ports
##ynchron
italia
motive
318
pitches
560
##otyp
1604
prospective
cassius
rebellious
royce
wedge
dramatist
##volent
ait
wither
##lene
beers
mae
machiav
oversh
pollut
1680
foil
morphine
accelerate
ais
##ded
##osz
orr
parano
endowed
simmons
corb
sumner
walmart
hispania
imperative
bangkok
1598
recruiting
thanksgiving
atheist
beetles
disadvantages
diphth
cg
gaw
jurg
okin
##jk
##omics
##ighton
teens
setup
supercomput
destined
musee
scholastic
344
412
cadets
entrusted
dyst
hilly
palatinate
faso
nauru
manganese
nicholson
dove
sway
suther
umar
##lot
stero
##otomy
clones
brink
##ietta
##itsu
profiles
wooded
penit
chemists
acquitted
repealed
barbarian
1492
obstacle
passionate
##querque
magistrate
fidelity
overturned
wholesale
serotonin
schumacher
sog
yas
zah
##alin
##ionics
##chis
spine
indie
meiji
blunt
anyway
restart
halle
##gnu
##asca
pragm
innate
##jevo
prohibit
stimulate
vineyard
phylogenetic
dharma
aol
hated
sigur
ull
##elves
##otov
##ulae
chit
bram
precept
flock
##loads
cripp
##anking
eastwood
347
1643
chromatic
diverted
retrieve
reichs
extracts
enjoys
vanguard
mens
niz
assemble
##ameda
graf
predicate
medicines
##hetamine
eliza
ignition
coden
negligible
lifespan
aleksand
zanz
##org
inning
##icum
toe
topp
disse
##week
crush
##ikov
goats
307
realization
allev
cinemas
laguna
doubleday
concession
exacerbated
embargo
microorganisms
0x
maw
vichy
##cell
##mere
##amem
##adle
remot
ells
confusing
2023
rests
profic
289
encro
345
blacksmith
ammonium
condemnation
carthaginian
matthias
coleridge
kerala
##sala
##acious
adi
##lander
mein
asserting
louvre
macc
##lectic
bluegrass
santos
buddhists
reacted
deterministic
vigorous
gifted
marquess
bubbles
digestive
recounted
frigate
disturbance
atrocities
cain
miff
nub
##pad
hades
populist
parod
joey
remaster
frey
drains
menace
introduct
293
294
shipyard
326
contractor
spectra
detectors
whitlam
accolades
##inium
alde
outfit
warhol
strands
instantly
eddy
commonplace
muzzle
irvine
urg
donors
mcgu
detailing
##enthal
fatigue
precedence
saddle
phillies
manipulate
beaumont
##ablanca
gujarat
invertebrates
stochastic
aesch
zeno
##phe
##onis
aren
trash
extingu
owning
##cken
heavens
curious
programmable
pathogens
oversees
reluctantly
abandonment
ornamental
durr
nug
nfc
pid
tae
xbox
##84
thereof
becker
goethe
topos
multicultural
##aldi
transports
paste
probes
likes
assistants
##iasis
1753
##icksburg
romanticism
injected
maharashtra
pragmat
yos
anoint
chak
plun
playboy
traction
password
302
graec
bering
deepest
admits
shotgun
diversified
pseudosc
1536
ninety
consolidate
heathrow
leaning
clapton
uninhabited
xiongnu
uber
##log
clover
##anski
schrod
slug
disciple
relegated
cyrill
francaise
policing
##iosity
crusades
interpreting
anarcho
bentley
##acci
jockey
marseille
ostensibly
cough
dian
fide
##mare
cancers
caret
##amped
tracing
planar
341
1820s
490
extrav
##zzar
prohibits
reprised
arbitration
conqueror
##aldehyde
daniels
tattoo
subfamily
tandem
sutherland
wad
chret
sein
sput
popper
##neur
calv
archdu
penis
miocene
reacts
1675
manifestation
alkaline
searches
daytona
incentive
uppsala
impractical
tnt
inad
##emn
plastics
incomes
accords
rockwell
fallout
1761
outputs
cooperate
reconcile
bolivar
cinematographer
mehmed
chopin
ignorance
pyl
##urf
maui
embro
platte
1665
1662
lexicon
velocities
mclaren
cigarettes
inductees
asturias
bounty
horseshoe
aix
dend
##kell
transcontinental
instig
nonlinear
cleans
circulating
frontiers
connectivity
525
poorer
tonal
binds
antibiotic
czechoslovak
practitioner
fronts
forerunner
##uru
supper
christoph
##asonic
labyr
fairs
imperfect
olga
486
ecoreg
##guer
ascetic
1661
nymph
evaluating
cognate
trigon
sacrament
reissued
examinations
tsunami
##lehem
##imated
unreal
incest
scare
centro
coats
sliding
letting
reviewing
##bonne
banach
kingship
fleetwood
shelters
1730
##proof
sylvia
alsace
stupid
deborah
pony
yong
andorra
dole
invers
##heses
drill
lawson
albu
27th
mercant
avoidance
pci
paso
phosphory
wagons
nemesis
bethlehem
cruelty
hyperbolic
eucharist
##usic
##ushing
##derland
disqual
guiding
influencing
institut
grandpar
verne
grounded
murals
praising
ensemb
williamsburg
4000
rewarded
schrodinger
bain
ramb
##inous
stature
recess
insights
salute
tenants
oneself
stimuli
migrations
neighbourhoods
intestine
ephesus
ws
##tit
toad
alameda
coex
cooke
magh
328
semif
cds
475
automation
lewes
drafting
jurispr
proceeding
1670
peloponnes
gersh
jov
##heit
prun
sermons
maas
harley
##brate
protagon
gladi
ideologies
constitutions
temperance
1667
1638
explosions
kelvin
anarchy
wyatt
router
cac
duss
keller
##zone
chino
marconi
traps
britons
rivera
wilts
reflective
explanatory
hobbes
anaheim
titanic
ditch
lok
zan
exh
canopy
colise
##aceans
mek
moors
backdrop
274
goldsmith
friar
##prints
estimation
mentioning
ghaz
safeguard
rabbits
repetitive
peanuts
psalms
caffeine
kappa
ping
yel
##acha
somehow
thank
remedy
gui
retr
##aev
##shan
horseback
813
preferring
surgeons
fresno
falkland
psychoanalysis
kipling
cact
wwe
##enheim
##regn
heather
query
broom
elton
swind
##ynski
routines
biographers
catching
sanford
specials
merrill
balancing
breakup
awk
fugitive
maldives
introductory
hots
##rium
##guns
##hai
##mlin
##isław
alz
clovis
sper
formidable
somebody
lars
highs
simulations
squat
361
governorate
lyce
equivalents
calendars
mortar
##agnetic
1748
tolerant
nurses
paganism
blowing
brutus
sarajevo
undermine
decommissioned
mcclellan
##laus
##vinsky
##produ
wharf
spacing
mahab
strick
endured
avignon
treatises
sainte
bayou
frankenstein
435
babe
trailing
gaia
##richt
wealthiest
rushing
battleships
lexic
elaborated
persecuted
kaspar
intersects
kodak
sparsely
gertrude
disproportion
hezbollah
aes
##nai
##gv
##wi
##ingale
chival
##osthenes
adolph
appet
petit
##fficiency
galway
maximize
steamboat
loyalist
barrymore
horizontally
strawberry
ejected
jensen
yoshi
##atre
butte
transient
simulated
telev
