{
  "version": "1.0",
  "truncation": {
    "direction": "Right",
    "max_length": 512,
    "strategy": "LongestFirst",
    "stride": 0
  },
  "padding": {
    "strategy": {
      "Fixed": 512
    },
    "direction": "Right",
    "pad_to_multiple_of": null,
    "pad_id": 0,
    "pad_type_id": 0,
    "pad_token": "[PAD]"
  },
  "added_tokens": [
    {
      "id": 0,
      "content": "[PAD]",
      "single_word": false,
      "lstrip": false,
      "rstrip": false,
      "normalized": false,
      "special": true
    },
    {
      "id": 1,
      "content": "[UNK]",
      "single_word": false,
      "lstrip": false,
      "rstrip": false,
      "normalized": false,
      "special": true
    },
    {
      "id": 2,
      "content": "[CLS]",
      "single_word": false,
      "lstrip": false,
      "rstrip": false,
      "normalized": false,
      "special": true
    },
    {
      "id": 3,
      "content": "[SEP]",
      "single_word": false,
      "lstrip": false,
      "rstrip": false,
      "normalized": false,
      "special": true
    },
    {
      "id": 4,
      "content": "[MASK]",
      "single_word": false,
      "lstrip": false,
      "rstrip": false,
      "normalized": false,
      "special": true
    }
  ],
  "normalizer": {
    "type": "BertNormalizer",
    "clean_text": true,
    "handle_chinese_chars": true,
    "strip_accents": null,
    "lowercase": true
  },
  "pre_tokenizer": {
    "type": "BertPreTokenizer"
  },
  "post_processor": {
    "type": "TemplateProcessing",
    "single": [
      {
        "SpecialToken": {
          "id": "[CLS]",
          "type_id": 0
        }
      },
      {
        "Sequence": {
          "id": "A",
          "type_id": 0
        }
      },
      {
        "SpecialToken": {
          "id": "[SEP]",
          "type_id": 0
        }
      }
    ],
    "pair": [
      {
        "SpecialToken": {
          "id": "[CLS]",
          "type_id": 0
        }
      },
      {
        "Sequence": {
          "id": "A",
          "type_id": 0
        }
      },
      {
        "SpecialToken": {
          "id": "[SEP]",
          "type_id": 0
        }
      },
      {
        "Sequence": {
          "id": "B",
          "type_id": 1
        }
      },
      {
        "SpecialToken": {
          "id": "[SEP]",
          "type_id": 1
        }
      }
    ],
    "special_tokens": {
      "[CLS]": {
        "id": "[CLS]",
        "ids": [
          2
        ],
        "tokens": [
          "[CLS]"
        ]
      },
      "[SEP]": {
        "id": "[SEP]",
        "ids": [
          3
        ],
        "tokens": [
          "[SEP]"
        ]
      }
    }
  },
  "decoder": {
    "type": "WordPiece",
    "prefix": "##",
    "cleanup": true
  },
  "model": {
    "type": "WordPiece",
    "unk_token": "[UNK]",
    "continuing_subword_prefix": "##",
    "max_input_chars_per_word": 100,
    "vocab": {
      "[PAD]": 0,
      "[UNK]": 1,
      "[CLS]": 2,
      "[SEP]": 3,
      "[MASK]": 4,
      "!": 5,
      "\"": 6,
      "#": 7,
      "$": 8,
      "%": 9,
      "&": 10,
      "'": 11,
      "(": 12,
      ")": 13,
      "*": 14,
      "+": 15,
      ",": 16,
      "-": 17,
      ".": 18,
      "/": 19,
      "0": 20,
      "1": 21,
      "2": 22,
      "3": 23,
      "4": 24,
      "5": 25,
      "6": 26,
      "7": 27,
      "8": 28,
      "9": 29,
      ":": 30,
      ";": 31,
      "<": 32,
      "=": 33,
      ">": 34,
      "?": 35,
      "@": 36,
      "[": 37,
      "\\": 38,
      "]": 39,
      "^": 40,
      "_": 41,
      "`": 42,
      "a": 43,
      "b": 44,
      "c": 45,
      "d": 46,
      "e": 47,
      "f": 48,
      "g": 49,
      "h": 50,
      "i": 51,
      "j": 52,
      "k": 53,
      "l": 54,
      "m": 55,
      "n": 56,
      "o": 57,
      "p": 58,
      "q": 59,
      "r": 60,
      "s": 61,
      "t": 62,
      "u": 63,
      "v": 64,
      "w": 65,
      "x": 66,
      "y": 67,
      "z": 68,
      "{": 69,
      "|": 70,
      "}": 71,
      "~": 72,
      "¡": 73,
      "¢": 74,
      "£": 75,
      "¤": 76,
      "¥": 77,
      "¦": 78,
      "§": 79,
      "¨": 80,
      "©": 81,
      "ª": 82,
      "«": 83,
      "¬": 84,
      "®": 85,
      "¯": 86,
      "°": 87,
      "±": 88,
      "²": 89,
      "³": 90,
      "´": 91,
      "µ": 92,
      "¶": 93,
      "·": 94,
      "¸": 95,
      "¹": 96,
      "º": 97,
      "»": 98,
      "¼": 99,
      "½": 100,
      "¾": 101,
      "¿": 102,
      "×": 103,
      "ß": 104,
      "æ": 105,
      "ð": 106,
      "÷": 107,
      "ø": 108,
      "þ": 109,
      "đ": 110,
      "ħ": 111,
      "ı": 112,
      "ĳ": 113,
      "ĸ": 114,
      "ł": 115,
      "ŉ": 116,
      "ŋ": 117,
      "œ": 118,
      "ŧ": 119,
      "ſ": 120,
      "ƀ": 121,
      "ƈ": 122,
      "ƌ": 123,
      "ƒ": 124,
      "ƕ": 125,
      "ƙ": 126,
      "ƚ": 127,
      "ƛ": 128,
      "ƞ": 129,
      "ƣ": 130,
      "ƥ": 131,
      "ƨ": 132,
      "ƫ": 133,
      "ƭ": 134,
      "ƴ": 135,
      "ƶ": 136,
      "ƹ": 137,
      "ƿ": 138,
      "ǀ": 139,
      "ǁ": 140,
      "ǂ": 141,
      "ǃ": 142,
      "ǆ": 143,
      "ǉ": 144,
      "ǌ": 145,
      "ǝ": 146,
      "ǥ": 147,
      "ȝ": 148,
      "ȡ": 149,
      "ȣ": 150,
      "ȥ": 151,
      "ȵ": 152,
      "ȶ": 153,
      "ȷ": 154,
      "ȸ": 155,
      "ȹ": 156,
      "ȿ": 157,
      "ɀ": 158,
      "ɂ": 159,
      "ɇ": 160,
      "ɋ": 161,
      "ɍ": 162,
      "ɏ": 163,
      "ɐ": 164,
      "ɑ": 165,
      "ɒ": 166,
      "ɓ": 167,
      "ɔ": 168,
      "ɕ": 169,
      "ɖ": 170,
      "ɗ": 171,
      "ɘ": 172,
      "ə": 173,
      "ɚ": 174,
      "ɛ": 175,
      "ɜ": 176,
      "ɝ": 177,
      "ɞ": 178,
      "ɟ": 179,
      "ɠ": 180,
      "ɡ": 181,
      "ɢ": 182,
      "ɣ": 183,
      "ɤ": 184,
      "ɥ": 185,
      "ɦ": 186,
      "ɧ": 187,
      "ɨ": 188,
      "ɩ": 189,
      "ɪ": 190,
      "ɫ": 191,
      "ɬ": 192,
      "ɭ": 193,
      "ɯ": 194,
      "ɱ": 195,
      "ɲ": 196,
      "ɳ": 197,
      "ɴ": 198,
      "ɵ": 199,
      "ɷ": 200,
      "ɸ": 201,
      "ɹ": 202,
      "ɻ": 203,
      "ɼ": 204,
      "ɽ": 205,
      "ɾ": 206,
      "ɿ": 207,
      "ʀ": 208,
      "ʁ": 209,
      "ʂ": 210,
      "ʃ": 211,
      "ʇ": 212,
      "ʈ": 213,
      "ʉ": 214,
      "ʊ": 215,
      "ʋ": 216,
      "ʌ": 217,
      "ʍ": 218,
      "ʎ": 219,
      "ʏ": 220,
      "ʐ": 221,
      "ʑ": 222,
      "ʒ": 223,
      "ʔ": 224,
      "ʕ": 225,
      "ʖ": 226,
      "ʘ": 227,
      "ʙ": 228,
      "ʚ": 229,
      "ʛ": 230,
      "ʜ": 231,
      "ʝ": 232,
      "ʞ": 233,
      "ʟ": 234,
      "ʠ": 235,
      "ʣ": 236,
      "ʤ": 237,
      "ʥ": 238,
      "ʦ": 239,
      "ʧ": 240,
      "ʨ": 241,
      "ʮ": 242,
      "ʯ": 243,
      "ʰ": 244,
      "ʱ": 245,
      "ʲ": 246,
      "ʳ": 247,
      "ʴ": 248,
      "ʵ": 249,
      "ʶ": 250,
      "ʷ": 251,
      "ʸ": 252,
      "ʹ": 253,
      "ʺ": 254,
      "ʻ": 255,
      "ʼ": 256,
      "ʽ": 257,
      "ʾ": 258,
      "ʿ": 259,
      "ˀ": 260,
      "ˁ": 261,
      "ˆ": 262,
      "ˇ": 263,
      "ˈ": 264,
      "ˉ": 265,
      "ˊ": 266,
      "ˋ": 267,
      "ˌ": 268,
      "ˎ": 269,
      "ˏ": 270,
      "ː": 271,
      "ˑ": 272,
      "˓": 273,
      "˗": 274,
      "˘": 275,
      "˙": 276,
      "˚": 277,
      "˛": 278,
      "˜": 279,
      "˞": 280,
      "ˠ": 281,
      "ˢ": 282,
      "ˣ": 283,
      "ˤ": 284,
      "˥": 285,
      "˦": 286,
      "˧": 287,
      "˩": 288,
      "˭": 289,
      "ˮ": 290,
      "˳": 291,
      "˹": 292,
      "˺": 293,
      "ͱ": 294,
      "ͺ": 295,
      "΄": 296,
      "α": 297,
      "β": 298,
      "γ": 299,
      "δ": 300,
      "ε": 301,
      "ζ": 302,
      "η": 303,
      "θ": 304,
      "ι": 305,
      "κ": 306,
      "λ": 307,
      "μ": 308,
      "ν": 309,
      "ξ": 310,
      "ο": 311,
      "π": 312,
      "ρ": 313,
      "ς": 314,
      "σ": 315,
      "τ": 316,
      "υ": 317,
      "φ": 318,
      "χ": 319,
      "ψ": 320,
      "ω": 321,
      "ϕ": 322,
      "ϙ": 323,
      "ϛ": 324,
      "ϝ": 325,
      "ϟ": 326,
      "ϡ": 327,
      "ϣ": 328,
      "ϧ": 329,
      "ϩ": 330,
      "ϫ": 331,
      "ϯ": 332,
      "ϰ": 333,
      "ϲ": 334,
      "ϵ": 335,
      "϶": 336,
      "ϸ": 337,
      "ϻ": 338,
      "а": 339,
      "б": 340,
      "в": 341,
      "г": 342,
      "д": 343,
      "е": 344,
      "ж": 345,
      "з": 346,
      "и": 347,
      "к": 348,
      "л": 349,
      "м": 350,
      "н": 351,
      "о": 352,
      "п": 353,
      "р": 354,
      "с": 355,
      "т": 356,
      "у": 357,
      "ф": 358,
      "х": 359,
      "ц": 360,
      "ч": 361,
      "ш": 362,
      "щ": 363,
      "ъ": 364,
      "ы": 365,
      "ь": 366,
      "э": 367,
      "ю": 368,
      "я": 369,
      "ђ": 370,
      "є": 371,
      "ѕ": 372,
      "і": 373,
      "ј": 374,
      "љ": 375,
      "њ": 376,
      "ћ": 377,
      "џ": 378,
      "ѡ": 379,
      "ѣ": 380,
      "ѥ": 381,
      "ѧ": 382,
      "ѩ": 383,
      "ѫ": 384,
      "ѭ": 385,
      "ѱ": 386,
      "ѳ": 387,
      "ѵ": 388,
      "ѹ": 389,
      "ѽ": 390,
      "ѿ": 391,
      "ґ": 392,
      "ғ": 393,
      "ҕ": 394,
      "ҙ": 395,
      "қ": 396,
      "ҝ": 397,
      "ң": 398,
      "ҧ": 399,
      "ҫ": 400,
      "ү": 401,
      "ұ": 402,
      "ҳ": 403,
      "ҷ": 404,
      "ҹ": 405,
      "һ": 406,
      "ӄ": 407,
      "ӈ": 408,
      "ӏ": 409,
      "ә": 410,
      "ө": 411,
      "ӷ": 412,
      "ԍ": 413,
      "ԛ": 414,
      "ԥ": 415,
      "ա": 416,
      "բ": 417,
      "գ": 418,
      "դ": 419,
      "ե": 420,
      "զ": 421,
      "է": 422,
      "ը": 423,
      "թ": 424,
      "ժ": 425,
      "ի": 426,
      "լ": 427,
      "խ": 428,
      "ծ": 429,
      "կ": 430,
      "հ": 431,
      "ղ": 432,
      "ճ": 433,
      "մ": 434,
      "յ": 435,
      "ն": 436,
      "շ": 437,
      "ո": 438,
      "չ": 439,
      "պ": 440,
      "ջ": 441,
      "ռ": 442,
      "ս": 443,
      "վ": 444,
      "տ": 445,
      "ր": 446,
      "ց": 447,
      "ւ": 448,
      "փ": 449,
      "ք": 450,
      "օ": 451,
      "ֆ": 452,
      "և": 453,
      "א": 454,
      "ב": 455,
      "ג": 456,
      "ד": 457,
      "ה": 458,
      "ו": 459,
      "ז": 460,
      "ח": 461,
      "ט": 462,
      "י": 463,
      "ך": 464,
      "כ": 465,
      "ל": 466,
      "ם": 467,
      "מ": 468,
      "ן": 469,
      "נ": 470,
      "ס": 471,
      "ע": 472,
      "ף": 473,
      "פ": 474,
      "ץ": 475,
      "צ": 476,
      "ק": 477,
      "ר": 478,
      "ש": 479,
      "ת": 480,
      "װ": 481,
      "ײ": 482,
      "׳": 483,
      "״": 484,
      "،": 485,
      "؟": 486,
      "ء": 487,
      "ا": 488,
      "ب": 489,
      "ة": 490,
      "ت": 491,
      "ث": 492,
      "ج": 493,
      "ح": 494,
      "خ": 495,
      "د": 496,
      "ذ": 497,
      "ر": 498,
      "ز": 499,
      "س": 500,
      "ش": 501,
      "ص": 502,
      "ض": 503,
      "ط": 504,
      "ظ": 505,
      "ع": 506,
      "غ": 507,
      "ؿ": 508,
      "ـ": 509,
      "ف": 510,
      "ق": 511,
      "ك": 512,
      "ل": 513,
      "م": 514,
      "ن": 515,
      "ه": 516,
      "و": 517,
      "ى": 518,
      "ي": 519,
      "٠": 520,
      "١": 521,
      "٢": 522,
      "٣": 523,
      "٤": 524,
      "٥": 525,
      "٦": 526,
      "٧": 527,
      "٨": 528,
      "٩": 529,
      "ٱ": 530,
      "ٹ": 531,
      "پ": 532,
      "ٿ": 533,
      "څ": 534,
      "چ": 535,
      "ڈ": 536,
      "ژ": 537,
      "ښ": 538,
      "ڠ": 539,
      "ک": 540,
      "ګ": 541,
      "ڬ": 542,
      "ڭ": 543,
      "گ": 544,
      "ں": 545,
      "ھ": 546,
      "ہ": 547,
      "ۇ": 548,
      "ی": 549,
      "ێ": 550,
      "ې": 551,
      "ے": 552,
      "ە": 553,
      "۞": 554,
      "۶": 555,
      "ܐ": 556,
      "ܒ": 557,
      "ܓ": 558,
      "ܕ": 559,
      "ܗ": 560,
      "ܘ": 561,
      "ܙ": 562,
      "ܚ": 563,
      "ܛ": 564,
      "ܝ": 565,
      "ܟ": 566,
      "ܠ": 567,
      "ܡ": 568,
      "ܢ": 569,
      "ܣ": 570,
      "ܥ": 571,
      "ܦ": 572,
      "ܨ": 573,
      "ܩ": 574,
      "ܪ": 575,
      "ܫ": 576,
      "ܬ": 577,
      "ݢ": 578,
      "ހ": 579,
      "ރ": 580,
      "ބ": 581,
      "ކ": 582,
      "އ": 583,
      "މ": 584,
      "ލ": 585,
      "ޏ": 586,
      "ސ": 587,
      "ޱ": 588,
      "ߊ": 589,
      "ߋ": 590,
      "ߌ": 591,
      "ߍ": 592,
      "ߎ": 593,
      "ߏ": 594,
      "ߐ": 595,
      "ߒ": 596,
      "ߓ": 597,
      "ߔ": 598,
      "ߕ": 599,
      "ߖ": 600,
      "ߗ": 601,
      "ߘ": 602,
      "ߙ": 603,
      "ߚ": 604,
      "ߛ": 605,
      "ߜ": 606,
      "ߝ": 607,
      "ߞ": 608,
      "ߟ": 609,
      "ߡ": 610,
      "ߢ": 611,
      "ߣ": 612,
      "ߤ": 613,
      "ߥ": 614,
      "ߦ": 615,
      "ߺ": 616,
      "ࠀ": 617,
      "ࠄ": 618,
      "ࠅ": 619,
      "ࠓ": 620,
      "ः": 621,
      "अ": 622,
      "आ": 623,
      "इ": 624,
      "ई": 625,
      "उ": 626,
      "ऊ": 627,
      "ऋ": 628,
      "ए": 629,
      "ओ": 630,
      "औ": 631,
      "क": 632,
      "ख": 633,
      "ग": 634,
      "घ": 635,
      "ङ": 636,
      "च": 637,
      "छ": 638,
      "ज": 639,
      "झ": 640,
      "ञ": 641,
      "ट": 642,
      "ठ": 643,
      "ड": 644,
      "ढ": 645,
      "ण": 646,
      "त": 647,
      "थ": 648,
      "द": 649,
      "ध": 650,
      "न": 651,
      "प": 652,
      "फ": 653,
      "ब": 654,
      "भ": 655,
      "म": 656,
      "य": 657,
      "र": 658,
      "ल": 659,
      "ळ": 660,
      "व": 661,
      "श": 662,
      "ष": 663,
      "स": 664,
      "ह": 665,
      "ऽ": 666,
      "ा": 667,
      "ि": 668,
      "ी": 669,
      "ॉ": 670,
      "ॊ": 671,
      "ो": 672,
      "ौ": 673,
      "ॐ": 674,
      "।": 675,
      "॥": 676,
      "०": 677,
      "१": 678,
      "२": 679,
      "३": 680,
      "६": 681,
      "ং": 682,
      "ঃ": 683,
      "অ": 684,
      "আ": 685,
      "ই": 686,
      "উ": 687,
      "এ": 688,
      "ও": 689,
      "ক": 690,
      "খ": 691,
      "গ": 692,
      "ঘ": 693,
      "ঙ": 694,
      "চ": 695,
      "ছ": 696,
      "জ": 697,
      "ঝ": 698,
      "ট": 699,
      "ড": 700,
      "ঢ": 701,
      "ণ": 702,
      "ত": 703,
      "থ": 704,
      "দ": 705,
      "ধ": 706,
      "ন": 707,
      "প": 708,
      "ব": 709,
      "ভ": 710,
      "ম": 711,
      "য": 712,
      "র": 713,
      "ল": 714,
      "শ": 715,
      "ষ": 716,
      "স": 717,
      "হ": 718,
      "া": 719,
      "ি": 720,
      "ী": 721,
      "ে": 722,
      "ৈ": 723,
      "ৎ": 724,
      "ৰ": 725,
      "ৱ": 726,
      "৳": 727,
      "ਃ": 728,
      "ਅ": 729,
      "ਆ": 730,
      "ਇ": 731,
      "ਈ": 732,
      "ਉ": 733,
      "ਊ": 734,
      "ਏ": 735,
      "ਐ": 736,
      "ਔ": 737,
      "ਕ": 738,
      "ਖ": 739,
      "ਗ": 740,
      "ਘ": 741,
      "ਙ": 742,
      "ਚ": 743,
      "ਜ": 744,
      "ਝ": 745,
      "ਞ": 746,
      "ਟ": 747,
      "ਡ": 748,
      "ਢ": 749,
      "ਣ": 750,
      "ਤ": 751,
      "ਥ": 752,
      "ਦ": 753,
      "ਧ": 754,
      "ਨ": 755,
      "ਪ": 756,
      "ਬ": 757,
      "ਭ": 758,
      "ਮ": 759,
      "ਯ": 760,
      "ਰ": 761,
      "ਲ": 762,
      "ਵ": 763,
      "ਸ": 764,
      "ਹ": 765,
      "ਾ": 766,
      "ਿ": 767,
      "ੀ": 768,
      "ੜ": 769,
      "੧": 770,
      "੨": 771,
      "ੲ": 772,
      "ੳ": 773,
      "ੴ": 774,
      "અ": 775,
      "આ": 776,
      "ઈ": 777,
      "ઉ": 778,
      "ઋ": 779,
      "ઍ": 780,
      "એ": 781,
      "ઑ": 782,
      "ક": 783,
      "ખ": 784,
      "ગ": 785,
      "ઘ": 786,
      "ઙ": 787,
      "ચ": 788,
      "છ": 789,
      "જ": 790,
      "ઞ": 791,
      "ટ": 792,
      "ઠ": 793,
      "ડ": 794,
      "ઢ": 795,
      "ણ": 796,
      "ત": 797,
      "થ": 798,
      "દ": 799,
      "ધ": 800,
      "ન": 801,
      "પ": 802,
      "ફ": 803,
      "બ": 804,
      "ભ": 805,
      "મ": 806,
      "ય": 807,
      "ર": 808,
      "લ": 809,
      "ળ": 810,
      "વ": 811,
      "શ": 812,
      "ષ": 813,
      "સ": 814,
      "હ": 815,
      "ા": 816,
      "િ": 817,
      "ી": 818,
      "ો": 819,
      "ଂ": 820,
      "ଅ": 821,
      "ଉ": 822,
      "କ": 823,
      "ଗ": 824,
      "ଜ": 825,
      "ଣ": 826,
      "ତ": 827,
      "ଧ": 828,
      "ନ": 829,
      "ପ": 830,
      "ବ": 831,
      "ମ": 832,
      "ର": 833,
      "ଶ": 834,
      "ସ": 835,
      "ା": 836,
      "ୀ": 837,
      "େ": 838,
      "ஃ": 839,
      "அ": 840,
      "ஆ": 841,
      "இ": 842,
      "உ": 843,
      "ஊ": 844,
      "எ": 845,
      "ஏ": 846,
      "ஒ": 847,
      "க": 848,
      "ங": 849,
      "ச": 850,
      "ஜ": 851,
      "ஞ": 852,
      "ட": 853,
      "ண": 854,
      "த": 855,
      "ந": 856,
      "ன": 857,
      "ப": 858,
      "ம": 859,
      "ய": 860,
      "ர": 861,
      "ற": 862,
      "ல": 863,
      "ள": 864,
      "ழ": 865,
      "வ": 866,
      "ஸ": 867,
      "ா": 868,
      "ி": 869,
      "ு": 870,
      "ூ": 871,
      "ெ": 872,
      "ே": 873,
      "ை": 874,
      "ఁ": 875,
      "ం": 876,
      "ః": 877,
      "అ": 878,
      "ఆ": 879,
      "ఇ": 880,
      "ఉ": 881,
      "ఎ": 882,
      "ఐ": 883,
      "ఔ": 884,
      "క": 885,
      "ఖ": 886,
      "గ": 887,
      "చ": 888,
      "జ": 889,
      "ఞ": 890,
      "ట": 891,
      "డ": 892,
      "ణ": 893,
      "త": 894,
      "ద": 895,
      "ధ": 896,
      "న": 897,
      "ప": 898,
      "బ": 899,
      "భ": 900,
      "మ": 901,
      "య": 902,
      "ర": 903,
      "ల": 904,
      "వ": 905,
      "శ": 906,
      "స": 907,
      "హ": 908,
      "ు": 909,
      "ూ": 910,
      "ృ": 911,
      "ౄ": 912,
      "ಂ": 913,
      "ಅ": 914,
      "ಆ": 915,
      "ಇ": 916,
      "ಈ": 917,
      "ಉ": 918,
      "ಊ": 919,
      "ಋ": 920,
      "ಎ": 921,
      "ಏ": 922,
      "ಕ": 923,
      "ಗ": 924,
      "ಙ": 925,
      "ಚ": 926,
      "ಜ": 927,
      "ಟ": 928,
      "ಠ": 929,
      "ಡ": 930,
      "ಣ": 931,
      "ತ": 932,
      "ಥ": 933,
      "ದ": 934,
      "ಧ": 935,
      "ನ": 936,
      "ಪ": 937,
      "ಬ": 938,
      "ಭ": 939,
      "ಮ": 940,
      "ಯ": 941,
      "ರ": 942,
      "ಱ": 943,
      "ಲ": 944,
      "ಳ": 945,
      "ವ": 946,
      "ಶ": 947,
      "ಷ": 948,
      "ಸ": 949,
      "ಾ": 950,
      "ು": 951,
      "ೂ": 952,
      "ೃ": 953,
      "ೕ": 954,
      "ೖ": 955,
      "ೞ": 956,
      "ೠ": 957,
      "ം": 958,
      "അ": 959,
      "ആ": 960,
      "ഇ": 961,
      "എ": 962,
      "ക": 963,
      "ഗ": 964,
      "ച": 965,
      "ട": 966,
      "ണ": 967,
      "ത": 968,
      "ദ": 969,
      "ധ": 970,
      "ന": 971,
      "ഩ": 972,
      "പ": 973,
      "ഫ": 974,
      "മ": 975,
      "യ": 976,
      "ര": 977,
      "റ": 978,
      "ല": 979,
      "ള": 980,
      "വ": 981,
      "ശ": 982,
      "സ": 983,
      "ഹ": 984,
      "ഺ": 985,
      "ാ": 986,
      "ി": 987,
      "ീ": 988,
      "െ": 989,
      "േ": 990,
      "൧": 991,
      "൨": 992,
      "൩": 993,
      "൰": 994,
      "ൻ": 995,
      "ർ": 996,
      "ൽ": 997,
      "ං": 998,
      "ඃ": 999,
      "අ": 1000,
      "ආ": 1001,
      "ඇ": 1002,
      "ඈ": 1003,
      "ඌ": 1004,
      "ඔ": 1005,
      "ක": 1006,
      "ඛ": 1007,
      "ග": 1008,
      "ච": 1009,
      "ඤ": 1010,
      "ඥ": 1011,
      "ඩ": 1012,
      "ණ": 1013,
      "ත": 1014,
      "ද": 1015,
      "න": 1016,
      "ප": 1017,
      "බ": 1018,
      "ම": 1019,
      "ඹ": 1020,
      "ය": 1021,
      "ර": 1022,
      "ල": 1023,
      "ව": 1024,
      "ශ": 1025,
      "ෂ": 1026,
      "ස": 1027,
      "හ": 1028,
      "ළ": 1029,
      "ෆ": 1030,
      "ා": 1031,
      "ැ": 1032,
      "ෑ": 1033,
      "ෙ": 1034,
      "ෛ": 1035,
      "ෟ": 1036,
      "෴": 1037,
      "ก": 1038,
      "ข": 1039,
      "ฃ": 1040,
      "ค": 1041,
      "ฅ": 1042,
      "ง": 1043,
      "จ": 1044,
      "ฉ": 1045,
      "ช": 1046,
      "ซ": 1047,
      "ฌ": 1048,
      "ญ": 1049,
      "ฎ": 1050,
      "ฏ": 1051,
      "ฐ": 1052,
      "ฑ": 1053,
      "ฒ": 1054,
      "ณ": 1055,
      "ด": 1056,
      "ต": 1057,
      "ถ": 1058,
      "ท": 1059,
      "ธ": 1060,
      "น": 1061,
      "บ": 1062,
      "ป": 1063,
      "ผ": 1064,
      "ฝ": 1065,
      "พ": 1066,
      "ฟ": 1067,
      "ภ": 1068,
      "ม": 1069,
      "ย": 1070,
      "ร": 1071,
      "ฤ": 1072,
      "ล": 1073,
      "ฦ": 1074,
      "ว": 1075,
      "ศ": 1076,
      "ษ": 1077,
      "ส": 1078,
      "ห": 1079,
      "ฬ": 1080,
      "อ": 1081,
      "ฮ": 1082,
      "ฯ": 1083,
      "ะ": 1084,
      "า": 1085,
      "ำ": 1086,
      "฿": 1087,
      "เ": 1088,
      "แ": 1089,
      "โ": 1090,
      "ใ": 1091,
      "ไ": 1092,
      "ๅ": 1093,
      "ๆ": 1094,
      "๏": 1095,
      "๒": 1096,
      "๔": 1097,
      "๕": 1098,
      "๗": 1099,
      "๘": 1100,
      "๚": 1101,
      "๛": 1102,
      "ກ": 1103,
      "ງ": 1104,
      "ຈ": 1105,
      "ຊ": 1106,
      "ທ": 1107,
      "ນ": 1108,
      "ມ": 1109,
      "ລ": 1110,
      "ວ": 1111,
      "ອ": 1112,
      "ຮ": 1113,
      "ະ": 1114,
      "າ": 1115,
      "ແ": 1116,
      "་": 1117,
      "ཀ": 1118,
      "ཁ": 1119,
      "ག": 1120,
      "ང": 1121,
      "ཆ": 1122,
      "ཇ": 1123,
      "ཏ": 1124,
      "ཐ": 1125,
      "ད": 1126,
      "ན": 1127,
      "པ": 1128,
      "བ": 1129,
      "མ": 1130,
      "ཚ": 1131,
      "ཛ": 1132,
      "ཞ": 1133,
      "ཟ": 1134,
      "འ": 1135,
      "ཡ": 1136,
      "ར": 1137,
      "ལ": 1138,
      "ཤ": 1139,
      "ས": 1140,
      "ཧ": 1141,
      "ཪ": 1142,
      "က": 1143,
      "ခ": 1144,
      "င": 1145,
      "ဆ": 1146,
      "ဇ": 1147,
      "ည": 1148,
      "တ": 1149,
      "ထ": 1150,
      "ဒ": 1151,
      "ဓ": 1152,
      "န": 1153,
      "ပ": 1154,
      "ဖ": 1155,
      "ဗ": 1156,
      "ဘ": 1157,
      "မ": 1158,
      "ယ": 1159,
      "ရ": 1160,
      "လ": 1161,
      "သ": 1162,
      "အ": 1163,
      "ါ": 1164,
      "ာ": 1165,
      "ေ": 1166,
      "း": 1167,
      "ျ": 1168,
      "ြ": 1169,
      "ၚ": 1170,
      "ა": 1171,
      "ბ": 1172,
      "გ": 1173,
      "დ": 1174,
      "ე": 1175,
      "ვ": 1176,
      "ზ": 1177,
      "თ": 1178,
      "ი": 1179,
      "კ": 1180,
      "ლ": 1181,
      "მ": 1182,
      "ნ": 1183,
      "ო": 1184,
      "პ": 1185,
      "რ": 1186,
      "ს": 1187,
      "ტ": 1188,
      "უ": 1189,
      "ფ": 1190,
      "ქ": 1191,
      "ღ": 1192,
      "შ": 1193,
      "ც": 1194,
      "ძ": 1195,
      "წ": 1196,
      "ხ": 1197,
      "ჯ": 1198,
      "ჰ": 1199,
      "ᄀ": 1200,
      "ᄁ": 1201,
      "ᄂ": 1202,
      "ᄃ": 1203,
      "ᄄ": 1204,
      "ᄅ": 1205,
      "ᄆ": 1206,
      "ᄇ": 1207,
      "ᄈ": 1208,
      "ᄉ": 1209,
      "ᄋ": 1210,
      "ᄌ": 1211,
      "ᄍ": 1212,
      "ᄎ": 1213,
      "ᄏ": 1214,
      "ᄐ": 1215,
      "ᄑ": 1216,
      "ᄒ": 1217,
      "ᅀ": 1218,
      "ᅡ": 1219,
      "ᅢ": 1220,
      "ᅣ": 1221,
      "ᅥ": 1222,
      "ᅦ": 1223,
      "ᅧ": 1224,
      "ᅨ": 1225,
      "ᅩ": 1226,
      "ᅪ": 1227,
      "ᅬ": 1228,
      "ᅭ": 1229,
      "ᅮ": 1230,
      "ᅯ": 1231,
      "ᅱ": 1232,
      "ᅲ": 1233,
      "ᅳ": 1234,
      "ᅴ": 1235,
      "ᅵ": 1236,
      "ᆨ": 1237,
      "ᆩ": 1238,
      "ᆫ": 1239,
      "ᆮ": 1240,
      "ᆯ": 1241,
      "ᆰ": 1242,
      "ᆷ": 1243,
      "ᆸ": 1244,
      "ᆺ": 1245,
      "ᆻ": 1246,
      "ᆼ": 1247,
      "ᆽ": 1248,
      "ᆾ": 1249,
      "ᇀ": 1250,
      "ᇁ": 1251,
      "ᇂ": 1252,
      "ሀ": 1253,
      "ሁ": 1254,
      "ሂ": 1255,
      "ሃ": 1256,
      "ህ": 1257,
      "ለ": 1258,
      "ላ": 1259,
      "ል": 1260,
      "ሕ": 1261,
      "መ": 1262,
      "ሚ": 1263,
      "ማ": 1264,
      "ም": 1265,
      "ሣ": 1266,
      "ሥ": 1267,
      "ሩ": 1268,
      "ሪ": 1269,
      "ራ": 1270,
      "ር": 1271,
      "ሮ": 1272,
      "ሰ": 1273,
      "ሲ": 1274,
      "ሳ": 1275,
      "ሴ": 1276,
      "ስ": 1277,
      "ሻ": 1278,
      "ቀ": 1279,
      "ቃ": 1280,
      "ቅ": 1281,
      "ቆ": 1282,
      "ቓ": 1283,
      "በ": 1284,
      "ቡ": 1285,
      "ቢ": 1286,
      "ባ": 1287,
      "ብ": 1288,
      "ተ": 1289,
      "ታ": 1290,
      "ት": 1291,
      "ች": 1292,
      "ነ": 1293,
      "ኒ": 1294,
      "ና": 1295,
      "ን": 1296,
      "ኖ": 1297,
      "አ": 1298,
      "ኢ": 1299,
      "ኣ": 1300,
      "ኤ": 1301,
      "እ": 1302,
      "ከ": 1303,
      "ካ": 1304,
      "ክ": 1305,
      "ወ": 1306,
      "ዊ": 1307,
      "ዋ": 1308,
      "ው": 1309,
      "ዓ": 1310,
      "ዕ": 1311,
      "የ": 1312,
      "ዩ": 1313,
      "ያ": 1314,
      "ይ": 1315,
      "ዲ": 1316,
      "ድ": 1317,
      "ዶ": 1318,
      "ጀ": 1319,
      "ጅ": 1320,
      "ጆ": 1321,
      "ገ": 1322,
      "ጊ": 1323,
      "ጋ": 1324,
      "ግ": 1325,
      "ጎ": 1326,
      "ጠ": 1327,
      "ጣ": 1328,
      "ጥ": 1329,
      "ጭ": 1330,
      "ጮ": 1331,
      "ጸ": 1332,
      "ጻ": 1333,
      "ጽ": 1334,
      "ፍ": 1335,
      "ፐ": 1336,
      "፠": 1337,
      "፨": 1338,
      "ᏹ": 1339,
      "ᐃ": 1340,
      "ᐄ": 1341,
      "ᐊ": 1342,
      "ᐍ": 1343,
      "ᐏ": 1344,
      "ᐗ": 1345,
      "ᐠ": 1346,
      "ᐢ": 1347,
      "ᐣ": 1348,
      "ᐤ": 1349,
      "ᐦ": 1350,
      "ᐯ": 1351,
      "ᐱ": 1352,
      "ᐳ": 1353,
      "ᐸ": 1354,
      "ᑉ": 1355,
      "ᑎ": 1356,
      "ᑐ": 1357,
      "ᑕ": 1358,
      "ᑗ": 1359,
      "ᑦ": 1360,
      "ᑫ": 1361,
      "ᑭ": 1362,
      "ᑯ": 1363,
      "ᑲ": 1364,
      "ᒃ": 1365,
      "ᒋ": 1366,
      "ᒌ": 1367,
      "ᒡ": 1368,
      "ᒣ": 1369,
      "ᒥ": 1370,
      "ᒧ": 1371,
      "ᒨ": 1372,
      "ᒪ": 1373,
      "ᓀ": 1374,
      "ᓂ": 1375,
      "ᓄ": 1376,
      "ᓅ": 1377,
      "ᓇ": 1378,
      "ᓈ": 1379,
      "ᓐ": 1380,
      "ᓗ": 1381,
      "ᓘ": 1382,
      "ᓚ": 1383,
      "ᓪ": 1384,
      "ᓯ": 1385,
      "ᓱ": 1386,
      "ᔅ": 1387,
      "ᔑ": 1388,
      "ᔨ": 1389,
      "ᔫ": 1390,
      "ᔭ": 1391,
      "ᕈ": 1392,
      "ᖃ": 1393,
      "ᖅ": 1394,
      "ᖓ": 1395,
      "᙮": 1396,
      "ᚃ": 1397,
      "ᚐ": 1398,
      "ᚔ": 1399,
      "ᚢ": 1400,
      "ᚦ": 1401,
      "ᚨ": 1402,
      "ᚩ": 1403,
      "ᚪ": 1404,
      "ᚬ": 1405,
      "ᚱ": 1406,
      "ᚲ": 1407,
      "ᚴ": 1408,
      "ᚹ": 1409,
      "ᚼ": 1410,
      "ᚽ": 1411,
      "ᚾ": 1412,
      "ᚿ": 1413,
      "ᛁ": 1414,
      "ᛅ": 1415,
      "ᛉ": 1416,
      "ᛋ": 1417,
      "ᛏ": 1418,
      "ᛒ": 1419,
      "ᛖ": 1420,
      "ᛚ": 1421,
      "ᛟ": 1422,
      "ᛦ": 1423,
      "᛬": 1424,
      "᛭": 1425,
      "ᜇ": 1426,
      "ᜐ": 1427,
      "ក": 1428,
      "ខ": 1429,
      "គ": 1430,
      "ង": 1431,
      "ឆ": 1432,
      "ដ": 1433,
      "ឋ": 1434,
      "ណ": 1435,
      "ត": 1436,
      "ថ": 1437,
      "ទ": 1438,
      "ន": 1439,
      "ប": 1440,
      "ព": 1441,
      "ភ": 1442,
      "ម": 1443,
      "យ": 1444,
      "រ": 1445,
      "ល": 1446,
      "វ": 1447,
      "ស": 1448,
      "ហ": 1449,
      "អ": 1450,
      "ឧ": 1451,
      "ា": 1452,
      "េ": 1453,
      "ែ": 1454,
      "ៃ": 1455,
      "ះ": 1456,
      "០": 1457,
      "១": 1458,
      "៧": 1459,
      "៨": 1460,
      "៩": 1461,
      "ᠠ": 1462,
      "ᠨ": 1463,
      "ᠯ": 1464,
      "ᠰ": 1465,
      "ᠶ": 1466,
      "ᡥ": 1467,
      "ᡳ": 1468,
      "ᣙ": 1469,
      "ᯀ": 1470,
      "ᯅ": 1471,
      "ᯖ": 1472,
      "ᯬ": 1473,
      "ᴀ": 1474,
      "ᴄ": 1475,
      "ᴅ": 1476,
      "ᴇ": 1477,
      "ᴏ": 1478,
      "ᴗ": 1479,
      "ᴛ": 1480,
      "ᴜ": 1481,
      "ᴢ": 1482,
      "ᴥ": 1483,
      "ᴳ": 1484,
      "ᴴ": 1485,
      "ᵄ": 1486,
      "ᵉ": 1487,
      "ᵊ": 1488,
      "ᵋ": 1489,
      "ᵍ": 1490,
      "ᵑ": 1491,
      "ᵒ": 1492,
      "ᵭ": 1493,
      "ᵮ": 1494,
      "ᵯ": 1495,
      "ᵰ": 1496,
      "ᵱ": 1497,
      "ᵲ": 1498,
      "ᵳ": 1499,
      "ᵴ": 1500,
      "ᵵ": 1501,
      "ᵶ": 1502,
      "ᵷ": 1503,
      "ᵹ": 1504,
      "ᵻ": 1505,
      "ᵽ": 1506,
      "ᵾ": 1507,
      "ᶁ": 1508,
      "ᶂ": 1509,
      "ᶃ": 1510,
      "ᶄ": 1511,
      "ᶅ": 1512,
      "ᶆ": 1513,
      "ᶇ": 1514,
      "ᶈ": 1515,
      "ᶉ": 1516,
      "ᶊ": 1517,
      "ᶌ": 1518,
      "ᶍ": 1519,
      "ᶎ": 1520,
      "ᶏ": 1521,
      "ᶐ": 1522,
      "ᶑ": 1523,
      "ᶒ": 1524,
      "ᶓ": 1525,
      "ᶔ": 1526,
      "ᶘ": 1527,
      "ᶙ": 1528,
      "ᶛ": 1529,
      "ᶟ": 1530,
      "ᶢ": 1531,
      "ᶣ": 1532,
      "ᶬ": 1533,
      "ᶭ": 1534,
      "ᶮ": 1535,
      "ᶯ": 1536,
      "ᶰ": 1537,
      "ᶳ": 1538,
      "ᶵ": 1539,
      "ᶶ": 1540,
      "ᶸ": 1541,
      "ᶹ": 1542,
      "ᶺ": 1543,
      "ᶻ": 1544,
      "ᶼ": 1545,
      "ᶽ": 1546,
      "ẚ": 1547,
      "ẜ": 1548,
      "ẝ": 1549,
      "ẟ": 1550,
      "ỽ": 1551,
      "ỿ": 1552,
      "᾽": 1553,
      "᾿": 1554,
      "῾": 1555,
      "‐": 1556,
      "‑": 1557,
      "‒": 1558,
      "–": 1559,
      "—": 1560,
      "―": 1561,
      "‖": 1562,
      "‘": 1563,
      "’": 1564,
      "‚": 1565,
      "‛": 1566,
      "“": 1567,
      "”": 1568,
      "„": 1569,
      "‟": 1570,
      "†": 1571,
      "‡": 1572,
      "•": 1573,
      "‣": 1574,
      "․": 1575,
      "…": 1576,
      "‰": 1577,
      "‱": 1578,
      "′": 1579,
      "″": 1580,
      "‴": 1581,
      "‹": 1582,
      "›": 1583,
      "※": 1584,
      "‽": 1585,
      "‾": 1586,
      "‿": 1587,
      "⁂": 1588,
      "⁄": 1589,
      "⁇": 1590,
      "⁈": 1591,
      "⁉": 1592,
      "⁊": 1593,
      "⁑": 1594,
      "⁓": 1595,
      "⁔": 1596,
      "⁙": 1597,
      "⁚": 1598,
      "⁰": 1599,
      "⁴": 1600,
      "⁵": 1601,
      "⁷": 1602,
      "⁸": 1603,
      "⁺": 1604,
      "⁻": 1605,
      "ⁿ": 1606,
      "₁": 1607,
      "₂": 1608,
      "₃": 1609,
      "ₓ": 1610,
      "ₕ": 1611,
      "ₖ": 1612,
      "ₛ": 1613,
      "ₜ": 1614,
      "₠": 1615,
      "₡": 1616,
      "₢": 1617,
      "₣": 1618,
      "₤": 1619,
      "₥": 1620,
      "₦": 1621,
      "₨": 1622,
      "₩": 1623,
      "₪": 1624,
      "₫": 1625,
      "€": 1626,
      "₭": 1627,
      "₮": 1628,
      "₯": 1629,
      "₱": 1630,
      "₲": 1631,
      "₳": 1632,
      "₴": 1633,
      "₵": 1634,
      "₷": 1635,
      "₸": 1636,
      "₹": 1637,
      "₽": 1638,
      "₾": 1639,
      "⃀": 1640,
      "ℂ": 1641,
      "℃": 1642,
      "℅": 1643,
      "ℍ": 1644,
      "ℏ": 1645,
      "ℓ": 1646,
      "ℕ": 1647,
      "№": 1648,
      "℗": 1649,
      "℘": 1650,
      "ℙ": 1651,
      "ℚ": 1652,
      "ℛ": 1653,
      "ℝ": 1654,
      "℞": 1655,
      "℟": 1656,
      "℠": 1657,
      "™": 1658,
      "℣": 1659,
      "ℤ": 1660,
      "℥": 1661,
      "℧": 1662,
      "℩": 1663,
      "℮": 1664,
      "ℰ": 1665,
      "ℱ": 1666,
      "ℳ": 1667,
      "ℵ": 1668,
      "℺": 1669,
      "ⅎ": 1670,
      "⅓": 1671,
      "⅔": 1672,
      "⅛": 1673,
      "⅜": 1674,
      "⅝": 1675,
      "⅞": 1676,
      "ⅻ": 1677,
      "ↀ": 1678,
      "ↆ": 1679,
      "ↇ": 1680,
      "ↈ": 1681,
      "←": 1682,
      "↑": 1683,
      "→": 1684,
      "↓": 1685,
      "↔": 1686,
      "↝": 1687,
      "↦": 1688,
      "↯": 1689,
      "↵": 1690,
      "⇄": 1691,
      "⇌": 1692,
      "⇐": 1693,
      "⇒": 1694,
      "⇔": 1695,
      "⇗": 1696,
      "⇘": 1697,
      "⇳": 1698,
      "∀": 1699,
      "∂": 1700,
      "∃": 1701,
      "∅": 1702,
      "∆": 1703,
      "∇": 1704,
      "∈": 1705,
      "∊": 1706,
      "∋": 1707,
      "∎": 1708,
      "−": 1709,
      "∓": 1710,
      "∕": 1711,
      "∖": 1712,
      "∗": 1713,
      "∘": 1714,
      "∙": 1715,
      "√": 1716,
      "∝": 1717,
      "∞": 1718,
      "∠": 1719,
      "∣": 1720,
      "∥": 1721,
      "∧": 1722,
      "∨": 1723,
      "∩": 1724,
      "∪": 1725,
      "∫": 1726,
      "∴": 1727,
      "∷": 1728,
      "∸": 1729,
      "∼": 1730,
      "≃": 1731,
      "≅": 1732,
      "≈": 1733,
      "≐": 1734,
      "≘": 1735,
      "≙": 1736,
      "≜": 1737,
      "≟": 1738,
      "≡": 1739,
      "≤": 1740,
      "≥": 1741,
      "≧": 1742,
      "≪": 1743,
      "≫": 1744,
      "≲": 1745,
      "≳": 1746,
      "≼": 1747,
      "≽": 1748,
      "⊂": 1749,
      "⊃": 1750,
      "⊆": 1751,
      "⊇": 1752,
      "⊊": 1753,
      "⊋": 1754,
      "⊍": 1755,
      "⊏": 1756,
      "⊔": 1757,
      "⊕": 1758,
      "⊖": 1759,
      "⊗": 1760,
      "⊙": 1761,
      "⊢": 1762,
      "⊤": 1763,
      "⊥": 1764,
      "⊦": 1765,
      "⊨": 1766,
      "⊻": 1767,
      "⊼": 1768,
      "⊽": 1769,
      "⋀": 1770,
      "⋃": 1771,
      "⋅": 1772,
      "⋆": 1773,
      "⋇": 1774,
      "⋈": 1775,
      "⋉": 1776,
      "⋊": 1777,
      "⋋": 1778,
      "⋌": 1779,
      "⋍": 1780,
      "⋖": 1781,
      "⋮": 1782,
      "⋯": 1783,
      "⌀": 1784,
      "⌂": 1785,
      "⌃": 1786,
      "⌈": 1787,
      "⌉": 1788,
      "⌊": 1789,
      "⌋": 1790,
      "⌒": 1791,
      "⌽": 1792,
      "⌿": 1793,
      "⍋": 1794,
      "⍠": 1795,
      "⍨": 1796,
      "⍳": 1797,
      "⍴": 1798,
      "⍵": 1799,
      "⍺": 1800,
      "⍾": 1801,
      "⎉": 1802,
      "⎖": 1803,
      "⎜": 1804,
      "⎧": 1805,
      "⎨": 1806,
      "⎩": 1807,
      "⎬": 1808,
      "⎯": 1809,
      "⏑": 1810,
      "⏓": 1811,
      "⏕": 1812,
      "⏨": 1813,
      "␇": 1814,
      "␠": 1815,
      "␣": 1816,
      "①": 1817,
      "②": 1818,
      "③": 1819,
      "④": 1820,
      "⑤": 1821,
      "⑥": 1822,
      "⑦": 1823,
      "⑧": 1824,
      "ⓐ": 1825,
      "ⓑ": 1826,
      "ⓢ": 1827,
      "ⓣ": 1828,
      "ⓧ": 1829,
      "ⓨ": 1830,
      "─": 1831,
      "━": 1832,
      "│": 1833,
      "┃": 1834,
      "┌": 1835,
      "┏": 1836,
      "┐": 1837,
      "┓": 1838,
      "└": 1839,
      "├": 1840,
      "┣": 1841,
      "┫": 1842,
      "┳": 1843,
      "┻": 1844,
      "╋": 1845,
      "╥": 1846,
      "╨": 1847,
      "╯": 1848,
      "╱": 1849,
      "╲": 1850,
      "▀": 1851,
      "▄": 1852,
      "█": 1853,
      "░": 1854,
      "▒": 1855,
      "▓": 1856,
      "■": 1857,
      "□": 1858,
      "▢": 1859,
      "▪": 1860,
      "▫": 1861,
      "▬": 1862,
      "▭": 1863,
      "▮": 1864,
      "▯": 1865,
      "▰": 1866,
      "▲": 1867,
      "△": 1868,
      "▼": 1869,
      "◆": 1870,
      "◊": 1871,
      "○": 1872,
      "◌": 1873,
      "●": 1874,
      "◐": 1875,
      "◕": 1876,
      "◘": 1877,
      "◡": 1878,
      "◦": 1879,
      "◻": 1880,
      "☂": 1881,
      "★": 1882,
      "☆": 1883,
      "☉": 1884,
      "☌": 1885,
      "☔": 1886,
      "☠": 1887,
      "☣": 1888,
      "☤": 1889,
      "☥": 1890,
      "☦": 1891,
      "☧": 1892,
      "☨": 1893,
      "☩": 1894,
      "☪": 1895,
      "☫": 1896,
      "☰": 1897,
      "☱": 1898,
      "☲": 1899,
      "☳": 1900,
      "☴": 1901,
      "☵": 1902,
      "☶": 1903,
      "☷": 1904,
      "☺": 1905,
      "☾": 1906,
      "☿": 1907,
      "♀": 1908,
      "♂": 1909,
      "♃": 1910,
      "♄": 1911,
      "♆": 1912,
      "♇": 1913,
      "♈": 1914,
      "♉": 1915,
      "♋": 1916,
      "♌": 1917,
      "♍": 1918,
      "♎": 1919,
      "♏": 1920,
      "♐": 1921,
      "♑": 1922,
      "♒": 1923,
      "♓": 1924,
      "♔": 1925,
      "♕": 1926,
      "♖": 1927,
      "♗": 1928,
      "♘": 1929,
      "♙": 1930,
      "♚": 1931,
      "♛": 1932,
      "♜": 1933,
      "♝": 1934,
      "♞": 1935,
      "♟": 1936,
      "♠": 1937,
      "♣": 1938,
      "♤": 1939,
      "♥": 1940,
      "♦": 1941,
      "♩": 1942,
      "♪": 1943,
      "♫": 1944,
      "♭": 1945,
      "♮": 1946,
      "♯": 1947,
      "♲": 1948,
      "♳": 1949,
      "♴": 1950,
      "♵": 1951,
      "♶": 1952,
      "♷": 1953,
      "♸": 1954,
      "♹": 1955,
      "♺": 1956,
      "♾": 1957,
      "⚀": 1958,
      "⚁": 1959,
      "⚂": 1960,
      "⚃": 1961,
      "⚄": 1962,
      "⚅": 1963,
      "⚇": 1964,
      "⚓": 1965,
      "⚤": 1966,
      "⚥": 1967,
      "⚲": 1968,
      "⚴": 1969,
      "⚵": 1970,
      "⚹": 1971,
      "⛢": 1972,
      "✉": 1973,
      "✓": 1974,
      "✕": 1975,
      "✖": 1976,
      "✗": 1977,
      "✘": 1978,
      "✙": 1979,
      "✚": 1980,
      "✛": 1981,
      "✜": 1982,
      "✝": 1983,
      "✞": 1984,
      "✟": 1985,
      "✠": 1986,
      "✡": 1987,
      "✢": 1988,
      "✣": 1989,
      "✤": 1990,
      "✥": 1991,
      "✪": 1992,
      "✯": 1993,
      "✱": 1994,
      "✶": 1995,
      "✸": 1996,
      "✻": 1997,
      "✿": 1998,
      "❚": 1999,
      "❤": 2000,
      "❧": 2001,
      "➔": 2002,
      "⟦": 2003,
      "⟧": 2004,
      "⟨": 2005,
      "⟩": 2006,
      "⟶": 2007,
      "⠃": 2008,
      "⠇": 2009,
      "⠗": 2010,
      "⤓": 2011,
      "⤖": 2012,
      "⦰": 2013,
      "⦵": 2014,
      "⨁": 2015,
      "⨳": 2016,
      "⩒": 2017,
      "⩛": 2018,
      "⩱": 2019,
      "⩲": 2020,
      "⩽": 2021,
      "⩾": 2022,
      "⫟": 2023,
      "⫶": 2024,
      "⫽": 2025,
      "⯓": 2026,
      "⯔": 2027,
      "⯕": 2028,
      "⯖": 2029,
      "ⰶ": 2030,
      "ⱆ": 2031,
      "ⱑ": 2032,
      "ⱓ": 2033,
      "ⱡ": 2034,
      "ⱥ": 2035,
      "ⱦ": 2036,
      "ⱨ": 2037,
      "ⱪ": 2038,
      "ⱬ": 2039,
      "ⱳ": 2040,
      "ⱴ": 2041,
      "ⱶ": 2042,
      "ⱷ": 2043,
      "ⱸ": 2044,
      "ⱹ": 2045,
      "ⱺ": 2046,
      "ⲁ": 2047,
      "ⲃ": 2048,
      "ⲅ": 2049,
      "ⲇ": 2050,
      "ⲉ": 2051,
      "ⲏ": 2052,
      "ⲓ": 2053,
      "ⲕ": 2054,
      "ⲗ": 2055,
      "ⲙ": 2056,
      "ⲛ": 2057,
      "ⲝ": 2058,
      "ⲟ": 2059,
      "ⲡ": 2060,
      "ⲣ": 2061,
      "ⲥ": 2062,
      "ⲧ": 2063,
      "ⲫ": 2064,
      "ⲭ": 2065,
      "ⲱ": 2066,
      "ⴰ": 2067,
      "ⴻ": 2068,
      "ⴼ": 2069,
      "ⴽ": 2070,
      "ⵉ": 2071,
      "ⵍ": 2072,
      "ⵎ": 2073,
      "ⵏ": 2074,
      "ⵓ": 2075,
      "ⵔ": 2076,
      "ⵖ": 2077,
      "ⵙ": 2078,
      "ⵛ": 2079,
      "ⵜ": 2080,
      "ⵣ": 2081,
      "⸢": 2082,
      "⸣": 2083,
      "⸤": 2084,
      "⸥": 2085,
      "⸬": 2086,
      "⸰": 2087,
      "⸱": 2088,
      "⸺": 2089,
      "⺮": 2090,
      "、": 2091,
      "。": 2092,
      "々": 2093,
      "〇": 2094,
      "〈": 2095,
      "〉": 2096,
      "《": 2097,
      "》": 2098,
      "「": 2099,
      "」": 2100,
      "『": 2101,
      "』": 2102,
      "〚": 2103,
      "〛": 2104,
      "〜": 2105,
      "〮": 2106,
      "〯": 2107,
      "ぁ": 2108,
      "あ": 2109,
      "ぃ": 2110,
      "い": 2111,
      "う": 2112,
      "ぇ": 2113,
      "え": 2114,
      "お": 2115,
      "か": 2116,
      "き": 2117,
      "く": 2118,
      "け": 2119,
      "こ": 2120,
      "さ": 2121,
      "し": 2122,
      "す": 2123,
      "せ": 2124,
      "そ": 2125,
      "た": 2126,
      "ち": 2127,
      "っ": 2128,
      "つ": 2129,
      "て": 2130,
      "と": 2131,
      "な": 2132,
      "に": 2133,
      "ぬ": 2134,
      "ね": 2135,
      "の": 2136,
      "は": 2137,
      "ひ": 2138,
      "ふ": 2139,
      "へ": 2140,
      "ほ": 2141,
      "ま": 2142,
      "み": 2143,
      "む": 2144,
      "め": 2145,
      "も": 2146,
      "ゃ": 2147,
      "や": 2148,
      "ゅ": 2149,
      "ゆ": 2150,
      "ょ": 2151,
      "よ": 2152,
      "ら": 2153,
      "り": 2154,
      "る": 2155,
      "れ": 2156,
      "ろ": 2157,
      "ゎ": 2158,
      "わ": 2159,
      "ゐ": 2160,
      "ゑ": 2161,
      "を": 2162,
      "ん": 2163,
      "゛": 2164,
      "゜": 2165,
      "ゝ": 2166,
      "ァ": 2167,
      "ア": 2168,
      "ィ": 2169,
      "イ": 2170,
      "ゥ": 2171,
      "ウ": 2172,
      "ェ": 2173,
      "エ": 2174,
      "ォ": 2175,
      "オ": 2176,
      "カ": 2177,
      "キ": 2178,
      "ク": 2179,
      "ケ": 2180,
      "コ": 2181,
      "サ": 2182,
      "シ": 2183,
      "ス": 2184,
      "セ": 2185,
      "ソ": 2186,
      "タ": 2187,
      "チ": 2188,
      "ッ": 2189,
      "ツ": 2190,
      "テ": 2191,
      "ト": 2192,
      "ナ": 2193,
      "ニ": 2194,
      "ヌ": 2195,
      "ネ": 2196,
      "ノ": 2197,
      "ハ": 2198,
      "ヒ": 2199,
      "フ": 2200,
      "ヘ": 2201,
      "ホ": 2202,
      "マ": 2203,
      "ミ": 2204,
      "ム": 2205,
      "メ": 2206,
      "モ": 2207,
      "ャ": 2208,
      "ヤ": 2209,
      "ュ": 2210,
      "ユ": 2211,
      "ョ": 2212,
      "ヨ": 2213,
      "ラ": 2214,
      "リ": 2215,
      "ル": 2216,
      "レ": 2217,
      "ロ": 2218,
      "ワ": 2219,
      "ヰ": 2220,
      "ヱ": 2221,
      "ヲ": 2222,
      "ン": 2223,
      "ヶ": 2224,
      "・": 2225,
      "ー": 2226,
      "ヽ": 2227,
      "ㄅ": 2228,
      "ㄆ": 2229,
      "ㄇ": 2230,
      "ㄈ": 2231,
      "ㄉ": 2232,
      "ㄊ": 2233,
      "ㄌ": 2234,
      "ㄘ": 2235,
      "ㄛ": 2236,
      "ㄞ": 2237,
      "ㄠ": 2238,
      "ㄢ": 2239,
      "ㄧ": 2240,
      "ㄨ": 2241,
      "ㄪ": 2242,
      "ㄱ": 2243,
      "ㄲ": 2244,
      "ㄴ": 2245,
      "ㄷ": 2246,
      "ㄸ": 2247,
      "ㄹ": 2248,
      "ㅁ": 2249,
      "ㅂ": 2250,
      "ㅃ": 2251,
      "ㅅ": 2252,
      "ㅆ": 2253,
      "ㅇ": 2254,
      "ㅈ": 2255,
      "ㅉ": 2256,
      "ㅊ": 2257,
      "ㅋ": 2258,
      "ㅌ": 2259,
      "ㅍ": 2260,
      "ㅎ": 2261,
      "ㅏ": 2262,
      "ㅐ": 2263,
      "ㅑ": 2264,
      "ㅓ": 2265,
      "ㅔ": 2266,
      "ㅕ": 2267,
      "ㅗ": 2268,
      "ㅜ": 2269,
      "ㅟ": 2270,
      "ㅠ": 2271,
      "ㅡ": 2272,
      "ㅢ": 2273,
      "ㅣ": 2274,
      "ㆉ": 2275,
      "ㆌ": 2276,
      "ㇷ": 2277,
      "㛹": 2278,
      "㵋": 2279,
      "䨻": 2280,
      "䭏": 2281,
      "一": 2282,
      "丁": 2283,
      "七": 2284,
      "万": 2285,
      "丈": 2286,
      "三": 2287,
      "上": 2288,
      "下": 2289,
      "不": 2290,
      "与": 2291,
      "丑": 2292,
      "专": 2293,
      "且": 2294,
      "世": 2295,
      "丘": 2296,
      "业": 2297,
      "东": 2298,
      "丝": 2299,
      "両": 2300,
      "丢": 2301,
      "两": 2302,
      "严": 2303,
      "並": 2304,
      "丨": 2305,
      "丩": 2306,
      "个": 2307,
      "丬": 2308,
      "中": 2309,
      "丰": 2310,
      "串": 2311,
      "丶": 2312,
      "丷": 2313,
      "丸": 2314,
      "丹": 2315,
      "为": 2316,
      "主": 2317,
      "丽": 2318,
      "丿": 2319,
      "乃": 2320,
      "久": 2321,
      "义": 2322,
      "之": 2323,
      "乌": 2324,
      "乐": 2325,
      "乘": 2326,
      "乙": 2327,
      "乚": 2328,
      "乛": 2329,
      "九": 2330,
      "乞": 2331,
      "也": 2332,
      "习": 2333,
      "乡": 2334,
      "书": 2335,
      "买": 2336,
      "乱": 2337,
      "乳": 2338,
      "乾": 2339,
      "亀": 2340,
      "亂": 2341,
      "亅": 2342,
      "了": 2343,
      "予": 2344,
      "争": 2345,
      "事": 2346,
      "二": 2347,
      "于": 2348,
      "云": 2349,
      "互": 2350,
      "五": 2351,
      "井": 2352,
      "亘": 2353,
      "亚": 2354,
      "亞": 2355,
      "亠": 2356,
      "亡": 2357,
      "交": 2358,
      "亦": 2359,
      "产": 2360,
      "亨": 2361,
      "享": 2362,
      "京": 2363,
      "亭": 2364,
      "亮": 2365,
      "亲": 2366,
      "人": 2367,
      "亻": 2368,
      "亿": 2369,
      "仁": 2370,
      "仄": 2371,
      "仇": 2372,
      "今": 2373,
      "介": 2374,
      "仌": 2375,
      "从": 2376,
      "仏": 2377,
      "仑": 2378,
      "仓": 2379,
      "仔": 2380,
      "仕": 2381,
      "他": 2382,
      "仗": 2383,
      "付": 2384,
      "仙": 2385,
      "仚": 2386,
      "仝": 2387,
      "仟": 2388,
      "代": 2389,
      "令": 2390,
      "以": 2391,
      "仪": 2392,
      "们": 2393,
      "仮": 2394,
      "仰": 2395,
      "仲": 2396,
      "件": 2397,
      "任": 2398,
      "伊": 2399,
      "伍": 2400,
      "伎": 2401,
      "伏": 2402,
      "伐": 2403,
      "休": 2404,
      "众": 2405,
      "会": 2406,
      "伝": 2407,
      "伟": 2408,
      "传": 2409,
      "伦": 2410,
      "伯": 2411,
      "伴": 2412,
      "伸": 2413,
      "似": 2414,
      "伽": 2415,
      "佃": 2416,
      "但": 2417,
      "佉": 2418,
      "位": 2419,
      "住": 2420,
      "佐": 2421,
      "佑": 2422,
      "体": 2423,
      "何": 2424,
      "余": 2425,
      "佛": 2426,
      "作": 2427,
      "你": 2428,
      "佩": 2429,
      "佬": 2430,
      "佮": 2431,
      "佳": 2432,
      "佺": 2433,
      "使": 2434,
      "侃": 2435,
      "來": 2436,
      "例": 2437,
      "侍": 2438,
      "供": 2439,
      "依": 2440,
      "侠": 2441,
      "侦": 2442,
      "侬": 2443,
      "侯": 2444,
      "侶": 2445,
      "便": 2446,
      "係": 2447,
      "促": 2448,
      "俄": 2449,
      "俊": 2450,
      "俔": 2451,
      "俗": 2452,
      "俚": 2453,
      "保": 2454,
      "俞": 2455,
      "俟": 2456,
      "俠": 2457,
      "信": 2458,
      "俥": 2459,
      "俨": 2460,
      "俭": 2461,
      "修": 2462,
      "俱": 2463,
      "俳": 2464,
      "俵": 2465,
      "俺": 2466,
      "倉": 2467,
      "個": 2468,
      "倍": 2469,
      "們": 2470,
      "倒": 2471,
      "候": 2472,
      "倚": 2473,
      "倪": 2474,
      "倫": 2475,
      "倭": 2476,
      "倶": 2477,
      "值": 2478,
      "偃": 2479,
      "偉": 2480,
      "偏": 2481,
      "偕": 2482,
      "做": 2483,
      "健": 2484,
      "偰": 2485,
      "側": 2486,
      "偿": 2487,
      "傅": 2488,
      "傌": 2489,
      "傑": 2490,
      "傘": 2491,
      "備": 2492,
      "傜": 2493,
      "储": 2494,
      "傳": 2495,
      "債": 2496,
      "僊": 2497,
      "像": 2498,
      "僑": 2499,
      "僕": 2500,
      "僖": 2501,
      "僚": 2502,
      "僧": 2503,
      "價": 2504,
      "儀": 2505,
      "儁": 2506,
      "儂": 2507,
      "億": 2508,
      "儒": 2509,
      "儡": 2510,
      "優": 2511,
      "儼": 2512,
      "儿": 2513,
      "允": 2514,
      "元": 2515,
      "兄": 2516,
      "充": 2517,
      "兆": 2518,
      "先": 2519,
      "光": 2520,
      "克": 2521,
      "免": 2522,
      "兎": 2523,
      "児": 2524,
      "兒": 2525,
      "兔": 2526,
      "兗": 2527,
      "党": 2528,
      "兜": 2529,
      "入": 2530,
      "內": 2531,
      "全": 2532,
      "兩": 2533,
      "八": 2534,
      "公": 2535,
      "六": 2536,
      "兮": 2537,
      "兰": 2538,
      "共": 2539,
      "关": 2540,
      "兴": 2541,
      "兵": 2542,
      "其": 2543,
      "具": 2544,
      "典": 2545,
      "兹": 2546,
      "兼": 2547,
      "冀": 2548,
      "内": 2549,
      "円": 2550,
      "冉": 2551,
      "冊": 2552,
      "册": 2553,
      "再": 2554,
      "冖": 2555,
      "写": 2556,
      "军": 2557,
      "农": 2558,
      "冠": 2559,
      "冤": 2560,
      "冥": 2561,
      "冫": 2562,
      "冬": 2563,
      "冯": 2564,
      "冰": 2565,
      "决": 2566,
      "冶": 2567,
      "冷": 2568,
      "冻": 2569,
      "冼": 2570,
      "净": 2571,
      "准": 2572,
      "凉": 2573,
      "凋": 2574,
      "凌": 2575,
      "凍": 2576,
      "几": 2577,
      "凡": 2578,
      "凤": 2579,
      "凧": 2580,
      "凰": 2581,
      "凸": 2582,
      "凹": 2583,
      "出": 2584,
      "击": 2585,
      "刀": 2586,
      "刂": 2587,
      "刃": 2588,
      "分": 2589,
      "切": 2590,
      "刈": 2591,
      "刊": 2592,
      "刑": 2593,
      "划": 2594,
      "列": 2595,
      "刘": 2596,
      "则": 2597,
      "刚": 2598,
      "创": 2599,
      "初": 2600,
      "判": 2601,
      "別": 2602,
      "利": 2603,
      "别": 2604,
      "到": 2605,
      "制": 2606,
      "券": 2607,
      "刹": 2608,
      "刺": 2609,
      "刻": 2610,
      "則": 2611,
      "削": 2612,
      "剌": 2613,
      "前": 2614,
      "剎": 2615,
      "剑": 2616,
      "剛": 2617,
      "剣": 2618,
      "副": 2619,
      "割": 2620,
      "創": 2621,
      "劃": 2622,
      "劇": 2623,
      "劉": 2624,
      "劍": 2625,
      "力": 2626,
      "办": 2627,
      "功": 2628,
      "加": 2629,
      "务": 2630,
      "动": 2631,
      "助": 2632,
      "努": 2633,
      "劫": 2634,
      "劳": 2635,
      "労": 2636,
      "劸": 2637,
      "効": 2638,
      "劾": 2639,
      "势": 2640,
      "勁": 2641,
      "勃": 2642,
      "勅": 2643,
      "勇": 2644,
      "勒": 2645,
      "動": 2646,
      "勘": 2647,
      "務": 2648,
      "勝": 2649,
      "勞": 2650,
      "勢": 2651,
      "勤": 2652,
      "勧": 2653,
      "勲": 2654,
      "勳": 2655,
      "勵": 2656,
      "勹": 2657,
      "勺": 2658,
      "勾": 2659,
      "勿": 2660,
      "包": 2661,
      "匈": 2662,
      "匏": 2663,
      "匕": 2664,
      "化": 2665,
      "北": 2666,
      "匠": 2667,
      "匡": 2668,
      "匣": 2669,
      "匪": 2670,
      "匯": 2671,
      "匱": 2672,
      "区": 2673,
      "医": 2674,
      "匽": 2675,
      "區": 2676,
      "十": 2677,
      "千": 2678,
      "升": 2679,
      "午": 2680,
      "半": 2681,
      "卍": 2682,
      "华": 2683,
      "协": 2684,
      "卐": 2685,
      "卑": 2686,
      "卒": 2687,
      "卓": 2688,
      "協": 2689,
      "单": 2690,
      "南": 2691,
      "単": 2692,
      "博": 2693,
      "卜": 2694,
      "占": 2695,
      "卡": 2696,
      "卣": 2697,
      "卤": 2698,
      "卦": 2699,
      "卧": 2700,
      "卫": 2701,
      "卬": 2702,
      "卯": 2703,
      "印": 2704,
      "危": 2705,
      "即": 2706,
      "卵": 2707,
      "卷": 2708,
      "卸": 2709,
      "卿": 2710,
      "厂": 2711,
      "厄": 2712,
      "厅": 2713,
      "历": 2714,
      "厉": 2715,
      "厚": 2716,
      "原": 2717,
      "厥": 2718,
      "厲": 2719,
      "厳": 2720,
      "去": 2721,
      "县": 2722,
      "参": 2723,
      "參": 2724,
      "又": 2725,
      "叉": 2726,
      "及": 2727,
      "友": 2728,
      "双": 2729,
      "反": 2730,
      "发": 2731,
      "叔": 2732,
      "取": 2733,
      "受": 2734,
      "变": 2735,
      "叡": 2736,
      "叢": 2737,
      "口": 2738,
      "古": 2739,
      "句": 2740,
      "叩": 2741,
      "只": 2742,
      "叫": 2743,
      "召": 2744,
      "可": 2745,
      "台": 2746,
      "史": 2747,
      "右": 2748,
      "叶": 2749,
      "号": 2750,
      "司": 2751,
      "吃": 2752,
      "各": 2753,
      "合": 2754,
      "吉": 2755,
      "同": 2756,
      "名": 2757,
      "后": 2758,
      "吏": 2759,
      "吐": 2760,
      "向": 2761,
      "吒": 2762,
      "君": 2763,
      "听": 2764,
      "启": 2765,
      "吳": 2766,
      "吴": 2767,
      "吸": 2768,
      "吹": 2769,
      "吻": 2770,
      "吾": 2771,
      "呂": 2772,
      "呆": 2773,
      "呈": 2774,
      "告": 2775,
      "呐": 2776,
      "呑": 2777,
      "员": 2778,
      "周": 2779,
      "味": 2780,
      "呼": 2781,
      "命": 2782,
      "咄": 2783,
      "和": 2784,
      "咒": 2785,
      "咗": 2786,
      "咩": 2787,
      "咫": 2788,
      "咸": 2789,
      "咹": 2790,
      "哀": 2791,
      "品": 2792,
      "哇": 2793,
      "哈": 2794,
      "哉": 2795,
      "哟": 2796,
      "員": 2797,
      "哥": 2798,
      "哪": 2799,
      "哲": 2800,
      "唐": 2801,
      "唔": 2802,
      "唱": 2803,
      "唹": 2804,
      "商": 2805,
      "問": 2806,
      "啓": 2807,
      "啞": 2808,
      "啟": 2809,
      "啤": 2810,
      "啲": 2811,
      "喀": 2812,
      "喂": 2813,
      "善": 2814,
      "喆": 2815,
      "喇": 2816,
      "喉": 2817,
      "喊": 2818,
      "喜": 2819,
      "喝": 2820,
      "喧": 2821,
      "喪": 2822,
      "喬": 2823,
      "單": 2824,
      "喻": 2825,
      "嗣": 2826,
      "嘅": 2827,
      "嘉": 2828,
      "嘛": 2829,
      "嘸": 2830,
      "噌": 2831,
      "器": 2832,
      "嚴": 2833,
      "囂": 2834,
      "囎": 2835,
      "囗": 2836,
      "四": 2837,
      "回": 2838,
      "因": 2839,
      "团": 2840,
      "団": 2841,
      "囧": 2842,
      "园": 2843,
      "図": 2844,
      "围": 2845,
      "固": 2846,
      "国": 2847,
      "图": 2848,
      "圆": 2849,
      "圈": 2850,
      "圉": 2851,
      "國": 2852,
      "圏": 2853,
      "園": 2854,
      "圓": 2855,
      "圖": 2856,
      "圜": 2857,
      "土": 2858,
      "圣": 2859,
      "圧": 2860,
      "在": 2861,
      "圭": 2862,
      "地": 2863,
      "圳": 2864,
      "场": 2865,
      "圻": 2866,
      "址": 2867,
      "坂": 2868,
      "均": 2869,
      "坊": 2870,
      "坐": 2871,
      "坑": 2872,
      "坚": 2873,
      "坛": 2874,
      "坤": 2875,
      "坦": 2876,
      "垂": 2877,
      "型": 2878,
      "垒": 2879,
      "垓": 2880,
      "垣": 2881,
      "城": 2882,
      "埔": 2883,
      "域": 2884,
      "埠": 2885,
      "埴": 2886,
      "執": 2887,
      "培": 2888,
      "基": 2889,
      "堀": 2890,
      "堂": 2891,
      "堃": 2892,
      "堅": 2893,
      "堡": 2894,
      "堤": 2895,
      "堯": 2896,
      "報": 2897,
      "場": 2898,
      "塑": 2899,
      "塔": 2900,
      "塗": 2901,
      "塘": 2902,
      "塚": 2903,
      "塞": 2904,
      "塩": 2905,
      "塵": 2906,
      "境": 2907,
      "墈": 2908,
      "増": 2909,
      "增": 2910,
      "墨": 2911,
      "墾": 2912,
      "壁": 2913,
      "壇": 2914,
      "壊": 2915,
      "壓": 2916,
      "壤": 2917,
      "士": 2918,
      "壮": 2919,
      "声": 2920,
      "壱": 2921,
      "売": 2922,
      "壶": 2923,
      "壹": 2924,
      "壺": 2925,
      "壼": 2926,
      "壽": 2927,
      "夂": 2928,
      "处": 2929,
      "备": 2930,
      "変": 2931,
      "复": 2932,
      "夏": 2933,
      "夔": 2934,
      "夕": 2935,
      "外": 2936,
      "夙": 2937,
      "多": 2938,
      "夜": 2939,
      "夠": 2940,
      "夢": 2941,
      "夤": 2942,
      "大": 2943,
      "天": 2944,
      "太": 2945,
      "夫": 2946,
      "央": 2947,
      "失": 2948,
      "头": 2949,
      "夷": 2950,
      "夾": 2951,
      "奄": 2952,
      "奇": 2953,
      "奈": 2954,
      "奉": 2955,
      "奋": 2956,
      "奎": 2957,
      "契": 2958,
      "套": 2959,
      "奘": 2960,
      "奚": 2961,
      "奥": 2962,
      "奨": 2963,
      "女": 2964,
      "奴": 2965,
      "奶": 2966,
      "她": 2967,
      "好": 2968,
      "如": 2969,
      "妃": 2970,
      "妇": 2971,
      "妈": 2972,
      "妊": 2973,
      "妍": 2974,
      "妖": 2975,
      "妙": 2976,
      "妣": 2977,
      "妹": 2978,
      "妻": 2979,
      "妾": 2980,
      "姆": 2981,
      "姈": 2982,
      "姉": 2983,
      "姊": 2984,
      "始": 2985,
      "姐": 2986,
      "姑": 2987,
      "姓": 2988,
      "委": 2989,
      "姚": 2990,
      "姜": 2991,
      "姝": 2992,
      "姞": 2993,
      "姣": 2994,
      "姨": 2995,
      "姪": 2996,
      "姫": 2997,
      "姬": 2998,
      "威": 2999,
      "娃": 3000,
      "娇": 3001,
      "娘": 3002,
      "娜": 3003,
      "娟": 3004,
      "娱": 3005,
      "婁": 3006,
      "婆": 3007,
      "婉": 3008,
      "婚": 3009,
      "婦": 3010,
      "婴": 3011,
      "婷": 3012,
      "媛": 3013,
      "媽": 3014,
      "嫄": 3015,
      "嬉": 3016,
      "嬌": 3017,
      "嬴": 3018,
      "孁": 3019,
      "子": 3020,
      "孔": 3021,
      "字": 3022,
      "存": 3023,
      "孙": 3024,
      "孚": 3025,
      "孛": 3026,
      "孝": 3027,
      "孟": 3028,
      "季": 3029,
      "孤": 3030,
      "学": 3031,
      "孩": 3032,
      "孫": 3033,
      "孬": 3034,
      "學": 3035,
      "宀": 3036,
      "宁": 3037,
      "宅": 3038,
      "宇": 3039,
      "守": 3040,
      "安": 3041,
      "宋": 3042,
      "完": 3043,
      "宍": 3044,
      "宏": 3045,
      "宓": 3046,
      "宗": 3047,
      "官": 3048,
      "宙": 3049,
      "定": 3050,
      "宛": 3051,
      "宜": 3052,
      "宝": 3053,
      "实": 3054,
      "実": 3055,
      "宠": 3056,
      "审": 3057,
      "客": 3058,
      "宣": 3059,
      "室": 3060,
      "宦": 3061,
      "宪": 3062,
      "宫": 3063,
      "宮": 3064,
      "宰": 3065,
      "宵": 3066,
      "家": 3067,
      "容": 3068,
      "宽": 3069,
      "宾": 3070,
      "宿": 3071,
      "寂": 3072,
      "寄": 3073,
      "寅": 3074,
      "密": 3075,
      "寇": 3076,
      "富": 3077,
      "寒": 3078,
      "寔": 3079,
      "寛": 3080,
      "察": 3081,
      "寡": 3082,
      "寢": 3083,
      "實": 3084,
      "寧": 3085,
      "寨": 3086,
      "寫": 3087,
      "寬": 3088,
      "寮": 3089,
      "寶": 3090,
      "寸": 3091,
      "对": 3092,
      "寺": 3093,
      "导": 3094,
      "対": 3095,
      "寿": 3096,
      "封": 3097,
      "専": 3098,
      "射": 3099,
      "将": 3100,
      "將": 3101,
      "尉": 3102,
      "尊": 3103,
      "對": 3104,
      "導": 3105,
      "小": 3106,
      "少": 3107,
      "尔": 3108,
      "尙": 3109,
      "尚": 3110,
      "尤": 3111,
      "尧": 3112,
      "就": 3113,
      "尸": 3114,
      "尺": 3115,
      "尼": 3116,
      "尽": 3117,
      "尾": 3118,
      "局": 3119,
      "居": 3120,
      "屈": 3121,
      "屉": 3122,
      "屋": 3123,
      "屎": 3124,
      "屏": 3125,
      "展": 3126,
      "属": 3127,
      "屠": 3128,
      "屢": 3129,
      "層": 3130,
      "屬": 3131,
      "山": 3132,
      "岁": 3133,
      "岐": 3134,
      "岑": 3135,
      "岛": 3136,
      "岡": 3137,
      "岩": 3138,
      "岭": 3139,
      "岳": 3140,
      "岵": 3141,
      "岸": 3142,
      "峡": 3143,
      "峨": 3144,
      "峯": 3145,
      "峰": 3146,
      "島": 3147,
      "峻": 3148,
      "崇": 3149,
      "崎": 3150,
      "崑": 3151,
      "崔": 3152,
      "崖": 3153,
      "崙": 3154,
      "崩": 3155,
      "崮": 3156,
      "嵐": 3157,
      "嵩": 3158,
      "嵯": 3159,
      "嶋": 3160,
      "嶼": 3161,
      "嶽": 3162,
      "巌": 3163,
      "巍": 3164,
      "川": 3165,
      "州": 3166,
      "巡": 3167,
      "巣": 3168,
      "工": 3169,
      "左": 3170,
      "巧": 3171,
      "巨": 3172,
      "巫": 3173,
      "差": 3174,
      "己": 3175,
      "已": 3176,
      "巳": 3177,
      "巴": 3178,
      "巻": 3179,
      "巾": 3180,
      "市": 3181,
      "布": 3182,
      "帅": 3183,
      "帆": 3184,
      "希": 3185,
      "帖": 3186,
      "帝": 3187,
      "帥": 3188,
      "带": 3189,
      "師": 3190,
      "席": 3191,
      "帯": 3192,
      "帰": 3193,
      "帳": 3194,
      "帶": 3195,
      "常": 3196,
      "帼": 3197,
      "幕": 3198,
      "幗": 3199,
      "幡": 3200,
      "干": 3201,
      "平": 3202,
      "年": 3203,
      "并": 3204,
      "幸": 3205,
      "幹": 3206,
      "幺": 3207,
      "幻": 3208,
      "幼": 3209,
      "幽": 3210,
      "幾": 3211,
      "广": 3212,
      "庁": 3213,
      "広": 3214,
      "庄": 3215,
      "庆": 3216,
      "庇": 3217,
      "床": 3218,
      "序": 3219,
      "庐": 3220,
      "库": 3221,
      "应": 3222,
      "底": 3223,
      "店": 3224,
      "府": 3225,
      "庞": 3226,
      "度": 3227,
      "座": 3228,
      "庫": 3229,
      "庭": 3230,
      "庶": 3231,
      "康": 3232,
      "庸": 3233,
      "廃": 3234,
      "廉": 3235,
      "廊": 3236,
      "廖": 3237,
      "廚": 3238,
      "廟": 3239,
      "廠": 3240,
      "廢": 3241,
      "廣": 3242,
      "廳": 3243,
      "廴": 3244,
      "延": 3245,
      "廷": 3246,
      "建": 3247,
      "开": 3248,
      "弁": 3249,
      "异": 3250,
      "弉": 3251,
      "弊": 3252,
      "式": 3253,
      "弓": 3254,
      "引": 3255,
      "弗": 3256,
      "弘": 3257,
      "弟": 3258,
      "张": 3259,
      "弥": 3260,
      "弩": 3261,
      "張": 3262,
      "強": 3263,
      "强": 3264,
      "弾": 3265,
      "彈": 3266,
      "彌": 3267,
      "彎": 3268,
      "归": 3269,
      "当": 3270,
      "录": 3271,
      "彙": 3272,
      "彝": 3273,
      "彡": 3274,
      "形": 3275,
      "彦": 3276,
      "彪": 3277,
      "彬": 3278,
      "彭": 3279,
      "彰": 3280,
      "影": 3281,
      "彳": 3282,
      "役": 3283,
      "彼": 3284,
      "征": 3285,
      "待": 3286,
      "很": 3287,
      "律": 3288,
      "後": 3289,
      "徐": 3290,
      "徒": 3291,
      "得": 3292,
      "徙": 3293,
      "從": 3294,
      "御": 3295,
      "復": 3296,
      "循": 3297,
      "微": 3298,
      "徳": 3299,
      "徵": 3300,
      "德": 3301,
      "徹": 3302,
      "徽": 3303,
      "心": 3304,
      "必": 3305,
      "忆": 3306,
      "忌": 3307,
      "忍": 3308,
      "志": 3309,
      "忘": 3310,
      "応": 3311,
      "忠": 3312,
      "快": 3313,
      "忯": 3314,
      "念": 3315,
      "忸": 3316,
      "忻": 3317,
      "忽": 3318,
      "态": 3319,
      "思": 3320,
      "怡": 3321,
      "急": 3322,
      "性": 3323,
      "怪": 3324,
      "总": 3325,
      "恋": 3326,
      "恒": 3327,
      "恕": 3328,
      "恥": 3329,
      "恩": 3330,
      "恪": 3331,
      "恬": 3332,
      "恭": 3333,
      "息": 3334,
      "恵": 3335,
      "恶": 3336,
      "恼": 3337,
      "悅": 3338,
      "悉": 3339,
      "悔": 3340,
      "悟": 3341,
      "悠": 3342,
      "悦": 3343,
      "您": 3344,
      "悪": 3345,
      "悫": 3346,
      "悲": 3347,
      "悼": 3348,
      "情": 3349,
      "惑": 3350,
      "惟": 3351,
      "惠": 3352,
      "惡": 3353,
      "惲": 3354,
      "想": 3355,
      "愈": 3356,
      "愉": 3357,
      "愍": 3358,
      "意": 3359,
      "愔": 3360,
      "愚": 3361,
      "愛": 3362,
      "感": 3363,
      "愷": 3364,
      "愼": 3365,
      "慈": 3366,
      "態": 3367,
      "慎": 3368,
      "慕": 3369,
      "慧": 3370,
      "慮": 3371,
      "慶": 3372,
      "憂": 3373,
      "憎": 3374,
      "憑": 3375,
      "憙": 3376,
      "憨": 3377,
      "憲": 3378,
      "憶": 3379,
      "懈": 3380,
      "應": 3381,
      "懋": 3382,
      "懌": 3383,
      "懐": 3384,
      "懷": 3385,
      "懸": 3386,
      "懺": 3387,
      "懽": 3388,
      "懿": 3389,
      "戀": 3390,
      "戈": 3391,
      "戊": 3392,
      "戋": 3393,
      "戌": 3394,
      "戎": 3395,
      "戏": 3396,
      "成": 3397,
      "我": 3398,
      "戒": 3399,
      "或": 3400,
      "战": 3401,
      "戚": 3402,
      "戛": 3403,
      "戟": 3404,
      "戡": 3405,
      "戦": 3406,
      "戯": 3407,
      "戰": 3408,
      "戲": 3409,
      "戳": 3410,
      "戴": 3411,
      "戶": 3412,
      "戸": 3413,
      "戾": 3414,
      "房": 3415,
      "所": 3416,
      "扁": 3417,
      "扇": 3418,
      "扉": 3419,
      "手": 3420,
      "扌": 3421,
      "才": 3422,
      "扎": 3423,
      "扑": 3424,
      "打": 3425,
      "托": 3426,
      "扢": 3427,
      "执": 3428,
      "扬": 3429,
      "扭": 3430,
      "扶": 3431,
      "批": 3432,
      "承": 3433,
      "技": 3434,
      "抄": 3435,
      "把": 3436,
      "投": 3437,
      "抗": 3438,
      "折": 3439,
      "抜": 3440,
      "护": 3441,
      "报": 3442,
      "抱": 3443,
      "抹": 3444,
      "押": 3445,
      "抽": 3446,
      "拂": 3447,
      "担": 3448,
      "拉": 3449,
      "拌": 3450,
      "拍": 3451,
      "拓": 3452,
      "拔": 3453,
      "招": 3454,
      "拜": 3455,
      "拡": 3456,
      "拥": 3457,
      "择": 3458,
      "括": 3459,
      "拳": 3460,
      "拼": 3461,
      "拾": 3462,
      "拿": 3463,
      "持": 3464,
      "指": 3465,
      "按": 3466,
      "挑": 3467,
      "挥": 3468,
      "振": 3469,
      "挺": 3470,
      "挽": 3471,
      "捍": 3472,
      "捏": 3473,
      "捕": 3474,
      "捡": 3475,
      "捨": 3476,
      "据": 3477,
      "捷": 3478,
      "捺": 3479,
      "掄": 3480,
      "授": 3481,
      "掉": 3482,
      "排": 3483,
      "探": 3484,
      "接": 3485,
      "推": 3486,
      "掲": 3487,
      "掷": 3488,
      "提": 3489,
      "揖": 3490,
      "揚": 3491,
      "揭": 3492,
      "援": 3493,
      "損": 3494,
      "搖": 3495,
      "摄": 3496,
      "摇": 3497,
      "摘": 3498,
      "摩": 3499,
      "摸": 3500,
      "撃": 3501,
      "撇": 3502,
      "撐": 3503,
      "撒": 3504,
      "撕": 3505,
      "撞": 3506,
      "撫": 3507,
      "播": 3508,
      "撰": 3509,
      "擊": 3510,
      "操": 3511,
      "擧": 3512,
      "擬": 3513,
      "攘": 3514,
      "攝": 3515,
      "支": 3516,
      "攵": 3517,
      "改": 3518,
      "攻": 3519,
      "攽": 3520,
      "放": 3521,
      "政": 3522,
      "故": 3523,
      "效": 3524,
      "敏": 3525,
      "敕": 3526,
      "敖": 3527,
      "教": 3528,
      "敞": 3529,
      "敢": 3530,
      "散": 3531,
      "敦": 3532,
      "敬": 3533,
      "数": 3534,
      "整": 3535,
      "敵": 3536,
      "敷": 3537,
      "數": 3538,
      "文": 3539,
      "斉": 3540,
      "斋": 3541,
      "斎": 3542,
      "斑": 3543,
      "斗": 3544,
      "料": 3545,
      "斛": 3546,
      "斤": 3547,
      "斬": 3548,
      "斯": 3549,
      "新": 3550,
      "斷": 3551,
      "方": 3552,
      "於": 3553,
      "施": 3554,
      "旁": 3555,
      "旅": 3556,
      "旋": 3557,
      "族": 3558,
      "旗": 3559,
      "无": 3560,
      "既": 3561,
      "日": 3562,
      "旦": 3563,
      "旧": 3564,
      "旨": 3565,
      "早": 3566,
      "时": 3567,
      "旷": 3568,
      "旺": 3569,
      "旻": 3570,
      "昆": 3571,
      "昇": 3572,
      "昉": 3573,
      "昊": 3574,
      "昌": 3575,
      "明": 3576,
      "易": 3577,
      "昔": 3578,
      "昕": 3579,
      "昞": 3580,
      "星": 3581,
      "映": 3582,
      "春": 3583,
      "昫": 3584,
      "昭": 3585,
      "是": 3586,
      "昱": 3587,
      "昴": 3588,
      "昺": 3589,
      "显": 3590,
      "時": 3591,
      "晉": 3592,
      "晋": 3593,
      "晏": 3594,
      "晖": 3595,
      "晚": 3596,
      "晦": 3597,
      "晩": 3598,
      "普": 3599,
      "景": 3600,
      "晴": 3601,
      "智": 3602,
      "暁": 3603,
      "暂": 3604,
      "暉": 3605,
      "暗": 3606,
      "暤": 3607,
      "暦": 3608,
      "暮": 3609,
      "暲": 3610,
      "曄": 3611,
      "曆": 3612,
      "曇": 3613,
      "曜": 3614,
      "曰": 3615,
      "曲": 3616,
      "更": 3617,
      "曷": 3618,
      "書": 3619,
      "曹": 3620,
      "曼": 3621,
      "曾": 3622,
      "替": 3623,
      "最": 3624,
      "會": 3625,
      "月": 3626,
      "有": 3627,
      "服": 3628,
      "朏": 3629,
      "朗": 3630,
      "望": 3631,
      "朝": 3632,
      "期": 3633,
      "木": 3634,
      "未": 3635,
      "末": 3636,
      "本": 3637,
      "札": 3638,
      "术": 3639,
      "朱": 3640,
      "朴": 3641,
      "朵": 3642,
      "朶": 3643,
      "机": 3644,
      "杀": 3645,
      "杂": 3646,
      "权": 3647,
      "杆": 3648,
      "杉": 3649,
      "李": 3650,
      "杏": 3651,
      "材": 3652,
      "村": 3653,
      "杖": 3654,
      "杜": 3655,
      "杞": 3656,
      "束": 3657,
      "条": 3658,
      "来": 3659,
      "杨": 3660,
      "杯": 3661,
      "杰": 3662,
      "東": 3663,
      "杲": 3664,
      "杵": 3665,
      "松": 3666,
      "板": 3667,
      "极": 3668,
      "构": 3669,
      "析": 3670,
      "枕": 3671,
      "林": 3672,
      "果": 3673,
      "枝": 3674,
      "枞": 3675,
      "枠": 3676,
      "枡": 3677,
      "枪": 3678,
      "枯": 3679,
      "枲": 3680,
      "柄": 3681,
      "柏": 3682,
      "染": 3683,
      "柔": 3684,
      "查": 3685,
      "柬": 3686,
      "柯": 3687,
      "柱": 3688,
      "柳": 3689,
      "柴": 3690,
      "柷": 3691,
      "査": 3692,
      "柿": 3693,
      "栄": 3694,
      "树": 3695,
      "栖": 3696,
      "栗": 3697,
      "校": 3698,
      "株": 3699,
      "样": 3700,
      "核": 3701,
      "根": 3702,
      "格": 3703,
      "桂": 3704,
      "桃": 3705,
      "框": 3706,
      "案": 3707,
      "桐": 3708,
      "桓": 3709,
      "桜": 3710,
      "桝": 3711,
      "桥": 3712,
      "桶": 3713,
      "梁": 3714,
      "梅": 3715,
      "梆": 3716,
      "條": 3717,
      "梣": 3718,
      "梨": 3719,
      "梯": 3720,
      "械": 3721,
      "梵": 3722,
      "梶": 3723,
      "检": 3724,
      "棉": 3725,
      "棋": 3726,
      "棍": 3727,
      "棒": 3728,
      "棚": 3729,
      "棟": 3730,
      "棠": 3731,
      "森": 3732,
      "椎": 3733,
      "椒": 3734,
      "椰": 3735,
      "椿": 3736,
      "楊": 3737,
      "楓": 3738,
      "楔": 3739,
      "楕": 3740,
      "楚": 3741,
      "楞": 3742,
      "楠": 3743,
      "楫": 3744,
      "業": 3745,
      "楳": 3746,
      "極": 3747,
      "楷": 3748,
      "楼": 3749,
      "楽": 3750,
      "概": 3751,
      "榆": 3752,
      "榊": 3753,
      "榮": 3754,
      "槍": 3755,
      "槐": 3756,
      "槑": 3757,
      "様": 3758,
      "槽": 3759,
      "樂": 3760,
      "樋": 3761,
      "樑": 3762,
      "樓": 3763,
      "樞": 3764,
      "樟": 3765,
      "模": 3766,
      "権": 3767,
      "横": 3768,
      "樫": 3769,
      "樱": 3770,
      "樵": 3771,
      "樹": 3772,
      "樺": 3773,
      "樽": 3774,
      "橋": 3775,
      "橘": 3776,
      "機": 3777,
      "橫": 3778,
      "檀": 3779,
      "檔": 3780,
      "櫛": 3781,
      "櫻": 3782,
      "權": 3783,
      "次": 3784,
      "欢": 3785,
      "欣": 3786,
      "欧": 3787,
      "欲": 3788,
      "欽": 3789,
      "歌": 3790,
      "歐": 3791,
      "歓": 3792,
      "歡": 3793,
      "止": 3794,
      "正": 3795,
      "此": 3796,
      "步": 3797,
      "武": 3798,
      "歩": 3799,
      "歲": 3800,
      "歳": 3801,
      "歴": 3802,
      "歷": 3803,
      "歸": 3804,
      "死": 3805,
      "殉": 3806,
      "殊": 3807,
      "残": 3808,
      "殖": 3809,
      "殘": 3810,
      "殤": 3811,
      "段": 3812,
      "殷": 3813,
      "殺": 3814,
      "殻": 3815,
      "殿": 3816,
      "毀": 3817,
      "毅": 3818,
      "母": 3819,
      "毎": 3820,
      "每": 3821,
      "毒": 3822,
      "毓": 3823,
      "比": 3824,
      "毗": 3825,
      "毛": 3826,
      "氏": 3827,
      "氐": 3828,
      "民": 3829,
      "气": 3830,
      "気": 3831,
      "氣": 3832,
      "水": 3833,
      "氵": 3834,
      "氷": 3835,
      "永": 3836,
      "汁": 3837,
      "求": 3838,
      "汉": 3839,
      "汗": 3840,
      "汝": 3841,
      "江": 3842,
      "池": 3843,
      "污": 3844,
      "汤": 3845,
      "汪": 3846,
      "汲": 3847,
      "汴": 3848,
      "決": 3849,
      "汽": 3850,
      "沁": 3851,
      "沃": 3852,
      "沈": 3853,
      "沐": 3854,
      "沒": 3855,
      "沖": 3856,
      "沙": 3857,
      "沚": 3858,
      "沢": 3859,
      "沪": 3860,
      "河": 3861,
      "油": 3862,
      "治": 3863,
      "沼": 3864,
      "況": 3865,
      "泉": 3866,
      "泊": 3867,
      "法": 3868,
      "泡": 3869,
      "波": 3870,
      "泥": 3871,
      "泰": 3872,
      "洁": 3873,
      "洋": 3874,
      "洗": 3875,
      "洛": 3876,
      "洞": 3877,
      "洡": 3878,
      "津": 3879,
      "洪": 3880,
      "洲": 3881,
      "活": 3882,
      "派": 3883,
      "流": 3884,
      "浄": 3885,
      "浅": 3886,
      "测": 3887,
      "济": 3888,
      "浙": 3889,
      "浚": 3890,
      "浜": 3891,
      "浦": 3892,
      "浩": 3893,
      "浪": 3894,
      "浮": 3895,
      "浴": 3896,
      "海": 3897,
      "涉": 3898,
      "涌": 3899,
      "液": 3900,
      "涼": 3901,
      "涿": 3902,
      "淑": 3903,
      "淡": 3904,
      "淨": 3905,
      "淬": 3906,
      "淮": 3907,
      "深": 3908,
      "淳": 3909,
      "淵": 3910,
      "混": 3911,
      "淸": 3912,
      "渃": 3913,
      "清": 3914,
      "済": 3915,
      "渉": 3916,
      "渊": 3917,
      "渟": 3918,
      "渠": 3919,
      "渡": 3920,
      "渥": 3921,
      "温": 3922,
      "港": 3923,
      "游": 3924,
      "渺": 3925,
      "渾": 3926,
      "湍": 3927,
      "湖": 3928,
      "湘": 3929,
      "湟": 3930,
      "湯": 3931,
      "湾": 3932,
      "満": 3933,
      "源": 3934,
      "準": 3935,
      "溝": 3936,
      "溥": 3937,
      "溪": 3938,
      "溫": 3939,
      "滅": 3940,
      "滋": 3941,
      "滑": 3942,
      "滝": 3943,
      "满": 3944,
      "滬": 3945,
      "滿": 3946,
      "漆": 3947,
      "漏": 3948,
      "漓": 3949,
      "演": 3950,
      "漢": 3951,
      "漫": 3952,
      "漬": 3953,
      "漳": 3954,
      "漿": 3955,
      "潔": 3956,
      "潘": 3957,
      "潜": 3958,
      "潟": 3959,
      "潤": 3960,
      "潭": 3961,
      "澄": 3962,
      "澤": 3963,
      "澳": 3964,
      "濁": 3965,
      "濂": 3966,
      "濃": 3967,
      "濟": 3968,
      "濫": 3969,
      "濮": 3970,
      "濱": 3971,
      "瀨": 3972,
      "瀬": 3973,
      "灘": 3974,
      "灣": 3975,
      "火": 3976,
      "灬": 3977,
      "灭": 3978,
      "灯": 3979,
      "灰": 3980,
      "灵": 3981,
      "灶": 3982,
      "災": 3983,
      "炉": 3984,
      "炎": 3985,
      "炒": 3986,
      "炮": 3987,
      "炷": 3988,
      "炸": 3989,
      "点": 3990,
      "為": 3991,
      "烈": 3992,
      "烏": 3993,
      "烙": 3994,
      "烤": 3995,
      "烦": 3996,
      "焚": 3997,
      "無": 3998,
      "焦": 3999,
      "然": 4000,
      "焼": 4001,
      "煌": 4002,
      "煎": 4003,
      "煕": 4004,
      "煞": 4005,
      "煤": 4006,
      "煥": 4007,
      "煦": 4008,
      "照": 4009,
      "煨": 4010,
      "煮": 4011,
      "熈": 4012,
      "熊": 4013,
      "熙": 4014,
      "熜": 4015,
      "熟": 4016,
      "熱": 4017,
      "熹": 4018,
      "燃": 4019,
      "燈": 4020,
      "燉": 4021,
      "燒": 4022,
      "燕": 4023,
      "營": 4024,
      "燮": 4025,
      "燾": 4026,
      "爆": 4027,
      "爛": 4028,
      "爪": 4029,
      "爫": 4030,
      "爭": 4031,
      "爱": 4032,
      "爵": 4033,
      "父": 4034,
      "爷": 4035,
      "爸": 4036,
      "爺": 4037,
      "爽": 4038,
      "爾": 4039,
      "片": 4040,
      "版": 4041,
      "牌": 4042,
      "牙": 4043,
      "牛": 4044,
      "牟": 4045,
      "牧": 4046,
      "物": 4047,
      "特": 4048,
      "牽": 4049,
      "犀": 4050,
      "犁": 4051,
      "犬": 4052,
      "犭": 4053,
      "犯": 4054,
      "状": 4055,
      "狂": 4056,
      "狄": 4057,
      "狐": 4058,
      "狖": 4059,
      "狗": 4060,
      "狦": 4061,
      "狩": 4062,
      "独": 4063,
      "狮": 4064,
      "狸": 4065,
      "狼": 4066,
      "猗": 4067,
      "猛": 4068,
      "猟": 4069,
      "猪": 4070,
      "猫": 4071,
      "献": 4072,
      "猷": 4073,
      "猺": 4074,
      "猿": 4075,
      "獅": 4076,
      "獨": 4077,
      "獲": 4078,
      "獻": 4079,
      "玄": 4080,
      "率": 4081,
      "玉": 4082,
      "王": 4083,
      "玗": 4084,
      "玛": 4085,
      "玟": 4086,
      "环": 4087,
      "玲": 4088,
      "珉": 4089,
      "珊": 4090,
      "珍": 4091,
      "珠": 4092,
      "珣": 4093,
      "珪": 4094,
      "班": 4095,
      "現": 4096,
      "球": 4097,
      "理": 4098,
      "琛": 4099,
      "琢": 4100,
      "琦": 4101,
      "琨": 4102,
      "琪": 4103,
      "琮": 4104,
      "琳": 4105,
      "琴": 4106,
      "琼": 4107,
      "瑑": 4108,
      "瑒": 4109,
      "瑚": 4110,
      "瑛": 4111,
      "瑜": 4112,
      "瑞": 4113,
      "瑟": 4114,
      "瑤": 4115,
      "瑩": 4116,
      "瑭": 4117,
      "瑾": 4118,
      "璀": 4119,
      "璈": 4120,
      "璋": 4121,
      "璜": 4122,
      "璧": 4123,
      "環": 4124,
      "璽": 4125,
      "瓊": 4126,
      "瓌": 4127,
      "瓜": 4128,
      "瓣": 4129,
      "瓦": 4130,
      "甑": 4131,
      "甘": 4132,
      "甚": 4133,
      "甜": 4134,
      "生": 4135,
      "產": 4136,
      "産": 4137,
      "用": 4138,
      "甫": 4139,
      "甬": 4140,
      "田": 4141,
      "由": 4142,
      "甲": 4143,
      "申": 4144,
      "电": 4145,
      "男": 4146,
      "町": 4147,
      "画": 4148,
      "界": 4149,
      "畎": 4150,
      "畏": 4151,
      "畑": 4152,
      "畔": 4153,
      "留": 4154,
      "畢": 4155,
      "略": 4156,
      "番": 4157,
      "畫": 4158,
      "異": 4159,
      "當": 4160,
      "疆": 4161,
      "疋": 4162,
      "疎": 4163,
      "疏": 4164,
      "疑": 4165,
      "疒": 4166,
      "疫": 4167,
      "疹": 4168,
      "病": 4169,
      "症": 4170,
      "痘": 4171,
      "瘟": 4172,
      "癸": 4173,
      "発": 4174,
      "登": 4175,
      "發": 4176,
      "白": 4177,
      "百": 4178,
      "的": 4179,
      "皆": 4180,
      "皇": 4181,
      "皓": 4182,
      "皖": 4183,
      "皜": 4184,
      "皝": 4185,
      "皮": 4186,
      "皿": 4187,
      "盂": 4188,
      "盅": 4189,
      "盆": 4190,
      "盈": 4191,
      "益": 4192,
      "监": 4193,
      "盖": 4194,
      "盘": 4195,
      "盛": 4196,
      "盟": 4197,
      "監": 4198,
      "盤": 4199,
      "盧": 4200,
      "目": 4201,
      "直": 4202,
      "相": 4203,
      "省": 4204,
      "看": 4205,
      "県": 4206,
      "眞": 4207,
      "真": 4208,
      "眠": 4209,
      "眼": 4210,
      "眾": 4211,
      "着": 4212,
      "督": 4213,
      "睦": 4214,
      "睿": 4215,
      "瞻": 4216,
      "瞿": 4217,
      "矛": 4218,
      "矟": 4219,
      "矢": 4220,
      "矣": 4221,
      "知": 4222,
      "矩": 4223,
      "短": 4224,
      "石": 4225,
      "矿": 4226,
      "码": 4227,
      "砂": 4228,
      "研": 4229,
      "砲": 4230,
      "破": 4231,
      "确": 4232,
      "碎": 4233,
      "碑": 4234,
      "碗": 4235,
      "碧": 4236,
      "碩": 4237,
      "確": 4238,
      "碼": 4239,
      "磁": 4240,
      "磨": 4241,
      "磯": 4242,
      "礎": 4243,
      "礫": 4244,
      "礬": 4245,
      "示": 4246,
      "礻": 4247,
      "礼": 4248,
      "社": 4249,
      "祀": 4250,
      "祁": 4251,
      "祇": 4252,
      "祈": 4253,
      "祐": 4254,
      "祖": 4255,
      "祚": 4256,
      "祝": 4257,
      "神": 4258,
      "祥": 4259,
      "票": 4260,
      "祭": 4261,
      "祸": 4262,
      "祺": 4263,
      "祿": 4264,
      "禁": 4265,
      "禄": 4266,
      "禅": 4267,
      "禎": 4268,
      "福": 4269,
      "禖": 4270,
      "禦": 4271,
      "禧": 4272,
      "禩": 4273,
      "禪": 4274,
      "禮": 4275,
      "禹": 4276,
      "禽": 4277,
      "禾": 4278,
      "禿": 4279,
      "秀": 4280,
      "私": 4281,
      "秂": 4282,
      "秉": 4283,
      "秋": 4284,
      "种": 4285,
      "科": 4286,
      "秘": 4287,
      "租": 4288,
      "秦": 4289,
      "秩": 4290,
      "秭": 4291,
      "称": 4292,
      "移": 4293,
      "稀": 4294,
      "程": 4295,
      "稠": 4296,
      "種": 4297,
      "稲": 4298,
      "稳": 4299,
      "稹": 4300,
      "稻": 4301,
      "稽": 4302,
      "穀": 4303,
      "穂": 4304,
      "穆": 4305,
      "積": 4306,
      "穎": 4307,
      "穏": 4308,
      "穠": 4309,
      "穰": 4310,
      "穴": 4311,
      "究": 4312,
      "穹": 4313,
      "空": 4314,
      "突": 4315,
      "窓": 4316,
      "窟": 4317,
      "窩": 4318,
      "窪": 4319,
      "竃": 4320,
      "竇": 4321,
      "竈": 4322,
      "立": 4323,
      "竖": 4324,
      "站": 4325,
      "竜": 4326,
      "竞": 4327,
      "章": 4328,
      "童": 4329,
      "端": 4330,
      "竴": 4331,
      "競": 4332,
      "竹": 4333,
      "竺": 4334,
      "竿": 4335,
      "笈": 4336,
      "笋": 4337,
      "笑": 4338,
      "笔": 4339,
      "笛": 4340,
      "笠": 4341,
      "符": 4342,
      "笨": 4343,
      "第": 4344,
      "笹": 4345,
      "筆": 4346,
      "等": 4347,
      "筑": 4348,
      "筒": 4349,
      "答": 4350,
      "筯": 4351,
      "简": 4352,
      "箕": 4353,
      "算": 4354,
      "管": 4355,
      "箭": 4356,
      "箱": 4357,
      "節": 4358,
      "範": 4359,
      "篆": 4360,
      "篇": 4361,
      "篠": 4362,
      "篤": 4363,
      "篪": 4364,
      "簡": 4365,
      "簫": 4366,
      "簽": 4367,
      "籃": 4368,
      "籍": 4369,
      "籠": 4370,
      "籤": 4371,
      "米": 4372,
      "类": 4373,
      "粉": 4374,
      "粋": 4375,
      "粒": 4376,
      "粟": 4377,
      "粥": 4378,
      "粮": 4379,
      "粲": 4380,
      "粵": 4381,
      "粸": 4382,
      "粹": 4383,
      "精": 4384,
      "粿": 4385,
      "糊": 4386,
      "糕": 4387,
      "糖": 4388,
      "糠": 4389,
      "糸": 4390,
      "系": 4391,
      "紀": 4392,
      "約": 4393,
      "紅": 4394,
      "紇": 4395,
      "納": 4396,
      "紐": 4397,
      "純": 4398,
      "紘": 4399,
      "級": 4400,
      "素": 4401,
      "索": 4402,
      "紧": 4403,
      "紫": 4404,
      "累": 4405,
      "細": 4406,
      "紹": 4407,
      "組": 4408,
      "経": 4409,
      "結": 4410,
      "絕": 4411,
      "絞": 4412,
      "給": 4413,
      "統": 4414,
      "絲": 4415,
      "絵": 4416,
      "絶": 4417,
      "綏": 4418,
      "經": 4419,
      "継": 4420,
      "続": 4421,
      "綜": 4422,
      "綠": 4423,
      "維": 4424,
      "綱": 4425,
      "網": 4426,
      "綾": 4427,
      "緊": 4428,
      "緋": 4429,
      "総": 4430,
      "緑": 4431,
      "緒": 4432,
      "線": 4433,
      "締": 4434,
      "編": 4435,
      "緩": 4436,
      "緯": 4437,
      "練": 4438,
      "縄": 4439,
      "縛": 4440,
      "縣": 4441,
      "縮": 4442,
      "縱": 4443,
      "總": 4444,
      "績": 4445,
      "繁": 4446,
      "織": 4447,
      "繚": 4448,
      "繼": 4449,
      "續": 4450,
      "纖": 4451,
      "纟": 4452,
      "红": 4453,
      "约": 4454,
      "级": 4455,
      "纪": 4456,
      "纯": 4457,
      "纸": 4458,
      "练": 4459,
      "组": 4460,
      "细": 4461,
      "织": 4462,
      "终": 4463,
      "绍": 4464,
      "经": 4465,
      "结": 4466,
      "给": 4467,
      "绞": 4468,
      "统": 4469,
      "继": 4470,
      "绮": 4471,
      "绳": 4472,
      "维": 4473,
      "综": 4474,
      "编": 4475,
      "缘": 4476,
      "缺": 4477,
      "网": 4478,
      "罕": 4479,
      "罗": 4480,
      "罚": 4481,
      "罪": 4482,
      "置": 4483,
      "署": 4484,
      "羅": 4485,
      "羊": 4486,
      "羌": 4487,
      "美": 4488,
      "群": 4489,
      "義": 4490,
      "羯": 4491,
      "羽": 4492,
      "翁": 4493,
      "翊": 4494,
      "翎": 4495,
      "習": 4496,
      "翔": 4497,
      "翻": 4498,
      "翼": 4499,
      "耀": 4500,
      "老": 4501,
      "考": 4502,
      "者": 4503,
      "而": 4504,
      "耐": 4505,
      "耳": 4506,
      "耶": 4507,
      "联": 4508,
      "聖": 4509,
      "聚": 4510,
      "聞": 4511,
      "聪": 4512,
      "聯": 4513,
      "聰": 4514,
      "聲": 4515,
      "聶": 4516,
      "職": 4517,
      "聽": 4518,
      "肃": 4519,
      "肅": 4520,
      "肆": 4521,
      "肇": 4522,
      "肉": 4523,
      "肖": 4524,
      "肚": 4525,
      "肠": 4526,
      "股": 4527,
      "肥": 4528,
      "肩": 4529,
      "肱": 4530,
      "育": 4531,
      "肴": 4532,
      "胃": 4533,
      "胄": 4534,
      "背": 4535,
      "胎": 4536,
      "胜": 4537,
      "胝": 4538,
      "胞": 4539,
      "胡": 4540,
      "胤": 4541,
      "胴": 4542,
      "胸": 4543,
      "能": 4544,
      "脇": 4545,
      "脈": 4546,
      "脑": 4547,
      "脩": 4548,
      "脫": 4549,
      "脱": 4550,
      "脷": 4551,
      "腊": 4552,
      "腐": 4553,
      "腕": 4554,
      "腦": 4555,
      "腰": 4556,
      "腹": 4557,
      "腿": 4558,
      "膎": 4559,
      "膏": 4560,
      "膠": 4561,
      "膳": 4562,
      "臣": 4563,
      "臥": 4564,
      "臧": 4565,
      "臨": 4566,
      "自": 4567,
      "臭": 4568,
      "至": 4569,
      "致": 4570,
      "臺": 4571,
      "臼": 4572,
      "與": 4573,
      "興": 4574,
      "舉": 4575,
      "舊": 4576,
      "舌": 4577,
      "舍": 4578,
      "舎": 4579,
      "舒": 4580,
      "舘": 4581,
      "舜": 4582,
      "舞": 4583,
      "舟": 4584,
      "舩": 4585,
      "航": 4586,
      "般": 4587,
      "舱": 4588,
      "舶": 4589,
      "船": 4590,
      "艇": 4591,
      "艦": 4592,
      "良": 4593,
      "色": 4594,
      "艺": 4595,
      "艾": 4596,
      "节": 4597,
      "芋": 4598,
      "芝": 4599,
      "芦": 4600,
      "芮": 4601,
      "花": 4602,
      "芳": 4603,
      "芸": 4604,
      "芹": 4605,
      "芻": 4606,
      "芽": 4607,
      "芾": 4608,
      "苏": 4609,
      "苑": 4610,
      "苔": 4611,
      "苗": 4612,
      "苡": 4613,
      "若": 4614,
      "苦": 4615,
      "英": 4616,
      "苴": 4617,
      "茂": 4618,
      "范": 4619,
      "茄": 4620,
      "茅": 4621,
      "茉": 4622,
      "茨": 4623,
      "茴": 4624,
      "茵": 4625,
      "茶": 4626,
      "茹": 4627,
      "荀": 4628,
      "荆": 4629,
      "草": 4630,
      "荊": 4631,
      "荒": 4632,
      "荞": 4633,
      "荣": 4634,
      "药": 4635,
      "荷": 4636,
      "荻": 4637,
      "莉": 4638,
      "莊": 4639,
      "莎": 4640,
      "莒": 4641,
      "莔": 4642,
      "莩": 4643,
      "莫": 4644,
      "莲": 4645,
      "菅": 4646,
      "菊": 4647,
      "菓": 4648,
      "菜": 4649,
      "菟": 4650,
      "菩": 4651,
      "華": 4652,
      "菱": 4653,
      "菲": 4654,
      "菴": 4655,
      "菻": 4656,
      "萊": 4657,
      "萌": 4658,
      "萍": 4659,
      "萎": 4660,
      "营": 4661,
      "萧": 4662,
      "萨": 4663,
      "萬": 4664,
      "萱": 4665,
      "落": 4666,
      "葉": 4667,
      "著": 4668,
      "葛": 4669,
      "葡": 4670,
      "董": 4671,
      "葫": 4672,
      "葬": 4673,
      "葷": 4674,
      "蒂": 4675,
      "蒙": 4676,
      "蒲": 4677,
      "蒸": 4678,
      "蒼": 4679,
      "蓄": 4680,
      "蓋": 4681,
      "蓑": 4682,
      "蓮": 4683,
      "蔀": 4684,
      "蔑": 4685,
      "蔡": 4686,
      "蔣": 4687,
      "蔭": 4688,
      "蔵": 4689,
      "蔷": 4690,
      "蔽": 4691,
      "蕃": 4692,
      "蕉": 4693,
      "蕊": 4694,
      "蕎": 4695,
      "蕤": 4696,
      "蕨": 4697,
      "蕩": 4698,
      "蕭": 4699,
      "薄": 4700,
      "薇": 4701,
      "薔": 4702,
      "薙": 4703,
      "薛": 4704,
      "薩": 4705,
      "薪": 4706,
      "薯": 4707,
      "藍": 4708,
      "藏": 4709,
      "藝": 4710,
      "藤": 4711,
      "藥": 4712,
      "藩": 4713,
      "藻": 4714,
      "蘆": 4715,
      "蘇": 4716,
      "蘊": 4717,
      "蘢": 4718,
      "蘭": 4719,
      "蘸": 4720,
      "虎": 4721,
      "虐": 4722,
      "虑": 4723,
      "虔": 4724,
      "處": 4725,
      "虚": 4726,
      "虜": 4727,
      "虞": 4728,
      "號": 4729,
      "虫": 4730,
      "虬": 4731,
      "虹": 4732,
      "蚀": 4733,
      "蚊": 4734,
      "蚤": 4735,
      "蚩": 4736,
      "蛇": 4737,
      "蛛": 4738,
      "蛞": 4739,
      "蛤": 4740,
      "蛭": 4741,
      "蛮": 4742,
      "蛸": 4743,
      "蜀": 4744,
      "蜈": 4745,
      "蜘": 4746,
      "蜙": 4747,
      "蜜": 4748,
      "蝓": 4749,
      "蝦": 4750,
      "蝴": 4751,
      "蝶": 4752,
      "融": 4753,
      "螺": 4754,
      "蟳": 4755,
      "蟹": 4756,
      "蠘": 4757,
      "蠻": 4758,
      "血": 4759,
      "衆": 4760,
      "行": 4761,
      "衍": 4762,
      "術": 4763,
      "街": 4764,
      "衛": 4765,
      "衞": 4766,
      "衡": 4767,
      "衣": 4768,
      "补": 4769,
      "表": 4770,
      "衫": 4771,
      "袁": 4772,
      "袈": 4773,
      "袟": 4774,
      "袭": 4775,
      "裁": 4776,
      "装": 4777,
      "裏": 4778,
      "裕": 4779,
      "裙": 4780,
      "補": 4781,
      "裟": 4782,
      "裴": 4783,
      "裸": 4784,
      "製": 4785,
      "褂": 4786,
      "複": 4787,
      "褒": 4788,
      "褥": 4789,
      "襄": 4790,
      "襲": 4791,
      "西": 4792,
      "要": 4793,
      "見": 4794,
      "規": 4795,
      "視": 4796,
      "覚": 4797,
      "覧": 4798,
      "覩": 4799,
      "親": 4800,
      "観": 4801,
      "覺": 4802,
      "覽": 4803,
      "觀": 4804,
      "观": 4805,
      "规": 4806,
      "视": 4807,
      "觉": 4808,
      "角": 4809,
      "解": 4810,
      "觸": 4811,
      "言": 4812,
      "訂": 4813,
      "計": 4814,
      "討": 4815,
      "訓": 4816,
      "託": 4817,
      "記": 4818,
      "訟": 4819,
      "訣": 4820,
      "設": 4821,
      "許": 4822,
      "訳": 4823,
      "訴": 4824,
      "訶": 4825,
      "註": 4826,
      "証": 4827,
      "詁": 4828,
      "詔": 4829,
      "評": 4830,
      "詞": 4831,
      "詠": 4832,
      "試": 4833,
      "詩": 4834,
      "詰": 4835,
      "話": 4836,
      "誉": 4837,
      "誌": 4838,
      "認": 4839,
      "誕": 4840,
      "語": 4841,
      "誠": 4842,
      "誦": 4843,
      "誨": 4844,
      "說": 4845,
      "説": 4846,
      "読": 4847,
      "課": 4848,
      "調": 4849,
      "談": 4850,
      "論": 4851,
      "諜": 4852,
      "諟": 4853,
      "諡": 4854,
      "諦": 4855,
      "諭": 4856,
      "諷": 4857,
      "諸": 4858,
      "謂": 4859,
      "謙": 4860,
      "謚": 4861,
      "講": 4862,
      "謝": 4863,
      "謠": 4864,
      "謨": 4865,
      "證": 4866,
      "識": 4867,
      "譚": 4868,
      "譜": 4869,
      "警": 4870,
      "譯": 4871,
      "議": 4872,
      "護": 4873,
      "讃": 4874,
      "讐": 4875,
      "讓": 4876,
      "讖": 4877,
      "讚": 4878,
      "讠": 4879,
      "计": 4880,
      "认": 4881,
      "让": 4882,
      "训": 4883,
      "议": 4884,
      "记": 4885,
      "论": 4886,
      "设": 4887,
      "访": 4888,
      "证": 4889,
      "评": 4890,
      "译": 4891,
      "诗": 4892,
      "诚": 4893,
      "话": 4894,
      "详": 4895,
      "语": 4896,
      "诰": 4897,
      "说": 4898,
      "请": 4899,
      "诸": 4900,
      "诺": 4901,
      "谁": 4902,
      "调": 4903,
      "谈": 4904,
      "谋": 4905,
      "谛": 4906,
      "谢": 4907,
      "谥": 4908,
      "谦": 4909,
      "谶": 4910,
      "谷": 4911,
      "谿": 4912,
      "豁": 4913,
      "豆": 4914,
      "豉": 4915,
      "豊": 4916,
      "豐": 4917,
      "豕": 4918,
      "豚": 4919,
      "象": 4920,
      "豢": 4921,
      "豪": 4922,
      "豬": 4923,
      "豸": 4924,
      "豹": 4925,
      "貅": 4926,
      "貓": 4927,
      "貔": 4928,
      "貘": 4929,
      "貝": 4930,
      "貞": 4931,
      "負": 4932,
      "財": 4933,
      "貢": 4934,
      "貨": 4935,
      "貪": 4936,
      "貫": 4937,
      "責": 4938,
      "貴": 4939,
      "貶": 4940,
      "賀": 4941,
      "資": 4942,
      "賓": 4943,
      "賜": 4944,
      "賢": 4945,
      "賦": 4946,
      "質": 4947,
      "賴": 4948,
      "贅": 4949,
      "贈": 4950,
      "贓": 4951,
      "贛": 4952,
      "贝": 4953,
      "贞": 4954,
      "贤": 4955,
      "质": 4956,
      "购": 4957,
      "贯": 4958,
      "贵": 4959,
      "贾": 4960,
      "资": 4961,
      "赋": 4962,
      "赏": 4963,
      "赔": 4964,
      "赖": 4965,
      "赛": 4966,
      "赠": 4967,
      "赣": 4968,
      "赤": 4969,
      "赫": 4970,
      "走": 4971,
      "赵": 4972,
      "起": 4973,
      "超": 4974,
      "越": 4975,
      "趙": 4976,
      "趟": 4977,
      "趨": 4978,
      "足": 4979,
      "跂": 4980,
      "跆": 4981,
      "跋": 4982,
      "跌": 4983,
      "跡": 4984,
      "路": 4985,
      "跳": 4986,
      "践": 4987,
      "踊": 4988,
      "蹄": 4989,
      "蹤": 4990,
      "蹩": 4991,
      "蹴": 4992,
      "身": 4993,
      "躬": 4994,
      "車": 4995,
      "軌": 4996,
      "軍": 4997,
      "軒": 4998,
      "転": 4999,
      "軻": 5000,
      "載": 5001,
      "輔": 5002,
      "輕": 5003,
      "輝": 5004,
      "輪": 5005,
      "輶": 5006,
      "輸": 5007,
      "輿": 5008,
      "轄": 5009,
      "轉": 5010,
      "车": 5011,
      "轨": 5012,
      "轩": 5013,
      "轫": 5014,
      "轻": 5015,
      "轼": 5016,
      "载": 5017,
      "辉": 5018,
      "辕": 5019,
      "辖": 5020,
      "辛": 5021,
      "辞": 5022,
      "辟": 5023,
      "辣": 5024,
      "辨": 5025,
      "辭": 5026,
      "辰": 5027,
      "辱": 5028,
      "農": 5029,
      "辶": 5030,
      "边": 5031,
      "辺": 5032,
      "辻": 5033,
      "込": 5034,
      "辽": 5035,
      "达": 5036,
      "迁": 5037,
      "迅": 5038,
      "过": 5039,
      "迎": 5040,
      "运": 5041,
      "近": 5042,
      "返": 5043,
      "这": 5044,
      "进": 5045,
      "远": 5046,
      "迥": 5047,
      "迦": 5048,
      "迪": 5049,
      "迭": 5050,
      "述": 5051,
      "迷": 5052,
      "追": 5053,
      "退": 5054,
      "送": 5055,
      "适": 5056,
      "逊": 5057,
      "途": 5058,
      "通": 5059,
      "逝": 5060,
      "速": 5061,
      "造": 5062,
      "逢": 5063,
      "連": 5064,
      "週": 5065,
      "進": 5066,
      "逸": 5067,
      "遅": 5068,
      "遇": 5069,
      "遊": 5070,
      "運": 5071,
      "遍": 5072,
      "過": 5073,
      "道": 5074,
      "達": 5075,
      "違": 5076,
      "遗": 5077,
      "遙": 5078,
      "遠": 5079,
      "遣": 5080,
      "遭": 5081,
      "遲": 5082,
      "遵": 5083,
      "遷": 5084,
      "選": 5085,
      "遺": 5086,
      "遼": 5087,
      "避": 5088,
      "還": 5089,
      "邇": 5090,
      "邊": 5091,
      "邏": 5092,
      "邑": 5093,
      "邕": 5094,
      "邗": 5095,
      "邝": 5096,
      "邢": 5097,
      "那": 5098,
      "邦": 5099,
      "邪": 5100,
      "邯": 5101,
      "邵": 5102,
      "邸": 5103,
      "郁": 5104,
      "郎": 5105,
      "郑": 5106,
      "郛": 5107,
      "郡": 5108,
      "郦": 5109,
      "部": 5110,
      "郭": 5111,
      "郵": 5112,
      "郷": 5113,
      "都": 5114,
      "鄂": 5115,
      "鄉": 5116,
      "鄒": 5117,
      "鄕": 5118,
      "鄧": 5119,
      "鄭": 5120,
      "鄰": 5121,
      "鄲": 5122,
      "鄺": 5123,
      "酈": 5124,
      "配": 5125,
      "酒": 5126,
      "酢": 5127,
      "酥": 5128,
      "酪": 5129,
      "酱": 5130,
      "酸": 5131,
      "醇": 5132,
      "醉": 5133,
      "醍": 5134,
      "醐": 5135,
      "醤": 5136,
      "醪": 5137,
      "醫": 5138,
      "醯": 5139,
      "醸": 5140,
      "釀": 5141,
      "采": 5142,
      "釈": 5143,
      "释": 5144,
      "釋": 5145,
      "里": 5146,
      "重": 5147,
      "野": 5148,
      "量": 5149,
      "金": 5150,
      "釜": 5151,
      "針": 5152,
      "鈍": 5153,
      "鈴": 5154,
      "鉄": 5155,
      "鉉": 5156,
      "鉞": 5157,
      "鉢": 5158,
      "鉤": 5159,
      "銀": 5160,
      "銓": 5161,
      "銖": 5162,
      "銘": 5163,
      "銭": 5164,
      "銷": 5165,
      "鋸": 5166,
      "鋼": 5167,
      "錄": 5168,
      "錆": 5169,
      "錢": 5170,
      "錦": 5171,
      "錯": 5172,
      "鍈": 5173,
      "鍛": 5174,
      "鍠": 5175,
      "鍵": 5176,
      "鍾": 5177,
      "鎌": 5178,
      "鎧": 5179,
      "鎬": 5180,
      "鎮": 5181,
      "鏑": 5182,
      "鏜": 5183,
      "鏡": 5184,
      "鏢": 5185,
      "鐃": 5186,
      "鐘": 5187,
      "鐵": 5188,
      "鐸": 5189,
      "鑑": 5190,
      "鑒": 5191,
      "钅": 5192,
      "针": 5193,
      "钊": 5194,
      "钦": 5195,
      "钱": 5196,
      "铁": 5197,
      "铃": 5198,
      "锁": 5199,
      "锅": 5200,
      "锡": 5201,
      "锺": 5202,
      "锻": 5203,
      "镇": 5204,
      "長": 5205,
      "长": 5206,
      "門": 5207,
      "閇": 5208,
      "開": 5209,
      "閑": 5210,
      "間": 5211,
      "閔": 5212,
      "関": 5213,
      "閣": 5214,
      "閨": 5215,
      "閩": 5216,
      "閭": 5217,
      "閻": 5218,
      "闌": 5219,
      "闔": 5220,
      "闕": 5221,
      "闘": 5222,
      "關": 5223,
      "门": 5224,
      "问": 5225,
      "间": 5226,
      "闹": 5227,
      "闻": 5228,
      "闾": 5229,
      "阇": 5230,
      "队": 5231,
      "阪": 5232,
      "阮": 5233,
      "防": 5234,
      "阳": 5235,
      "阴": 5236,
      "阵": 5237,
      "阿": 5238,
      "陀": 5239,
      "附": 5240,
      "际": 5241,
      "陈": 5242,
      "陋": 5243,
      "降": 5244,
      "限": 5245,
      "陛": 5246,
      "陞": 5247,
      "陟": 5248,
      "院": 5249,
      "陣": 5250,
      "除": 5251,
      "陨": 5252,
      "陪": 5253,
      "陰": 5254,
      "陳": 5255,
      "陵": 5256,
      "陸": 5257,
      "陽": 5258,
      "隅": 5259,
      "隆": 5260,
      "隈": 5261,
      "隊": 5262,
      "隋": 5263,
      "階": 5264,
      "隐": 5265,
      "隑": 5266,
      "隔": 5267,
      "際": 5268,
      "障": 5269,
      "隠": 5270,
      "隱": 5271,
      "隴": 5272,
      "隶": 5273,
      "隸": 5274,
      "隻": 5275,
      "隼": 5276,
      "难": 5277,
      "雀": 5278,
      "雁": 5279,
      "雄": 5280,
      "雅": 5281,
      "集": 5282,
      "雍": 5283,
      "雎": 5284,
      "雙": 5285,
      "雜": 5286,
      "雞": 5287,
      "離": 5288,
      "難": 5289,
      "雨": 5290,
      "雪": 5291,
      "雲": 5292,
      "零": 5293,
      "雷": 5294,
      "電": 5295,
      "霊": 5296,
      "霍": 5297,
      "霖": 5298,
      "霜": 5299,
      "露": 5300,
      "霸": 5301,
      "靈": 5302,
      "靐": 5303,
      "青": 5304,
      "靖": 5305,
      "静": 5306,
      "非": 5307,
      "面": 5308,
      "革": 5309,
      "鞍": 5310,
      "鞞": 5311,
      "鞠": 5312,
      "韃": 5313,
      "韋": 5314,
      "韓": 5315,
      "韜": 5316,
      "韦": 5317,
      "韩": 5318,
      "音": 5319,
      "韻": 5320,
      "頂": 5321,
      "項": 5322,
      "順": 5323,
      "須": 5324,
      "頊": 5325,
      "頌": 5326,
      "頑": 5327,
      "頓": 5328,
      "頔": 5329,
      "領": 5330,
      "頡": 5331,
      "頤": 5332,
      "頭": 5333,
      "頴": 5334,
      "頼": 5335,
      "題": 5336,
      "額": 5337,
      "顏": 5338,
      "顔": 5339,
      "顕": 5340,
      "願": 5341,
      "類": 5342,
      "顯": 5343,
      "页": 5344,
      "顷": 5345,
      "顺": 5346,
      "颂": 5347,
      "颉": 5348,
      "颐": 5349,
      "频": 5350,
      "题": 5351,
      "额": 5352,
      "風": 5353,
      "飃": 5354,
      "风": 5355,
      "飛": 5356,
      "飞": 5357,
      "食": 5358,
      "飭": 5359,
      "飮": 5360,
      "飯": 5361,
      "飽": 5362,
      "餅": 5363,
      "養": 5364,
      "餐": 5365,
      "餠": 5366,
      "館": 5367,
      "饌": 5368,
      "饣": 5369,
      "饨": 5370,
      "饭": 5371,
      "饼": 5372,
      "饿": 5373,
      "馄": 5374,
      "馅": 5375,
      "馆": 5376,
      "馕": 5377,
      "首": 5378,
      "香": 5379,
      "馡": 5380,
      "馨": 5381,
      "馬": 5382,
      "馮": 5383,
      "駁": 5384,
      "駅": 5385,
      "駒": 5386,
      "駝": 5387,
      "駟": 5388,
      "駰": 5389,
      "駱": 5390,
      "駿": 5391,
      "騎": 5392,
      "騫": 5393,
      "騶": 5394,
      "騷": 5395,
      "驅": 5396,
      "驤": 5397,
      "马": 5398,
      "骏": 5399,
      "骨": 5400,
      "骸": 5401,
      "體": 5402,
      "高": 5403,
      "髙": 5404,
      "髪": 5405,
      "髮": 5406,
      "髯": 5407,
      "鬥": 5408,
      "鬱": 5409,
      "鬲": 5410,
      "鬼": 5411,
      "魁": 5412,
      "魂": 5413,
      "魄": 5414,
      "魏": 5415,
      "魔": 5416,
      "魚": 5417,
      "魯": 5418,
      "鮑": 5419,
      "鮫": 5420,
      "鮮": 5421,
      "鯉": 5422,
      "鯰": 5423,
      "鰭": 5424,
      "鱼": 5425,
      "鲁": 5426,
      "鲸": 5427,
      "鳖": 5428,
      "鳥": 5429,
      "鳳": 5430,
      "鳴": 5431,
      "鴛": 5432,
      "鴦": 5433,
      "鴨": 5434,
      "鴻": 5435,
      "鵙": 5436,
      "鵝": 5437,
      "鵺": 5438,
      "鶏": 5439,
      "鶴": 5440,
      "鶻": 5441,
      "鶿": 5442,
      "鷲": 5443,
      "鷹": 5444,
      "鸕": 5445,
      "鸟": 5446,
      "鸡": 5447,
      "鸦": 5448,
      "鸽": 5449,
      "鸿": 5450,
      "鹊": 5451,
      "鹏": 5452,
      "鹤": 5453,
      "鹰": 5454,
      "鹹": 5455,
      "鹿": 5456,
      "麗": 5457,
      "麥": 5458,
      "麦": 5459,
      "麪": 5460,
      "麵": 5461,
      "麸": 5462,
      "麹": 5463,
      "麺": 5464,
      "麻": 5465,
      "麿": 5466,
      "黃": 5467,
      "黄": 5468,
      "黎": 5469,
      "黑": 5470,
      "黒": 5471,
      "黙": 5472,
      "點": 5473,
      "黠": 5474,
      "黨": 5475,
      "鼈": 5476,
      "鼎": 5477,
      "鼓": 5478,
      "鼠": 5479,
      "鼬": 5480,
      "鼻": 5481,
      "齉": 5482,
      "齊": 5483,
      "齐": 5484,
      "齡": 5485,
      "齿": 5486,
      "龍": 5487,
      "龐": 5488,
      "龙": 5489,
      "龚": 5490,
      "龜": 5491,
      "龟": 5492,
      "ꈍ": 5493,
      "ꉫ": 5494,
      "ꉬ": 5495,
      "ꙁ": 5496,
      "ꙉ": 5497,
      "ꙑ": 5498,
      "ꙗ": 5499,
      "ꙩ": 5500,
      "ꜣ": 5501,
      "ꜥ": 5502,
      "ꜧ": 5503,
      "ꜰ": 5504,
      "ꜱ": 5505,
      "ꜹ": 5506,
      "ꝁ": 5507,
      "ꝃ": 5508,
      "ꝅ": 5509,
      "ꝋ": 5510,
      "ꝑ": 5511,
      "ꝓ": 5512,
      "ꝕ": 5513,
      "ꝗ": 5514,
      "ꝙ": 5515,
      "ꝛ": 5516,
      "ꝟ": 5517,
      "ꝡ": 5518,
      "ꝣ": 5519,
      "ꝥ": 5520,
      "ꝺ": 5521,
      "ꝼ": 5522,
      "ꝿ": 5523,
      "ꞃ": 5524,
      "ꞅ": 5525,
      "ꞇ": 5526,
      "꞉": 5527,
      "ꞌ": 5528,
      "ꞑ": 5529,
      "ꞓ": 5530,
      "ꞕ": 5531,
      "ꞗ": 5532,
      "ꞙ": 5533,
      "ꞛ": 5534,
      "ꞝ": 5535,
      "ꞟ": 5536,
      "ꞡ": 5537,
      "ꞣ": 5538,
      "ꞥ": 5539,
      "ꞧ": 5540,
      "ꞩ": 5541,
      "ꞯ": 5542,
      "ꞹ": 5543,
      "ꞻ": 5544,
      "ꞿ": 5545,
      "ꟃ": 5546,
      "ꟈ": 5547,
      "ꟊ": 5548,
      "ꟶ": 5549,
      "ꟸ": 5550,
      "ꟻ": 5551,
      "ꟼ": 5552,
      "ꟽ": 5553,
      "ꟾ": 5554,
      "ꟿ": 5555,
      "ꦏ": 5556,
      "ꦥ": 5557,
      "ꦩ": 5558,
      "ꦫ": 5559,
      "ꦱ": 5560,
      "ꦲ": 5561,
      "ꦺ": 5562,
      "ꦿ": 5563,
      "꩜": 5564,
      "ꬱ": 5565,
      "ꬵ": 5566,
      "ꬶ": 5567,
      "ꭦ": 5568,
      "ꭧ": 5569,
      "ꭨ": 5570,
      "ꭩ": 5571,
      "ꭴ": 5572,
      "ꭻ": 5573,
      "ꭿ": 5574,
      "ꮃ": 5575,
      "ꮇ": 5576,
      "ꮎ": 5577,
      "ꮑ": 5578,
      "ꮕ": 5579,
      "ꮟ": 5580,
      "ꮣ": 5581,
      "ꮤ": 5582,
      "ꮹ": 5583,
      "ꮿ": 5584,
      "ꯂ": 5585,
      "ꯛ": 5586,
      "﨑": 5587,
      "ﬁ": 5588,
      "ﬂ": 5589,
      "ﷲ": 5590,
      "ﷺ": 5591,
      "︰": 5592,
      "︵": 5593,
      "︽": 5594,
      "︾": 5595,
      "︿": 5596,
      "﹀": 5597,
      "﹗": 5598,
      "ﺒ": 5599,
      "ﺙ": 5600,
      "ﺮ": 5601,
      "ﻣ": 5602,
      "ﻩ": 5603,
      "ﻭ": 5604,
      "ﻴ": 5605,
      "ﻹ": 5606,
      "！": 5607,
      "（": 5608,
      "）": 5609,
      "＊": 5610,
      "，": 5611,
      "－": 5612,
      "／": 5613,
      "１": 5614,
      "２": 5615,
      "９": 5616,
      "：": 5617,
      "；": 5618,
      "＝": 5619,
      "？": 5620,
      "＾": 5621,
      "｜": 5622,
      "～": 5623,
      "･": 5624,
      "ｮ": 5625,
      "ｰ": 5626,
      "ｼ": 5627,
      "ﾎ": 5628,
      "ﾝ": 5629,
      "ﾞ": 5630,
      "￥": 5631,
      "𐀀": 5632,
      "𐀂": 5633,
      "𐀅": 5634,
      "𐀏": 5635,
      "𐀘": 5636,
      "𐀙": 5637,
      "𐀩": 5638,
      "𐀫": 5639,
      "𐀭": 5640,
      "𐄫": 5641,
      "𐅀": 5642,
      "𐅁": 5643,
      "𐅢": 5644,
      "𐆃": 5645,
      "𐆖": 5646,
      "𐊀": 5647,
      "𐊄": 5648,
      "𐊆": 5649,
      "𐊌": 5650,
      "𐊎": 5651,
      "𐊏": 5652,
      "𐊐": 5653,
      "𐊑": 5654,
      "𐊒": 5655,
      "𐊕": 5656,
      "𐊖": 5657,
      "𐊗": 5658,
      "𐊜": 5659,
      "𐊠": 5660,
      "𐊥": 5661,
      "𐊦": 5662,
      "𐊪": 5663,
      "𐊫": 5664,
      "𐊭": 5665,
      "𐊲": 5666,
      "𐊳": 5667,
      "𐊴": 5668,
      "𐊷": 5669,
      "𐊸": 5670,
      "𐊹": 5671,
      "𐊼": 5672,
      "𐌀": 5673,
      "𐌂": 5674,
      "𐌃": 5675,
      "𐌄": 5676,
      "𐌅": 5677,
      "𐌆": 5678,
      "𐌇": 5679,
      "𐌉": 5680,
      "𐌊": 5681,
      "𐌋": 5682,
      "𐌌": 5683,
      "𐌍": 5684,
      "𐌏": 5685,
      "𐌐": 5686,
      "𐌑": 5687,
      "𐌒": 5688,
      "𐌓": 5689,
      "𐌔": 5690,
      "𐌕": 5691,
      "𐌖": 5692,
      "𐌗": 5693,
      "𐌟": 5694,
      "𐌠": 5695,
      "𐌡": 5696,
      "𐌢": 5697,
      "𐌣": 5698,
      "𐌰": 5699,
      "𐌳": 5700,
      "𐌴": 5701,
      "𐌷": 5702,
      "𐌸": 5703,
      "𐌹": 5704,
      "𐌺": 5705,
      "𐌻": 5706,
      "𐌾": 5707,
      "𐌿": 5708,
      "𐍂": 5709,
      "𐍃": 5710,
      "𐍅": 5711,
      "𐍆": 5712,
      "𐍈": 5713,
      "𐎠": 5714,
      "𐎡": 5715,
      "𐎢": 5716,
      "𐎣": 5717,
      "𐎦": 5718,
      "𐎧": 5719,
      "𐎫": 5720,
      "𐎬": 5721,
      "𐎭": 5722,
      "𐎰": 5723,
      "𐎱": 5724,
      "𐎳": 5725,
      "𐎶": 5726,
      "𐎷": 5727,
      "𐎹": 5728,
      "𐎺": 5729,
      "𐎼": 5730,
      "𐏀": 5731,
      "𐏁": 5732,
      "𐏂": 5733,
      "𐏃": 5734,
      "𐏋": 5735,
      "𐏐": 5736,
      "𐐨": 5737,
      "𐐪": 5738,
      "𐐫": 5739,
      "𐐬": 5740,
      "𐐭": 5741,
      "𐐮": 5742,
      "𐐯": 5743,
      "𐐱": 5744,
      "𐐲": 5745,
      "𐐶": 5746,
      "𐐷": 5747,
      "𐐸": 5748,
      "𐐹": 5749,
      "𐐺": 5750,
      "𐐻": 5751,
      "𐐼": 5752,
      "𐐽": 5753,
      "𐐾": 5754,
      "𐐿": 5755,
      "𐑀": 5756,
      "𐑁": 5757,
      "𐑄": 5758,
      "𐑅": 5759,
      "𐑆": 5760,
      "𐑇": 5761,
      "𐑉": 5762,
      "𐑊": 5763,
      "𐑌": 5764,
      "𐑎": 5765,
      "𐑏": 5766,
      "𐑧": 5767,
      "𐑩": 5768,
      "𐑮": 5769,
      "𐑳": 5770,
      "𐑺": 5771,
      "𐑻": 5772,
      "𐒁": 5773,
      "𐒅": 5774,
      "𐒆": 5775,
      "𐒇": 5776,
      "𐒈": 5777,
      "𐒋": 5778,
      "𐒌": 5779,
      "𐒍": 5780,
      "𐒏": 5781,
      "𐒐": 5782,
      "𐒑": 5783,
      "𐒒": 5784,
      "𐒓": 5785,
      "𐒕": 5786,
      "𐒖": 5787,
      "𐒗": 5788,
      "𐒘": 5789,
      "𐒛": 5790,
      "𐒝": 5791,
      "𐝇": 5792,
      "𐝈": 5793,
      "𐝎": 5794,
      "𐝒": 5795,
      "𐝓": 5796,
      "𐝕": 5797,
      "𐡀": 5798,
      "𐡁": 5799,
      "𐡂": 5800,
      "𐡃": 5801,
      "𐡄": 5802,
      "𐡅": 5803,
      "𐡇": 5804,
      "𐡉": 5805,
      "𐡊": 5806,
      "𐡋": 5807,
      "𐡌": 5808,
      "𐡐": 5809,
      "𐡒": 5810,
      "𐡓": 5811,
      "𐡕": 5812,
      "𐡡": 5813,
      "𐡦": 5814,
      "𐡩": 5815,
      "𐡶": 5816,
      "𐤀": 5817,
      "𐤁": 5818,
      "𐤂": 5819,
      "𐤃": 5820,
      "𐤄": 5821,
      "𐤅": 5822,
      "𐤆": 5823,
      "𐤇": 5824,
      "𐤉": 5825,
      "𐤊": 5826,
      "𐤋": 5827,
      "𐤌": 5828,
      "𐤍": 5829,
      "𐤎": 5830,
      "𐤏": 5831,
      "𐤐": 5832,
      "𐤑": 5833,
      "𐤒": 5834,
      "𐤓": 5835,
      "𐤔": 5836,
      "𐤕": 5837,
      "𐤖": 5838,
      "𐤘": 5839,
      "𐤙": 5840,
      "𐤠": 5841,
      "𐤣": 5842,
      "𐤭": 5843,
      "𐤮": 5844,
      "𐤱": 5845,
      "𐤳": 5846,
      "𐩨": 5847,
      "𐩪": 5848,
      "𐩱": 5849,
      "𐫇": 5850,
      "𐫏": 5851,
      "𐫗": 5852,
      "𐫘": 5853,
      "𐫛": 5854,
      "𐫤": 5855,
      "𐬀": 5856,
      "𐬉": 5857,
      "𐬊": 5858,
      "𐬌": 5859,
      "𐬛": 5860,
      "𐬞": 5861,
      "𐬨": 5862,
      "𐬭": 5863,
      "𐬰": 5864,
      "𐬵": 5865,
      "𐭥": 5866,
      "𐭦": 5867,
      "𐭧": 5868,
      "𐭩": 5869,
      "𐭫": 5870,
      "𐭬": 5871,
      "𐭭": 5872,
      "𐭮": 5873,
      "𐭯": 5874,
      "𐭱": 5875,
      "𐭲": 5876,
      "𐰆": 5877,
      "𐰇": 5878,
      "𐰚": 5879,
      "𐰛": 5880,
      "𐰜": 5881,
      "𐰞": 5882,
      "𐰣": 5883,
      "𐰯": 5884,
      "𐰰": 5885,
      "𐰻": 5886,
      "𐰼": 5887,
      "𐱃": 5888,
      "𐱅": 5889,
      "𑀅": 5890,
      "𑀓": 5891,
      "𑀢": 5892,
      "𑀥": 5893,
      "𑀦": 5894,
      "𑀧": 5895,
      "𑀩": 5896,
      "𑀫": 5897,
      "𑀬": 5898,
      "𑀭": 5899,
      "𑀲": 5900,
      "𑀳": 5901,
      "𒀀": 5902,
      "𒀕": 5903,
      "𒀫": 5904,
      "𒀭": 5905,
      "𒀲": 5906,
      "𒀸": 5907,
      "𒁉": 5908,
      "𒁲": 5909,
      "𒁹": 5910,
      "𒂆": 5911,
      "𒂍": 5912,
      "𒂗": 5913,
      "𒂡": 5914,
      "𒂵": 5915,
      "𒂷": 5916,
      "𒃲": 5917,
      "𒃾": 5918,
      "𒄀": 5919,
      "𒄑": 5920,
      "𒄒": 5921,
      "𒄴": 5922,
      "𒄾": 5923,
      "𒄿": 5924,
      "𒅁": 5925,
      "𒅎": 5926,
      "𒅖": 5927,
      "𒅗": 5928,
      "𒆠": 5929,
      "𒆤": 5930,
      "𒆳": 5931,
      "𒇻": 5932,
      "𒈜": 5933,
      "𒈠": 5934,
      "𒈦": 5935,
      "𒈨": 5936,
      "𒈩": 5937,
      "𒈬": 5938,
      "𒈾": 5939,
      "𒉋": 5940,
      "𒉡": 5941,
      "𒉣": 5942,
      "𒉺": 5943,
      "𒉽": 5944,
      "𒊏": 5945,
      "𒊑": 5946,
      "𒊒": 5947,
      "𒊕": 5948,
      "𒊬": 5949,
      "𒊭": 5950,
      "𒋀": 5951,
      "𒋗": 5952,
      "𒋙": 5953,
      "𒋡": 5954,
      "𒋢": 5955,
      "𒋫": 5956,
      "𒌅": 5957,
      "𒌋": 5958,
      "𒌍": 5959,
      "𒌑": 5960,
      "𒌓": 5961,
      "𒌷": 5962,
      "𒐼": 5963,
      "𓂋": 5964,
      "𓂓": 5965,
      "𓅓": 5966,
      "𓅽": 5967,
      "𓆎": 5968,
      "𓆛": 5969,
      "𓆱": 5970,
      "𓇽": 5971,
      "𓈉": 5972,
      "𓈎": 5973,
      "𓈖": 5974,
      "𓉐": 5975,
      "𓉔": 5976,
      "𓉺": 5977,
      "𓉻": 5978,
      "𓊅": 5979,
      "𓊖": 5980,
      "𓋾": 5981,
      "𓌉": 5982,
      "𓍁": 5983,
      "𓏌": 5984,
      "𓏏": 5985,
      "𓏠": 5986,
      "𓏭": 5987,
      "𖬒": 5988,
      "𖬖": 5989,
      "𖬜": 5990,
      "𖬯": 5991,
      "𛀀": 5992,
      "𛀁": 5993,
      "𛀆": 5994,
      "𛄟": 5995,
      "𝄆": 5996,
      "𝄇": 5997,
      "𝄋": 5998,
      "𝄞": 5999,
      "𝍷": 6000,
      "𝑒": 6001,
      "𝒪": 6002,
      "𝓸": 6003,
      "𝔗": 6004,
      "𝕸": 6005,
      "𝗘": 6006,
      "𝗮": 6007,
      "𝗲": 6008,
      "𝗳": 6009,
      "𝗶": 6010,
      "𝗸": 6011,
      "𝗺": 6012,
      "𝗼": 6013,
      "𝗽": 6014,
      "𝗿": 6015,
      "𝘁": 6016,
      "𝛿": 6017,
      "𝜎": 6018,
      "𝜑": 6019,
      "𞤢": 6020,
      "𞤤": 6021,
      "𞤥": 6022,
      "𞤨": 6023,
      "𞤩": 6024,
      "𞤪": 6025,
      "𞤫": 6026,
      "𞤭": 6027,
      "𞤮": 6028,
      "𞤱": 6029,
      "𞤲": 6030,
      "𞤳": 6031,
      "𞤴": 6032,
      "𞤵": 6033,
      "𞤸": 6034,
      "𞤺": 6035,
      "𞥄": 6036,
      "𞥆": 6037,
      "𞥇": 6038,
      "🀢": 6039,
      "🀣": 6040,
      "🀤": 6041,
      "🀥": 6042,
      "🀦": 6043,
      "🀧": 6044,
      "🀨": 6045,
      "🀩": 6046,
      "🇫": 6047,
      "🇷": 6048,
      "🈁": 6049,
      "🈂": 6050,
      "🈓": 6051,
      "🎜": 6052,
      "🎝": 6053,
      "🎵": 6054,
      "🎶": 6055,
      "🔊": 6056,
      "🚲": 6057,
      "🛈": 6058,
      "🜇": 6059,
      "🜍": 6060,
      "🜨": 6061,
      "🤓": 6062,
      "🧀": 6063,
      "🧫": 6064,
      "𠓺": 6065,
      "𡘯": 6066,
      "𢆥": 6067,
      "𢒉": 6068,
      "𢜠": 6069,
      "𢶢": 6070,
      "𤁠": 6071,
      "𤯩": 6072,
      "𤾓": 6073,
      "𥹰": 6074,
      "𦻙": 6075,
      "𨁂": 6076,
      "𫨩": 6077,
      "𬧐": 6078,
      "𰀪": 6079,
      "𰻞": 6080,
      "##e": 6081,
      "##r": 6082,
      "##n": 6083,
      "##t": 6084,
      "##i": 6085,
      "##a": 6086,
      "##u": 6087,
      "##l": 6088,
      "##s": 6089,
      "##g": 6090,
      "##k": 6091,
      "##h": 6092,
      "##c": 6093,
      "##o": 6094,
      "##d": 6095,
      "##v": 6096,
      "##z": 6097,
      "##5": 6098,
      "##3": 6099,
      "##m": 6100,
      "##0": 6101,
      "##1": 6102,
      "##7": 6103,
      "##4": 6104,
      "##y": 6105,
      "##9": 6106,
      "##p": 6107,
      "##f": 6108,
      "##ে": 6109,
      "##া": 6110,
      "##র": 6111,
      "##ট": 6112,
      "##w": 6113,
      "##b": 6114,
      "##2": 6115,
      "##x": 6116,
      "##j": 6117,
      "##в": 6118,
      "##г": 6119,
      "##е": 6120,
      "##н": 6121,
      "##и": 6122,
      "##q": 6123,
      "##व": 6124,
      "##ा": 6125,
      "##ह": 6126,
      "##6": 6127,
      "##υ": 6128,
      "##ο": 6129,
      "##ς": 6130,
      "##π": 6131,
      "##ω": 6132,
      "##ㄨ": 6133,
      "##ㄢ": 6134,
      "##р": 6135,
      "##о": 6136,
      "##т": 6137,
      "##8": 6138,
      "##χ": 6139,
      "##œ": 6140,
      "##ə": 6141,
      "##¹": 6142,
      "##µ": 6143,
      "##л": 6144,
      "##а": 6145,
      "##м": 6146,
      "##−": 6147,
      "##ʔ": 6148,
      "##®": 6149,
      "##ı": 6150,
      "##०": 6151,
      "##६": 6152,
      "##१": 6153,
      "##ρ": 6154,
      "##τ": 6155,
      "##α": 6156,
      "##°": 6157,
      "##і": 6158,
      "##х": 6159,
      "##к": 6160,
      "##ł": 6161,
      "##פ": 6162,
      "##ø": 6163,
      "##ĸ": 6164,
      "##⁄": 6165,
      "##ß": 6166,
      "##ь": 6167,
      "##ш": 6168,
      "##я": 6169,
      "##у": 6170,
      "##ч": 6171,
      "##æ": 6172,
      "##λ": 6173,
      "##δ": 6174,
      "##ש": 6175,
      "##ר": 6176,
      "##μ": 6177,
      "##ν": 6178,
      "##п": 6179,
      "##ʌ": 6180,
      "##ι": 6181,
      "##ε": 6182,
      "##η": 6183,
      "##ᅮ": 6184,
      "##ᆨ": 6185,
      "##ᄃ": 6186,
      "##ᅡ": 6187,
      "##ᆼ": 6188,
      "##ᄎ": 6189,
      "##ᅥ": 6190,
      "##ᆫ": 6191,
      "##φ": 6192,
      "##و": 6193,
      "##ن": 6194,
      "##س": 6195,
      "##ت": 6196,
      "##ا": 6197,
      "##ǁ": 6198,
      "##ʼ": 6199,
      "##ð": 6200,
      "##ᅧ": 6201,
      "##ᅳ": 6202,
      "##ᄒ": 6203,
      "##ᅬ": 6204,
      "##レ": 6205,
      "##イ": 6206,
      "##ヤ": 6207,
      "##ー": 6208,
      "##ス": 6209,
      "##ふ": 6210,
      "##ぁ": 6211,
      "##い": 6212,
      "##と": 6213,
      "##▄": 6214,
      "##░": 6215,
      "##ʰ": 6216,
      "##र": 6217,
      "##म": 6218,
      "##ण": 6219,
      "##ी": 6220,
      "##σ": 6221,
      "##γ": 6222,
      "##∗": 6223,
      "##ɐ": 6224,
      "##×": 6225,
      "##ಮ": 6226,
      "##ರ": 6227,
      "##ಕ": 6228,
      "##ೂ": 6229,
      "##ೕ": 6230,
      "##ಶ": 6231,
      "##ದ": 6232,
      "##こ": 6233,
      "##う": 6234,
      "##∞": 6235,
      "##ц": 6236,
      "##θ": 6237,
      "##ɜ": 6238,
      "##ː": 6239,
      "##ˌ": 6240,
      "##ɒ": 6241,
      "##ŋ": 6242,
      "##д": 6243,
      "##с": 6244,
      "##হ": 6245,
      "##ি": 6246,
      "##ন": 6247,
      "##ী": 6248,
      "##ʉ": 6249,
      "##ա": 6250,
      "##ն": 6251,
      "##ב": 6252,
      "##מ": 6253,
      "##י": 6254,
      "##ם": 6255,
      "##ম": 6256,
      "##б": 6257,
      "##ʿ": 6258,
      "##½": 6259,
      "##ڠ": 6260,
      "##ك": 6261,
      "##न": 6262,
      "##ष": 6263,
      "##य": 6264,
      "##ो": 6265,
      "##ɛ": 6266,
      "##º": 6267,
      "##ト": 6268,
      "##ʃ": 6269,
      "##ɨ": 6270,
      "##⁵": 6271,
      "##⁻": 6272,
      "##⁷": 6273,
      "##đ": 6274,
      "##ན": 6275,
      "##´": 6276,
      "##د": 6277,
      "##ল": 6278,
      "##з": 6279,
      "##ب": 6280,
      "##վ": 6281,
      "##ה": 6282,
      "##כ": 6283,
      "##ל": 6284,
      "##リ": 6285,
      "##ン": 6286,
      "##ヒ": 6287,
      "##ッ": 6288,
      "##ク": 6289,
      "##ъ": 6290,
      "##β": 6291,
      "##±": 6292,
      "##κ": 6293,
      "##ـ": 6294,
      "##נ": 6295,
      "##ו": 6296,
      "##ه": 6297,
      "##ξ": 6298,
      "##™": 6299,
      "##þ": 6300,
      "##ү": 6301,
      "##ि": 6302,
      "##क": 6303,
      "##च": 6304,
      "##छ": 6305,
      "##प": 6306,
      "##≤": 6307,
      "##ф": 6308,
      "##ᅦ": 6309,
      "##ل": 6310,
      "##ح": 6311,
      "##م": 6312,
      "##ة": 6313,
      "##ق": 6314,
      "##ز": 6315,
      "##ɕ": 6316,
      "##ม": 6317,
      "##ʾ": 6318,
      "##প": 6319,
      "##ᅵ": 6320,
      "##ᆰ": 6321,
      "##ы": 6322,
      "##ব": 6323,
      "##コ": 6324,
      "##ɔ": 6325,
      "##ɑ": 6326,
      "##ʁ": 6327,
      "##ю": 6328,
      "##ꦩ": 6329,
      "##ꦺ": 6330,
      "##ꦫ": 6331,
      "##ꙗ": 6332,
      "##ѭ": 6333,
      "##ر": 6334,
      "##ع": 6335,
      "##ע": 6336,
      "##ת": 6337,
      "##บ": 6338,
      "##ʷ": 6339,
      "##ネ": 6340,
      "##ル": 6341,
      "##ウ": 6342,
      "##ァ": 6343,
      "##ס": 6344,
      "##ʻ": 6345,
      "##ᅣ": 6346,
      "##キ": 6347,
      "##א": 6348,
      "##₂": 6349,
      "##ħ": 6350,
      "##₵": 6351,
      "##ɪ": 6352,
      "##ո": 6353,
      "##ւ": 6354,
      "##թ": 6355,
      "##ի": 6356,
      "##≡": 6357,
      "##᾽": 6358,
      "##ᄀ": 6359,
      "##ᅩ": 6360,
      "##ᄋ": 6361,
      "##ᅢ": 6362,
      "##ᆷ": 6363,
      "##ᄌ": 6364,
      "##ᅪ": 6365,
      "##ᆯ": 6366,
      "##ж": 6367,
      "##⋅": 6368,
      "##ן": 6369,
      "##ꟊ": 6370,
      "##ي": 6371,
      "##จ": 6372,
      "##น": 6373,
      "##า": 6374,
      "##ก": 6375,
      "##ร": 6376,
      "##ጥ": 6377,
      "##ሚ": 6378,
      "##ጣ": 6379,
      "##ᄉ": 6380,
      "##ᄐ": 6381,
      "##ㄛ": 6382,
      "##љ": 6383,
      "##ય": 6384,
      "##ʲ": 6385,
      "##¨": 6386,
      "##ꜣ": 6387,
      "##ย": 6388,
      "##ᅭ": 6389,
      "##ג": 6390,
      "##ד": 6391,
      "##÷": 6392,
      "##ᄂ": 6393,
      "##ɓ": 6394,
      "##श": 6395,
      "##स": 6396,
      "##𒅗": 6397,
      "##𒌑": 6398,
      "##𒋢": 6399,
      "##ィ": 6400,
      "##ラ": 6401,
      "##シ": 6402,
      "##ョ": 6403,
      "##ض": 6404,
      "##э": 6405,
      "##ඹ": 6406,
      "##ර": 6407,
      "##ා": 6408,
      "##エ": 6409,
      "##の": 6410,
      "##ƚ": 6411,
      "##²": 6412,
      "##ज": 6413,
      "##¯": 6414,
      "##ɚ": 6415,
      "##ζ": 6416,
      "##ܘ": 6417,
      "##ܪ": 6418,
      "##ܐ": 6419,
      "##∘": 6420,
      "##ɫ": 6421,
      "##ܡ": 6422,
      "##ศ": 6423,
      "##ษ": 6424,
      "##მ": 6425,
      "##ი": 6426,
      "##დ": 6427,
      "##ა": 6428,
      "##خ": 6429,
      "##ጻ": 6430,
      "##ኢ": 6431,
      "##ᒡ": 6432,
      "##ᓘ": 6433,
      "##ᑲ": 6434,
      "##ʀ": 6435,
      "##る": 6436,
      "##も": 6437,
      "##は": 6438,
      "##れ": 6439,
      "##た": 6440,
      "##ꟾ": 6441,
      "##ध": 6442,
      "##ى": 6443,
      "##द": 6444,
      "##भ": 6445,
      "##フ": 6446,
      "##に": 6447,
      "##チ": 6448,
      "##ܩ": 6449,
      "##∆": 6450,
      "##³": 6451,
      "##ט": 6452,
      "##ぇ": 6453,
      "##→": 6454,
      "##ʹ": 6455,
      "##ј": 6456,
      "##ᄇ": 6457,
      "##♭": 6458,
      "##त": 6459,
      "##っ": 6460,
      "##し": 6461,
      "##ん": 6462,
      "##ܢ": 6463,
      "##ܨ": 6464,
      "##ܝ": 6465,
      "##স": 6466,
      "##య": 6467,
      "##క": 6468,
      "##ర": 6469,
      "##ణ": 6470,
      "##ం": 6471,
      "##ʒ": 6472,
      "##ʕ": 6473,
      "##ط": 6474,
      "##ハ": 6475,
      "##な": 6476,
      "##り": 6477,
      "##め": 6478,
      "##↔": 6479,
      "##য": 6480,
      "##▼": 6481,
      "##⊕": 6482,
      "##ﬁ": 6483,
      "##ⁿ": 6484,
      "##ɣ": 6485,
      "##タ": 6486,
      "##⅓": 6487,
      "##ञ": 6488,
      "##℅": 6489,
      "##ᖓ": 6490,
      "##ᒃ": 6491,
      "##ᑯ": 6492,
      "##ᖅ": 6493,
      "##𐤌": 6494,
      "##𐤍": 6495,
      "##℃": 6496,
      "##¢": 6497,
      "##ک": 6498,
      "##≈": 6499,
      "##ی": 6500,
      "##ਰ": 6501,
      "##ਦ": 6502,
      "##ਾ": 6503,
      "##ਸ": 6504,
      "##ด": 6505,
      "##♥": 6506,
      "##ǝ": 6507,
      "##մ": 6508,
      "##ե": 6509,
      "##փ": 6510,
      "##ր": 6511,
      "##կ": 6512,
      "##չ": 6513,
      "##わ": 6514,
      "##∷": 6515,
      "##ま": 6516,
      "##𞤵": 6517,
      "##𞤤": 6518,
      "##𞤩": 6519,
      "##𞤫": 6520,
      "##ヌ": 6521,
      "##ई": 6522,
      "##€": 6523,
      "##ロ": 6524,
      "##ユ": 6525,
      "##¥": 6526,
      "##ၚ": 6527,
      "##က": 6528,
      "##ျ": 6529,
      "##ာ": 6530,
      "##ဗ": 6531,
      "##ဒ": 6532,
      "##ဓ": 6533,
      "##ˈ": 6534,
      "##き": 6535,
      "##щ": 6536,
      "##ק": 6537,
      "##₁": 6538,
      "##க": 6539,
      "##ு": 6540,
      "##ப": 6541,
      "##ϕ": 6542,
      "##ȝ": 6543,
      "##ल": 6544,
      "##ᄅ": 6545,
      "##𐌢": 6546,
      "##ⵏ": 6547,
      "##ⴰ": 6548,
      "##ⴽ": 6549,
      "##ⴼ": 6550,
      "##£": 6551,
      "##¬": 6552,
      "##ា": 6553,
      "##យ": 6554,
      "##ក": 6555,
      "##រ": 6556,
      "##ដ": 6557,
      "##ឋ": 6558,
      "##ម": 6559,
      "##ន": 6560,
      "##ត": 6561,
      "##ج": 6562,
      "##ত": 6563,
      "##ग": 6564,
      "##ប": 6565,
      "##ង": 6566,
      "##ف": 6567,
      "##ᅲ": 6568,
      "##ᅯ": 6569,
      "##ʽ": 6570,
      "##ɾ": 6571,
      "##¾": 6572,
      "##ܒ": 6573,
      "##ナ": 6574,
      "##ニ": 6575,
      "##ث": 6576,
      "##צ": 6577,
      "##⊙": 6578,
      "##อ": 6579,
      "##ง": 6580,
      "##ꜹ": 6581,
      "##ら": 6582,
      "##く": 6583,
      "##𐬀": 6584,
      "##𐬊": 6585,
      "##𐬨": 6586,
      "##ℓ": 6587,
      "##テ": 6588,
      "##セ": 6589,
      "##２": 6590,
      "##ﺮ": 6591,
      "##ﻭ": 6592,
      "##ﻩ": 6593,
      "##ƿ": 6594,
      "##￥": 6595,
      "##∩": 6596,
      "##ص": 6597,
      "##ء": 6598,
      "##ক": 6599,
      "##ɲ": 6600,
      "##ח": 6601,
      "##ץ": 6602,
      "##𐎼": 6603,
      "##𐏁": 6604,
      "##ះ": 6605,
      "##ហ": 6606,
      "##ស": 6607,
      "##ः": 6608,
      "##ժ": 6609,
      "##ท": 6610,
      "##เ": 6611,
      "##ข": 6612,
      "##ต": 6613,
      "##ะ": 6614,
      "##ว": 6615,
      "##♦": 6616,
      "##ਮ": 6617,
      "##ਣ": 6618,
      "##ੀ": 6619,
      "##ॉ": 6620,
      "##थ": 6621,
      "##ड": 6622,
      "##₨": 6623,
      "##サ": 6624,
      "##ી": 6625,
      "##←": 6626,
      "##↓": 6627,
      "##⍳": 6628,
      "##ವ": 6629,
      "##ಲ": 6630,
      "##ು": 6631,
      "##ब": 6632,
      "##𐊕": 6633,
      "##𐊐": 6634,
      "##𐊎": 6635,
      "##𐊆": 6636,
      "##𐊖": 6637,
      "##ˀ": 6638,
      "##ᆻ": 6639,
      "##∊": 6640,
      "##ܬ": 6641,
      "##দ": 6642,
      "##ᄑ": 6643,
      "##พ": 6644,
      "##ไ": 6645,
      "##ʺ": 6646,
      "##✸": 6647,
      "##ɹ": 6648,
      "##న": 6649,
      "##⍴": 6650,
      "##ө": 6651,
      "##ಙ": 6652,
      "##ಗ": 6653,
      "##ಳ": 6654,
      "##ψ": 6655,
      "##ʙ": 6656,
      "##ನ": 6657,
      "##ढ": 6658,
      "##ұ": 6659,
      "##қ": 6660,
      "##ҳ": 6661,
      "##ค": 6662,
      "##ป": 6663,
      "##ช": 6664,
      "##ธ": 6665,
      "##ɡ": 6666,
      "##ষ": 6667,
      "##≥": 6668,
      "##─": 6669,
      "##そ": 6670,
      "##ホ": 6671,
      "##ხ": 6672,
      "##ე": 6673,
      "##ლ": 6674,
      "##წ": 6675,
      "##ფ": 6676,
      "##ო": 6677,
      "##♠": 6678,
      "##ዕ": 6679,
      "##ቢ": 6680,
      "##ያ": 6681,
      "##ז": 6682,
      "##ᓄ": 6683,
      "##ᐊ": 6684,
      "##ᑦ": 6685,
      "##▀": 6686,
      "##█": 6687,
      "##ⲓ": 6688,
      "##ⲁ": 6689,
      "##ⲣ": 6690,
      "##ⲟ": 6691,
      "##オ": 6692,
      "##ଉ": 6693,
      "##ᆸ": 6694,
      "##ſ": 6695,
      "##ᴇ": 6696,
      "##ट": 6697,
      "##ɞ": 6698,
      "##ә": 6699,
      "##ろ": 6700,
      "##ϣ": 6701,
      "##ⲭ": 6702,
      "##ⲗ": 6703,
      "##ட": 6704,
      "##ை": 6705,
      "##ய": 6706,
      "##ལ": 6707,
      "##モ": 6708,
      "##ケ": 6709,
      "##ム": 6710,
      "##អ": 6711,
      "##𓉻": 6712,
      "##⊥": 6713,
      "##ش": 6714,
      "##ৎ": 6715,
      "##カ": 6716,
      "##ூ": 6717,
      "##வ": 6718,
      "##ே": 6719,
      "##ส": 6720,
      "##ރ": 6721,
      "##━": 6722,
      "##┳": 6723,
      "##┓": 6724,
      "##ᄆ": 6725,
      "##˺": 6726,
      "##ઠ": 6727,
      "##ミ": 6728,
      "##⅔": 6729,
      "##𐤱": 6730,
      "##𐤠": 6731,
      "##𐤭": 6732,
      "##𐤣": 6733,
      "##ऋ": 6734,
      "##ذ": 6735,
      "##ᑗ": 6736,
      "##ᐏ": 6737,
      "##ᓇ": 6738,
      "##ѣ": 6739,
      "##ৈ": 6740,
      "##お": 6741,
      "##ద": 6742,
      "##ம": 6743,
      "##ி": 6744,
      "##ழ": 6745,
      "##ⲉ": 6746,
      "##ਵ": 6747,
      "##ª": 6748,
      "##ҙ": 6749,
      "##♯": 6750,
      "##პ": 6751,
      "##რ": 6752,
      "##ც": 6753,
      "##ს": 6754,
      "##း": 6755,
      "##ယ": 6756,
      "##ܥ": 6757,
      "##ܫ": 6758,
      "##থ": 6759,
      "##ই": 6760,
      "##マ": 6761,
      "##メ": 6762,
      "##ア": 6763,
      "##ツ": 6764,
      "##ャ": 6765,
      "##გ": 6766,
      "##ტ": 6767,
      "##ნ": 6768,
      "##ງ": 6769,
      "##ས": 6770,
      "##▫": 6771,
      "##ƛ": 6772,
      "##ผ": 6773,
      "##ʊ": 6774,
      "##ˑ": 6775,
      "##ʈ": 6776,
      "##ɳ": 6777,
      "##ս": 6778,
      "##𐭫": 6779,
      "##𐭲": 6780,
      "##𐭥": 6781,
      "##𐭱": 6782,
      "##𐡋": 6783,
      "##𐡄": 6784,
      "##𐡀": 6785,
      "##𐡂": 6786,
      "##ौ": 6787,
      "##ር": 6788,
      "##ጊ": 6789,
      "##ጎ": 6790,
      "##ⲡ": 6791,
      "##↑": 6792,
      "##ڈ": 6793,
      "##غ": 6794,
      "##ך": 6795,
      "##ɭ": 6796,
      "##∈": 6797,
      "##ල": 6798,
      "##ක": 6799,
      "##ா": 6800,
      "##ன": 6801,
      "##უ": 6802,
      "##ར": 6803,
      "##ད": 6804,
      "##গ": 6805,
      "##ಂ": 6806,
      "##ಜ": 6807,
      "##か": 6808,
      "##ര": 6809,
      "##പ": 6810,
      "##み": 6811,
      "##て": 6812,
      "##す": 6813,
      "##ゎ": 6814,
      "##ำ": 6815,
      "##แ": 6816,
      "##խ": 6817,
      "##ջ": 6818,
      "##և": 6819,
      "##ਕ": 6820,
      "##റ": 6821,
      "##˚": 6822,
      "##බ": 6823,
      "##ද": 6824,
      "##བ": 6825,
      "##ང": 6826,
      "##ʂ": 6827,
      "##ェ": 6828,
      "##𐤔": 6829,
      "##𐤒": 6830,
      "##𐤋": 6831,
      "##ਤ": 6832,
      "##ત": 6833,
      "##મ": 6834,
      "##ક": 6835,
      "##થ": 6836,
      "##ા": 6837,
      "##⁴": 6838,
      "##ᵉ": 6839,
      "##ล": 6840,
      "##ฯ": 6841,
      "##ѥ": 6842,
      "##ᔅ": 6843,
      "##ᒋ": 6844,
      "##ᐤ": 6845,
      "##ゃ": 6846,
      "##ಾ": 6847,
      "##ತ": 6848,
      "##ပ": 6849,
      "##တ": 6850,
      "##င": 6851,
      "##լ": 6852,
      "##ը": 6853,
      "##⦵": 6854,
      "##𐐭": 6855,
      "##ھ": 6856,
      "##ے": 6857,
      "##𐤊": 6858,
      "##ং": 6859,
      "##খ": 6860,
      "##𐀏": 6861,
      "##𐀙": 6862,
      "##𐀂": 6863,
      "##𞤭": 6864,
      "##𞥄": 6865,
      "##𞤲": 6866,
      "##𞤢": 6867,
      "##∙": 6868,
      "##ღ": 6869,
      "##შ": 6870,
      "##ბ": 6871,
      "##ң": 6872,
      "##គ": 6873,
      "##ͺ": 6874,
      "##ゐ": 6875,
      "##ৰ": 6876,
      "##ณ": 6877,
      "##ں": 6878,
      "##⠗": 6879,
      "##⠇": 6880,
      "##በ": 6881,
      "##ㅡ": 6882,
      "##ュ": 6883,
      "##ヘ": 6884,
      "##ਜ": 6885,
      "##ਬ": 6886,
      "##گ": 6887,
      "##𐭮": 6888,
      "##ອ": 6889,
      "##ຮ": 6890,
      "##ກ": 6891,
      "##ᅨ": 6892,
      "##©": 6893,
      "##𒈦": 6894,
      "##ᵑ": 6895,
      "##𐩨": 6896,
      "##𐩱": 6897,
      "##ʟ": 6898,
      "##ਢ": 6899,
      "##𐐱": 6900,
      "##𐐻": 6901,
      "##ϛ": 6902,
      "##𒋙": 6903,
      "##ვ": 6904,
      "##თ": 6905,
      "##વ": 6906,
      "##ɦ": 6907,
      "##ʋ": 6908,
      "##ᅴ": 6909,
      "##ᅱ": 6910,
      "##ෙ": 6911,
      "##ස": 6912,
      "##╋": 6913,
      "##ǂ": 6914,
      "##˳": 6915,
      "##ˁ": 6916,
      "##や": 6917,
      "##ひ": 6918,
      "##յ": 6919,
      "##բ": 6920,
      "##ঢ": 6921,
      "##ভ": 6922,
      "##ᄄ": 6923,
      "##˘": 6924,
      "##ɖ": 6925,
      "##ね": 6926,
      "##ণ": 6927,
      "##ɗ": 6928,
      "##ಬ": 6929,
      "##ಸ": 6930,
      "##ɻ": 6931,
      "##ǀ": 6932,
      "##➔": 6933,
      "##න": 6934,
      "##ᓱ": 6935,
      "##ϯ": 6936,
      "##ག": 6937,
      "##ി": 6938,
      "##ദ": 6939,
      "##ധ": 6940,
      "##ാ": 6941,
      "##ന": 6942,
      "##ത": 6943,
      "##ം": 6944,
      "##є": 6945,
      "##ો": 6946,
      "##ʱ": 6947,
      "##∖": 6948,
      "##𒂵": 6949,
      "##𒈩": 6950,
      "##ਉ": 6951,
      "##ห": 6952,
      "##એ": 6953,
      "##ܠ": 6954,
      "##₃": 6955,
      "##൧": 6956,
      "##ք": 6957,
      "##┻": 6958,
      "##𐎡": 6959,
      "##𐎺": 6960,
      "##બ": 6961,
      "##ઈ": 6962,
      "##΄": 6963,
      "##𐐶": 6964,
      "##𐐯": 6965,
      "##𐑉": 6966,
      "##𐑁": 6967,
      "##𐐬": 6968,
      "##え": 6969,
      "##ꜥ": 6970,
      "##𐤐": 6971,
      "##ๅ": 6972,
      "##⊂": 6973,
      "##ూ": 6974,
      "##শ": 6975,
      "##⊃": 6976,
      "##ょ": 6977,
      "##𐡌": 6978,
      "##ᄏ": 6979,
      "##⫽": 6980,
      "##ظ": 6981,
      "##ព": 6982,
      "##េ": 6983,
      "##ર": 6984,
      "##𒌓": 6985,
      "##𒊏": 6986,
      "##┫": 6987,
      "##ћ": 6988,
      "##∨": 6989,
      "##ऊ": 6990,
      "##𒀸": 6991,
      "##𒄀": 6992,
      "##ʘ": 6993,
      "##જ": 6994,
      "##∧": 6995,
      "##ಷ": 6996,
      "##ಟ": 6997,
      "##ಪ": 6998,
      "##ち": 6999,
      "##ਿ": 7000,
      "##ਗ": 7001,
      "##ਆ": 7002,
      "##𐤄": 7003,
      "##𐤅": 7004,
      "##ꙑ": 7005,
      "##ව": 7006,
      "##ା": 7007,
      "##ச": 7008,
      "##ங": 7009,
      "##ர": 7010,
      "##ⱷ": 7011,
      "##ᴥ": 7012,
      "##≼": 7013,
      "##♣": 7014,
      "##¸": 7015,
      "##ҝ": 7016,
      "##ठ": 7017,
      "##◌": 7018,
      "##గ": 7019,
      "##ు": 7020,
      "##ల": 7021,
      "##ᆩ": 7022,
      "##𞤮": 7023,
      "##𞤳": 7024,
      "##𞤪": 7025,
      "##ภ": 7026,
      "##ѵ": 7027,
      "##ց": 7028,
      "##ᶣ": 7029,
      "##ත": 7030,
      "##හ": 7031,
      "##ռ": 7032,
      "##𒊬": 7033,
      "##ɬ": 7034,
      "##ɠ": 7035,
      "##ᴏ": 7036,
      "##ᴜ": 7037,
      "##ᴛ": 7038,
      "##ʜ": 7039,
      "##∇": 7040,
      "##ං": 7041,
      "##ড": 7042,
      "##𐌅": 7043,
      "##𐌉": 7044,
      "##𐌄": 7045,
      "##𐌋": 7046,
      "##պ": 7047,
      "##հ": 7048,
      "##ף": 7049,
      "##ォ": 7050,
      "##ᄁ": 7051,
      "##ᆾ": 7052,
      "##ถ": 7053,
      "##ળ": 7054,
      "##𒄒": 7055,
      "##𒉣": 7056,
      "##ਨ": 7057,
      "##ለ": 7058,
      "##ፍ": 7059,
      "##ㄞ": 7060,
      "##ˊ": 7061,
      "##ˉ": 7062,
      "##ㄘ": 7063,
      "##ˋ": 7064,
      "##ਹ": 7065,
      "##∴": 7066,
      "##⇔": 7067,
      "##उ": 7068,
      "##ฤ": 7069,
      "##ᇂ": 7070,
      "##𐒖": 7071,
      "##𐒇": 7072,
      "##ስ": 7073,
      "##さ": 7074,
      "##ல": 7075,
      "##ǥ": 7076,
      "##ˠ": 7077,
      "##𒊒": 7078,
      "##𒄿": 7079,
      "##𒊭": 7080,
      "##ਅ": 7081,
      "##హ": 7082,
      "##భ": 7083,
      "##త": 7084,
      "##మ": 7085,
      "##▲": 7086,
      "##ƒ": 7087,
      "##ᛅ": 7088,
      "##ᚱ": 7089,
      "##ᛚ": 7090,
      "##ᛏ": 7091,
      "##ါ": 7092,
      "##ြ": 7093,
      "##ရ": 7094,
      "##ည": 7095,
      "##ေ": 7096,
      "##𐊠": 7097,
      "##ම": 7098,
      "##𓈖": 7099,
      "##ɟ": 7100,
      "##𐊸": 7101,
      "##𐊫": 7102,
      "##𐊦": 7103,
      "##ې": 7104,
      "##ใ": 7105,
      "##ⵓ": 7106,
      "##ⵛ": 7107,
      "##𐐮": 7108,
      "##៩": 7109,
      "##៨": 7110,
      "##জ": 7111,
      "##ˇ": 7112,
      "##ზ": 7113,
      "##ㅈ": 7114,
      "##ㄷ": 7115,
      "##ㄱ": 7116,
      "##ܓ": 7117,
      "##འ": 7118,
      "##𒉋": 7119,
      "##څ": 7120,
      "##¼": 7121,
      "##ᒨ": 7122,
      "##ᐦ": 7123,
      "##ᐣ": 7124,
      "##ᇁ": 7125,
      "##ಣ": 7126,
      "##✪": 7127,
      "##𒀫": 7128,
      "##𒂗": 7129,
      "##𒋗": 7130,
      "##𒉡": 7131,
      "##బ": 7132,
      "##ѧ": 7133,
      "##𐡶": 7134,
      "##𐡦": 7135,
      "##𐡡": 7136,
      "##𐡩": 7137,
      "##њ": 7138,
      "##＝": 7139,
      "##ગ": 7140,
      "##あ": 7141,
      "##╥": 7142,
      "##╨": 7143,
      "##┐": 7144,
      "##☺": 7145,
      "##ƹ": 7146,
      "##ᆮ": 7147,
      "##𐑄": 7148,
      "##𐐲": 7149,
      "##ဖ": 7150,
      "##ခ": 7151,
      "##ᠠ": 7152,
      "##ᡥ": 7153,
      "##ᠯ": 7154,
      "##ᡳ": 7155,
      "##ᠶ": 7156,
      "##ᠨ": 7157,
      "##𐰇": 7158,
      "##𐰛": 7159,
      "##よ": 7160,
      "##𐤏": 7161,
      "##𐤉": 7162,
      "##𐤕": 7163,
      "##𐎹": 7164,
      "##ख": 7165,
      "##ˤ": 7166,
      "##│": 7167,
      "##ѫ": 7168,
      "##𐤁": 7169,
      "##ീ": 7170,
      "##✿": 7171,
      "##ᓅ": 7172,
      "##ੜ": 7173,
      "##ప": 7174,
      "##ノ": 7175,
      "##इ": 7176,
      "##ਖ": 7177,
      "##ꞌ": 7178,
      "##દ": 7179,
      "##ϝ": 7180,
      "##ђ": 7181,
      "##ঙ": 7182,
      "##ǃ": 7183,
      "##𐐹": 7184,
      "##𐑊": 7185,
      "##த": 7186,
      "##ⵎ": 7187,
      "##ⵔ": 7188,
      "##ઢ": 7189,
      "##ᚨ": 7190,
      "##ᛁ": 7191,
      "##ᛉ": 7192,
      "##ട": 7193,
      "##ക": 7194,
      "##ള": 7195,
      "##✯": 7196,
      "##ണ": 7197,
      "##ქ": 7198,
      "##៧": 7199,
      "##ऽ": 7200,
      "##ङ": 7201,
      "##տ": 7202,
      "##ծ": 7203,
      "##𐌖": 7204,
      "##𐌌": 7205,
      "##𐌀": 7206,
      "##ฐ": 7207,
      "##ந": 7208,
      "##ெ": 7209,
      "##ண": 7210,
      "##つ": 7211,
      "##ન": 7212,
      "##𐡕": 7213,
      "##𐡐": 7214,
      "##𐡓": 7215,
      "##𐡃": 7216,
      "##ꦿ": 7217,
      "##ꦲ": 7218,
      "##ᄈ": 7219,
      "##फ": 7220,
      "##झ": 7221,
      "##𑀲": 7222,
      "##𑀓": 7223,
      "##ɷ": 7224,
      "##ᕈ": 7225,
      "##ᒥ": 7226,
      "##ᓗ": 7227,
      "##ಧ": 7228,
      "##ಯ": 7229,
      "##𐌠": 7230,
      "##𐌡": 7231,
      "##𐌣": 7232,
      "##ܟ": 7233,
      "##ච": 7234,
      "##ය": 7235,
      "##∼": 7236,
      "##ን": 7237,
      "##ች": 7238,
      "##ਯ": 7239,
      "##～": 7240,
      "##ෑ": 7241,
      "##ᚦ": 7242,
      "##ਈ": 7243,
      "##∪": 7244,
      "##వ": 7245,
      "##ಡ": 7246,
      "##န": 7247,
      "##ཀ": 7248,
      "##∣": 7249,
      "##⇄": 7250,
      "##ও": 7251,
      "##𐌹": 7252,
      "##𐌿": 7253,
      "##𐌳": 7254,
      "##𐌰": 7255,
      "##𐍂": 7256,
      "##𐌴": 7257,
      "##𐌺": 7258,
      "##𐍃": 7259,
      "##⏑": 7260,
      "##ಥ": 7261,
      "##␠": 7262,
      "##ほ": 7263,
      "##ነ": 7264,
      "##ѹ": 7265,
      "##𐰼": 7266,
      "##𐰰": 7267,
      "##ɯ": 7268,
      "##శ": 7269,
      "##ఖ": 7270,
      "##ਪ": 7271,
      "##ਏ": 7272,
      "##চ": 7273,
      "##ㅂ": 7274,
      "##ㅇ": 7275,
      "##ए": 7276,
      "##ᒧ": 7277,
      "##ᒌ": 7278,
      "##ⲧ": 7279,
      "##ⲏ": 7280,
      "##ⲙ": 7281,
      "##ⲛ": 7282,
      "##ⲥ": 7283,
      "##ळ": 7284,
      "##𐭩": 7285,
      "##𐭯": 7286,
      "##𐭭": 7287,
      "##ઞ": 7288,
      "##३": 7289,
      "##𐡊": 7290,
      "##꞉": 7291,
      "##ಭ": 7292,
      "##𐎦": 7293,
      "##𐎢": 7294,
      "##သ": 7295,
      "##ℤ": 7296,
      "##ʎ": 7297,
      "##𒋡": 7298,
      "##𓏌": 7299,
      "##𓊖": 7300,
      "##⁸": 7301,
      "##ள": 7302,
      "##ᵋ": 7303,
      "##ᆺ": 7304,
      "##≧": 7305,
      "##ܚ": 7306,
      "##ৱ": 7307,
      "##ሮ": 7308,
      "##ਲ": 7309,
      "##ソ": 7310,
      "##𒌍": 7311,
      "##ᶅ": 7312,
      "##డ": 7313,
      "##ሕ": 7314,
      "##ት": 7315,
      "##𓏠": 7316,
      "##𓈉": 7317,
      "##ｮ": 7318,
      "##ﾎ": 7319,
      "##ﾞ": 7320,
      "##ｰ": 7321,
      "##ﾝ": 7322,
      "##མ": 7323,
      "##𞤺": 7324,
      "##𐐪": 7325,
      "##𒈨": 7326,
      "##𒊑": 7327,
      "##𒌋": 7328,
      "##９": 7329,
      "##𞥆": 7330,
      "##ભ": 7331,
      "##ƣ": 7332,
      "##ղ": 7333,
      "##ꮎ": 7334,
      "##ꮟ": 7335,
      "##⊆": 7336,
      "##ሪ": 7337,
      "##𐒝": 7338,
      "##𐒑": 7339,
      "##𐒛": 7340,
      "##𐒐": 7341,
      "##𐒘": 7342,
      "##પ": 7343,
      "##લ": 7344,
      "##ષ": 7345,
      "##ણ": 7346,
      "##ᚢ": 7347,
      "##ᚾ": 7348,
      "##ᚴ": 7349,
      "##ᛦ": 7350,
      "##↦": 7351,
      "##∂": 7352,
      "##ڬ": 7353,
      "##զ": 7354,
      "##ચ": 7355,
      "##ײ": 7356,
      "##ؿ": 7357,
      "##𐊹": 7358,
      "##𐊼": 7359,
      "##𐊥": 7360,
      "##𐊪": 7361,
      "##າ": 7362,
      "##ວ": 7363,
      "##⅞": 7364,
      "##■": 7365,
      "##መ": 7366,
      "##ል": 7367,
      "##✡": 7368,
      "##ફ": 7369,
      "##မ": 7370,
      "##ߌ": 7371,
      "##ߛ": 7372,
      "##ߊ": 7373,
      "##ߥ": 7374,
      "##ߏ": 7375,
      "##ᇀ": 7376,
      "##ہ": 7377,
      "##ጽ": 7378,
      "##ዋ": 7379,
      "##գ": 7380,
      "##ʑ": 7381,
      "##⇗": 7382,
      "##ᄍ": 7383,
      "##⋯": 7384,
      "##ᔭ": 7385,
      "##｜": 7386,
      "##𞤱": 7387,
      "##উ": 7388,
      "##ғ": 7389,
      "##સ": 7390,
      "##𐫏": 7391,
      "##𐫘": 7392,
      "##𐫛": 7393,
      "##𐫇": 7394,
      "##𐫗": 7395,
      "##𐎭": 7396,
      "##𐎠": 7397,
      "##𐎶": 7398,
      "##ઘ": 7399,
      "##ណ": 7400,
      "##□": 7401,
      "##ګ": 7402,
      "##𐐨": 7403,
      "##𐑆": 7404,
      "##ਧ": 7405,
      "##ᓯ": 7406,
      "##ᴢ": 7407,
      "##ӈ": 7408,
      "##𐀩": 7409,
      "##𐀭": 7410,
      "##𐀅": 7411,
      "##𐀫": 7412,
      "##𝗺": 7413,
      "##𝗽": 7414,
      "##𝗶": 7415,
      "##𝗿": 7416,
      "##𝗲": 7417,
      "##𐰻": 7418,
      "##پ": 7419,
      "##ଂ": 7420,
      "##କ": 7421,
      "##ର": 7422,
      "##ନ": 7423,
      "##ତ": 7424,
      "##ና": 7425,
      "##ᴄ": 7426,
      "##𓈎": 7427,
      "##ⵙ": 7428,
      "##ɩ": 7429,
      "##ែ": 7430,
      "##𒀕": 7431,
      "##𒆠": 7432,
      "##₩": 7433,
      "##ɥ": 7434,
      "##ɴ": 7435,
      "##ቃ": 7436,
      "##െ": 7437,
      "##മ": 7438,
      "##ɸ": 7439,
      "##☉": 7440,
      "##է": 7441,
      "##ℵ": 7442,
      "##𐐫": 7443,
      "##ැ": 7444,
      "##ౄ": 7445,
      "##ܦ": 7446,
      "##ܣ": 7447,
      "##◦": 7448,
      "##≃": 7449,
      "##ባ": 7450,
      "##ਇ": 7451,
      "##ડ": 7452,
      "##ŉ": 7453,
      "##せ": 7454,
      "##โ": 7455,
      "##ヨ": 7456,
      "##˙": 7457,
      "##𞤨": 7458,
      "##ብ": 7459,
      "##ধ": 7460,
      "##ᐢ": 7461,
      "##ᑫ": 7462,
      "##ᐠ": 7463,
      "##շ": 7464,
      "##♮": 7465,
      "##˭": 7466,
      "##𐰚": 7467,
      "##𝘁": 7468,
      "##𝗮": 7469,
      "##ટ": 7470,
      "##𞥇": 7471,
      "##ᐃ": 7472,
      "##ᐍ": 7473,
      "##𐌓": 7474,
      "##ೖ": 7475,
      "##ല": 7476,
      "##സ": 7477,
      "##ထ": 7478,
      "##ဆ": 7479,
      "##ѳ": 7480,
      "##ซ": 7481,
      "##𐊑": 7482,
      "##𐊏": 7483,
      "##𐊀": 7484,
      "##ཇ": 7485,
      "##ぃ": 7486,
      "##ይ": 7487,
      "##օ": 7488,
      "##ߐ": 7489,
      "##ߣ": 7490,
      "##ߞ": 7491,
      "##ߙ": 7492,
      "##け": 7493,
      "##ဇ": 7494,
      "##ෛ": 7495,
      "##🇷": 7496,
      "##𐬌": 7497,
      "##𐬭": 7498,
      "##ః": 7499,
      "##ญ": 7500,
      "##ە": 7501,
      "##ێ": 7502,
      "##კ": 7503,
      "##ɂ": 7504,
      "##ᴀ": 7505,
      "##ɢ": 7506,
      "##घ": 7507,
      "##པ": 7508,
      "##ଜ": 7509,
      "##ଗ": 7510,
      "##ມ": 7511,
      "##ٹ": 7512,
      "##𑀥": 7513,
      "##ꭻ": 7514,
      "##ᏹ": 7515,
      "##∃": 7516,
      "##ꯛ": 7517,
      "##አ": 7518,
      "##ካ": 7519,
      "##ᔨ": 7520,
      "##ᔫ": 7521,
      "##˧": 7522,
      "##𒀭": 7523,
      "##𒁲": 7524,
      "##𒈠": 7525,
      "##𒊕": 7526,
      "##˥": 7527,
      "##˩": 7528,
      "##ጋ": 7529,
      "##ⲕ": 7530,
      "##ϫ": 7531,
      "##𐱃": 7532,
      "##𐰆": 7533,
      "##𐰣": 7534,
      "##യ": 7535,
      "##џ": 7536,
      "##🜨": 7537,
      "##ᚽ": 7538,
      "##ᚿ": 7539,
      "##ꞓ": 7540,
      "##𐒕": 7541,
      "##𐒌": 7542,
      "##ਟ": 7543,
      "##ማ": 7544,
      "##ʏ": 7545,
      "##๕": 7546,
      "##๔": 7547,
      "##๒": 7548,
      "##ⵍ": 7549,
      "##ⴻ": 7550,
      "##⌂": 7551,
      "##ワ": 7552,
      "##ܗ": 7553,
      "##𖬯": 7554,
      "##ʧ": 7555,
      "##ㇷ": 7556,
      "##ʝ": 7557,
      "##እ": 7558,
      "##ሲ": 7559,
      "##𐌑": 7560,
      "##ృ": 7561,
      "##ർ": 7562,
      "##വ": 7563,
      "##ൻ": 7564,
      "##ཟ": 7565,
      "##№": 7566,
      "##ᓪ": 7567,
      "##ᓚ": 7568,
      "##ཏ": 7569,
      "##𒈾": 7570,
      "##𒄴": 7571,
      "##൰": 7572,
      "##൨": 7573,
      "##ਭ": 7574,
      "##⅜": 7575,
      "##ቅ": 7576,
      "##ቓ": 7577,
      "##𐌻": 7578,
      "##𐌾": 7579,
      "##฿": 7580,
      "##ጮ": 7581,
      "##℥": 7582,
      "##⍵": 7583,
      "##ϧ": 7584,
      "##ⲱ": 7585,
      "##ೃ": 7586,
      "##ℳ": 7587,
      "##છ": 7588,
      "##ٿ": 7589,
      "##𐊭": 7590,
      "##𐊳": 7591,
      "##လ": 7592,
      "##ࠅ": 7593,
      "##ࠓ": 7594,
      "##ࠄ": 7595,
      "##ⱡ": 7596,
      "##١": 7597,
      "##٢": 7598,
      "##٣": 7599,
      "##٤": 7600,
      "##٥": 7601,
      "##٦": 7602,
      "##٧": 7603,
      "##٨": 7604,
      "##٩": 7605,
      "##ᚼ": 7606,
      "##𐤓": 7607,
      "##ገ": 7608,
      "##ራ": 7609,
      "##ዊ": 7610,
      "##ᵊ": 7611,
      "##ᐱ": 7612,
      "##𑀬": 7613,
      "##𑀫": 7614,
      "##𑀦": 7615,
      "##₾": 7616,
      "##ӄ": 7617,
      "##ഹ": 7618,
      "##േ": 7619,
      "##𒀀": 7620,
      "##𒈬": 7621,
      "##ខ": 7622,
      "##ទ": 7623,
      "##១": 7624,
      "##០": 7625,
      "##ឆ": 7626,
      "##ĳ": 7627,
      "##ϟ": 7628,
      "##ග": 7629,
      "##₽": 7630,
      "##ߎ": 7631,
      "##ߟ": 7632,
      "##☆": 7633,
      "##𐏀": 7634,
      "##𐎣": 7635,
      "##ਥ": 7636,
      "##𓏭": 7637,
      "##𓆱": 7638,
      "##ෂ": 7639,
      "##ප": 7640,
      "##ϩ": 7641,
      "##ﻹ": 7642,
      "##ȷ": 7643,
      "##ཛ": 7644,
      "##ܕ": 7645,
      "##ൽ": 7646,
      "##゜": 7647,
      "##ꝛ": 7648,
      "##ላ": 7649,
      "##ஞ": 7650,
      "##ހ": 7651,
      "##ބ": 7652,
      "##𐤑": 7653,
      "##ۇ": 7654,
      "##ȡ": 7655,
      "##ẚ": 7656,
      "##⊖": 7657,
      "##ゅ": 7658,
      "##ㅁ": 7659,
      "##𐒆": 7660,
      "##𐒗": 7661,
      "##𐒒": 7662,
      "##ற": 7663,
      "##ܙ": 7664,
      "##◡": 7665,
      "##▰": 7666,
      "##ꮑ": 7667,
      "##ꮃ": 7668,
      "##ꮕ": 7669,
      "##ꭿ": 7670,
      "##≫": 7671,
      "##ᯬ": 7672,
      "##ᯅ": 7673,
      "##ୀ": 7674,
      "##େ": 7675,
      "##ᣙ": 7676,
      "##ᆽ": 7677,
      "##ㅠ": 7678,
      "##ᓂ": 7679,
      "##ᔑ": 7680,
      "##ᓈ": 7681,
      "##ᐯ": 7682,
      "##ᐗ": 7683,
      "##ᑭ": 7684,
      "##ᖃ": 7685,
      "##𐅁": 7686,
      "##𐍆": 7687,
      "##⎯": 7688,
      "##ܛ": 7689,
      "##ƥ": 7690,
      "##ލ": 7691,
      "##ฑ": 7692,
      "##ધ": 7693,
      "##₣": 7694,
      "##ᑉ": 7695,
      "##ᵒ": 7696,
      "##ድ": 7697,
      "##ਡ": 7698,
      "##ଣ": 7699,
      "##ល": 7700,
      "##∫": 7701,
      "##ƈ": 7702,
      "##ছ": 7703,
      "##ㅜ": 7704,
      "##ㅉ": 7705,
      "##ㄸ": 7706,
      "##ㄲ": 7707,
      "##ཐ": 7708,
      "##ᚃ": 7709,
      "##ᚔ": 7710,
      "##ˏ": 7711,
      "##ژ": 7712,
      "##װ": 7713,
      "##ॊ": 7714,
      "##ዩ": 7715,
      "##ኖ": 7716,
      "##ኒ": 7717,
      "##ㅅ": 7718,
      "##ᑕ": 7719,
      "##ᓐ": 7720,
      "##≪": 7721,
      "##ⲃ": 7722,
      "##ශ": 7723,
      "##ஜ": 7724,
      "##∝": 7725,
      "##ฉ": 7726,
      "##ਚ": 7727,
      "##ఞ": 7728,
      "##𐒁": 7729,
      "##𒁉": 7730,
      "##𒈜": 7731,
      "##𐎰": 7732,
      "##𐎫": 7733,
      "##𐎳": 7734,
      "##𐎬": 7735,
      "##𞤥": 7736,
      "##𖬜": 7737,
      "##˛": 7738,
      "##ƙ": 7739,
      "##␣": 7740,
      "##ණ": 7741,
      "##ඩ": 7742,
      "##へ": 7743,
      "##𒅁": 7744,
      "##𒌅": 7745,
      "##𒅖": 7746,
      "##⩽": 7747,
      "##⊦": 7748,
      "##ㄌ": 7749,
      "##ㄧ": 7750,
      "##ㄠ": 7751,
      "##ঃ": 7752,
      "##𒅎": 7753,
      "##𐡒": 7754,
      "##を": 7755,
      "##゛": 7756,
      "##⁺": 7757,
      "##ㅊ": 7758,
      "##ㅌ": 7759,
      "##ㅋ": 7760,
      "##ཆ": 7761,
      "##⊢": 7762,
      "##ヰ": 7763,
      "##ሰ": 7764,
      "##ゥ": 7765,
      "##ਐ": 7766,
      "##𐭬": 7767,
      "##ນ": 7768,
      "##ທ": 7769,
      "##ະ": 7770,
      "##ລ": 7771,
      "##ƕ": 7772,
      "##𑀭": 7773,
      "##𑀢": 7774,
      "##ཞ": 7775,
      "##ሣ": 7776,
      "##ɵ": 7777,
      "##ᵻ": 7778,
      "##ℰ": 7779,
      "##դ": 7780,
      "##ጆ": 7781,
      "##𒄾": 7782,
      "##☾": 7783,
      "##ଧ": 7784,
      "##ବ": 7785,
      "##ჰ": 7786,
      "##ҹ": 7787,
      "##𐤎": 7788,
      "##ɧ": 7789,
      "##𐌕": 7790,
      "##˦": 7791,
      "##ክ": 7792,
      "##𒂆": 7793,
      "##ግ": 7794,
      "##𑀳": 7795,
      "##𑀧": 7796,
      "##ట": 7797,
      "##𐊒": 7798,
      "##𐊄": 7799,
      "##❤": 7800,
      "##✓": 7801,
      "##𐬉": 7802,
      "##𐬰": 7803,
      "##𝗳": 7804,
      "##ៃ": 7805,
      "##ᜇ": 7806,
      "##∕": 7807,
      "##ꙁ": 7808,
      "##ѡ": 7809,
      "##జ": 7810,
      "##𐡅": 7811,
      "##ฎ": 7812,
      "##ฏ": 7813,
      "##ᯀ": 7814,
      "##ゝ": 7815,
      "##𐒓": 7816,
      "##𒃾": 7817,
      "##𒇻": 7818,
      "##އ": 7819,
      "##ކ": 7820,
      "##ߍ": 7821,
      "##ⲝ": 7822,
      "##●": 7823,
      "##ݢ": 7824,
      "##િ": 7825,
      "##⋆": 7826,
      "##⅝": 7827,
      "##𐡉": 7828,
      "##చ": 7829,
      "##ᚹ": 7830,
      "##ᛖ": 7831,
      "##𓅓": 7832,
      "##𓏏": 7833,
      "##ህ": 7834,
      "##ꞑ": 7835,
      "##ਊ": 7836,
      "##ڭ": 7837,
      "##ధ": 7838,
      "##△": 7839,
      "##ŧ": 7840,
      "##℞": 7841,
      "##˓": 7842,
      "##𓌉": 7843,
      "##ဘ": 7844,
      "##ƀ": 7845,
      "##ꮿ": 7846,
      "##ሩ": 7847,
      "##ˎ": 7848,
      "##ɝ": 7849,
      "##む": 7850,
      "##ᛋ": 7851,
      "##វ": 7852,
      "##ጅ": 7853,
      "##𐑌": 7854,
      "##he": 7855,
      "the": 7856,
      "##er": 7857,
      "##on": 7858,
      "##in": 7859,
      "##es": 7860,
      "##an": 7861,
      "##at": 7862,
      "##ed": 7863,
      "##or": 7864,
      "##en": 7865,
      "in": 7866,
      "of": 7867,
      "##ar": 7868,
      "##al": 7869,
      "an": 7870,
      "##it": 7871,
      "##is": 7872,
      "##ic": 7873,
      "and": 7874,
      "##ing": 7875,
      "##as": 7876,
      "##ion": 7877,
      "##ou": 7878,
      "##re": 7879,
      "to": 7880,
      "##om": 7881,
      "##le": 7882,
      "##ent": 7883,
      "##il": 7884,
      "##el": 7885,
      "##ol": 7886,
      "##st": 7887,
      "th": 7888,
      "##ct": 7889,
      "##ro": 7890,
      "##am": 7891,
      "re": 7892,
      "##ur": 7893,
      "##et": 7894,
      "##ad": 7895,
      "##ation": 7896,
      "##iv": 7897,
      "st": 7898,
      "for": 7899,
      "##ch": 7900,
      "is": 7901,
      "##ly": 7902,
      "##ce": 7903,
      "as": 7904,
      "was": 7905,
      "##id": 7906,
      "##ig": 7907,
      "on": 7908,
      "##ot": 7909,
      "##ir": 7910,
      "be": 7911,
      "19": 7912,
      "##ut": 7913,
      "##ers": 7914,
      "##us": 7915,
      "al": 7916,
      "##ist": 7917,
      "##ul": 7918,
      "##im": 7919,
      "##ow": 7920,
      "##em": 7921,
      "##ith": 7922,
      "fr": 7923,
      "con": 7924,
      "##ay": 7925,
      "wh": 7926,
      "with": 7927,
      "##ter": 7928,
      "by": 7929,
      "##ver": 7930,
      "##ge": 7931,
      "##th": 7932,
      "##oun": 7933,
      "##os": 7934,
      "##and": 7935,
      "##op": 7936,
      "##her": 7937,
      "##ra": 7938,
      "un": 7939,
      "de": 7940,
      "it": 7941,
      "or": 7942,
      "ch": 7943,
      "com": 7944,
      "that": 7945,
      "##ac": 7946,
      "##ies": 7947,
      "##um": 7948,
      "pro": 7949,
      "##ity": 7950,
      "se": 7951,
      "at": 7952,
      "##ian": 7953,
      "20": 7954,
      "##est": 7955,
      "##un": 7956,
      "##od": 7957,
      "from": 7958,
      "##ess": 7959,
      "su": 7960,
      "##av": 7961,
      "##ain": 7962,
      "##se": 7963,
      "##ere": 7964,
      "##oc": 7965,
      "ex": 7966,
      "##ate": 7967,
      "are": 7968,
      "he": 7969,
      "pr": 7970,
      "##ab": 7971,
      "##if": 7972,
      "were": 7973,
      "ne": 7974,
      "en": 7975,
      "##ich": 7976,
      "##pe": 7977,
      "ar": 7978,
      "##ia": 7979,
      "##ort": 7980,
      "##ud": 7981,
      "##art": 7982,
      "##ip": 7983,
      "##ial": 7984,
      "##ill": 7985,
      "his": 7986,
      "##ated": 7987,
      "##ld": 7988,
      "##ant": 7989,
      "##ment": 7990,
      "##igh": 7991,
      "##ap": 7992,
      "##all": 7993,
      "##ber": 7994,
      "##ak": 7995,
      "##ard": 7996,
      "le": 7997,
      "pl": 7998,
      "##ive": 7999,
      "##og": 8000,
      "##ag": 8001,
      "##ical": 8002,
      "18": 8003,
      "##ary": 8004,
      "##qu": 8005,
      "which": 8006,
      "tr": 8007,
      "am": 8008,
      "inc": 8009,
      "##ish": 8010,
      "##ount": 8011,
      "sh": 8012,
      "##our": 8013,
      "##ine": 8014,
      "##ib": 8015,
      "##der": 8016,
      "##ast": 8017,
      "##ction": 8018,
      "##gh": 8019,
      "##ther": 8020,
      "##ome": 8021,
      "##ore": 8022,
      "##ov": 8023,
      "##ost": 8024,
      "##ie": 8025,
      "##ell": 8026,
      "not": 8027,
      "wor": 8028,
      "comp": 8029,
      "##pp": 8030,
      "##iz": 8031,
      "##ure": 8032,
      "cl": 8033,
      "had": 8034,
      "##cc": 8035,
      "us": 8036,
      "##ame": 8037,
      "sp": 8038,
      "##ear": 8039,
      "ad": 8040,
      "##du": 8041,
      "##per": 8042,
      "this": 8043,
      "##ous": 8044,
      "##so": 8045,
      "##ong": 8046,
      "##ans": 8047,
      "af": 8048,
      "res": 8049,
      "##ens": 8050,
      "##ough": 8051,
      "##age": 8052,
      "##ave": 8053,
      "count": 8054,
      "##ound": 8055,
      "##rit": 8056,
      "##pt": 8057,
      "##end": 8058,
      "##ub": 8059,
      "also": 8060,
      "##ight": 8061,
      "mar": 8062,
      "cont": 8063,
      "200": 8064,
      "ab": 8065,
      "##ect": 8066,
      "man": 8067,
      "per": 8068,
      "comm": 8069,
      "int": 8070,
      "whe": 8071,
      "##ition": 8072,
      "part": 8073,
      "all": 8074,
      "201": 8075,
      "##ks": 8076,
      "##ican": 8077,
      "##ord": 8078,
      "##ust": 8079,
      "##fer": 8080,
      "##ence": 8081,
      "has": 8082,
      "sc": 8083,
      "new": 8084,
      "##ry": 8085,
      "##ass": 8086,
      "##wn": 8087,
      "##ations": 8088,
      "##out": 8089,
      "##ign": 8090,
      "year": 8091,
      "##ates": 8092,
      "other": 8093,
      "its": 8094,
      "fir": 8095,
      "##ue": 8096,
      "gr": 8097,
      "can": 8098,
      "##mp": 8099,
      "te": 8100,
      "##ult": 8101,
      "##ory": 8102,
      "##ual": 8103,
      "cent": 8104,
      "there": 8105,
      "##ire": 8106,
      "##ater": 8107,
      "##tern": 8108,
      "have": 8109,
      "amer": 8110,
      "one": 8111,
      "##old": 8112,
      "##man": 8113,
      "##00": 8114,
      "but": 8115,
      "first": 8116,
      "##ph": 8117,
      "their": 8118,
      "##lud": 8119,
      "tw": 8120,
      "##ces": 8121,
      "##over": 8122,
      "ser": 8123,
      "dis": 8124,
      "##land": 8125,
      "who": 8126,
      "pop": 8127,
      "##ru": 8128,
      "col": 8129,
      "##ang": 8130,
      "##ied": 8131,
      "##ree": 8132,
      "##ace": 8133,
      "pe": 8134,
      "ind": 8135,
      "##own": 8136,
      "##act": 8137,
      "includ": 8138,
      "rep": 8139,
      "##ide": 8140,
      "##ould": 8141,
      "##ict": 8142,
      "##ime": 8143,
      "##ile": 8144,
      "bec": 8145,
      "##ice": 8146,
      "pol": 8147,
      "##ond": 8148,
      "sy": 8149,
      "##ack": 8150,
      "ro": 8151,
      "ag": 8152,
      "##ited": 8153,
      "##les": 8154,
      "form": 8155,
      "##hed": 8156,
      "##ely": 8157,
      "des": 8158,
      "##ose": 8159,
      "rec": 8160,
      "me": 8161,
      "##ational": 8162,
      "##ach": 8163,
      "##ke": 8164,
      "popul": 8165,
      "city": 8166,
      "##ite": 8167,
      "american": 8168,
      "county": 8169,
      "##ouse": 8170,
      "after": 8171,
      "they": 8172,
      "##ents": 8173,
      "##ff": 8174,
      "ph": 8175,
      "two": 8176,
      "gen": 8177,
      "par": 8178,
      "##ance": 8179,
      "##one": 8180,
      "##ubl": 8181,
      "over": 8182,
      "car": 8183,
      "##able": 8184,
      "under": 8185,
      "199": 8186,
      "bo": 8187,
      "been": 8188,
      "ev": 8189,
      "##ions": 8190,
      "ele": 8191,
      "##vel": 8192,
      "sch": 8193,
      "##amp": 8194,
      "##te": 8195,
      "br": 8196,
      "##ok": 8197,
      "pres": 8198,
      "##ade": 8199,
      "more": 8200,
      "spe": 8201,
      "her": 8202,
      "out": 8203,
      "acc": 8204,
      "war": 8205,
      "some": 8206,
      "house": 8207,
      "##aw": 8208,
      "##ors": 8209,
      "act": 8210,
      "##ail": 8211,
      "##ood": 8212,
      "co": 8213,
      "##we": 8214,
      "fe": 8215,
      "##ced": 8216,
      "##orm": 8217,
      "##uring": 8218,
      "bl": 8219,
      "most": 8220,
      "eng": 8221,
      "reg": 8222,
      "fam": 8223,
      "##olog": 8224,
      "ear": 8225,
      "age": 8226,
      "pre": 8227,
      "##oll": 8228,
      "##ild": 8229,
      "med": 8230,
      "##ics": 8231,
      "fl": 8232,
      "##int": 8233,
      "##ath": 8234,
      "cons": 8235,
      "jo": 8236,
      "may": 8237,
      "up": 8238,
      "hist": 8239,
      "bas": 8240,
      "we": 8241,
      "no": 8242,
      "years": 8243,
      "off": 8244,
      "such": 8245,
      "##gr": 8246,
      "rel": 8247,
      "kn": 8248,
      "bet": 8249,
      "##orn": 8250,
      "peop": 8251,
      "when": 8252,
      "fil": 8253,
      "into": 8254,
      "play": 8255,
      "exp": 8256,
      "##ake": 8257,
      "app": 8258,
      "198": 8259,
      "ma": 8260,
      "ap": 8261,
      "famil": 8262,
      "people": 8263,
      "##iss": 8264,
      "time": 8265,
      "states": 8266,
      "##reat": 8267,
      "used": 8268,
      "sou": 8269,
      "imp": 8270,
      "##ool": 8271,
      "mus": 8272,
      "nor": 8273,
      "##eral": 8274,
      "##ivers": 8275,
      "ac": 8276,
      "att": 8277,
      "sec": 8278,
      "char": 8279,
      "min": 8280,
      "##ities": 8281,
      "ass": 8282,
      "##inal": 8283,
      "##ons": 8284,
      "during": 8285,
      "##ings": 8286,
      "##ism": 8287,
      "##ury": 8288,
      "loc": 8289,
      "trans": 8290,
      "produ": 8291,
      "##aus": 8292,
      "publ": 8293,
      "united": 8294,
      "197": 8295,
      "inter": 8296,
      "##ts": 8297,
      "ter": 8298,
      "town": 8299,
      "##hip": 8300,
      "so": 8301,
      "po": 8302,
      "sub": 8303,
      "population": 8304,
      "lar": 8305,
      "tra": 8306,
      "world": 8307,
      "film": 8308,
      "thr": 8309,
      "##ve": 8310,
      "17": 8311,
      "high": 8312,
      "##io": 8313,
      "bu": 8314,
      "##gan": 8315,
      "##are": 8316,
      "than": 8317,
      "##ween": 8318,
      "##ale": 8319,
      "school": 8320,
      "##ific": 8321,
      "between": 8322,
      "##ious": 8323,
      "##ales": 8324,
      "##eld": 8325,
      "mon": 8326,
      "state": 8327,
      "##ative": 8328,
      "dec": 8329,
      "mod": 8330,
      "dist": 8331,
      "##oup": 8332,
      "only": 8333,
      "inf": 8334,
      "many": 8335,
      "196": 8336,
      "met": 8337,
      "househ": 8338,
      "##ase": 8339,
      "est": 8340,
      "##oth": 8341,
      "##ward": 8342,
      "##au": 8343,
      "would": 8344,
      "##ft": 8345,
      "liv": 8346,
      "##overn": 8347,
      "them": 8348,
      "li": 8349,
      "govern": 8350,
      "##ved": 8351,
      "how": 8352,
      "##stem": 8353,
      "##ton": 8354,
      "##iet": 8355,
      "these": 8356,
      "##ished": 8357,
      "##way": 8358,
      "num": 8359,
      "will": 8360,
      "##ys": 8361,
      "about": 8362,
      "##urn": 8363,
      "str": 8364,
      "qu": 8365,
      "##ember": 8366,
      "def": 8367,
      "##ick": 8368,
      "system": 8369,
      "##ind": 8370,
      "##ten": 8371,
      "##ne": 8372,
      "through": 8373,
      "##ince": 8374,
      "she": 8375,
      "work": 8376,
      "16": 8377,
      "inst": 8378,
      "cap": 8379,
      "air": 8380,
      "##ep": 8381,
      "##ix": 8382,
      "bel": 8383,
      "##ug": 8384,
      "set": 8385,
      "do": 8386,
      "univers": 8387,
      "call": 8388,
      "##raph": 8389,
      "##rib": 8390,
      "##ral": 8391,
      "##lish": 8392,
      "##ier": 8393,
      "em": 8394,
      "him": 8395,
      "##ution": 8396,
      "10": 8397,
      "ed": 8398,
      "century": 8399,
      "##ress": 8400,
      "15": 8401,
      "##ock": 8402,
      "ger": 8403,
      "spec": 8404,
      "national": 8405,
      "bro": 8406,
      "north": 8407,
      "rem": 8408,
      "inv": 8409,
      "ge": 8410,
      "##ists": 8411,
      "##ern": 8412,
      "sm": 8413,
      "##ower": 8414,
      "area": 8415,
      "old": 8416,
      "made": 8417,
      "art": 8418,
      "dep": 8419,
      "including": 8420,
      "refer": 8421,
      "found": 8422,
      "known": 8423,
      "##its": 8424,
      "south": 8425,
      "##hes": 8426,
      "##velop": 8427,
      "##cted": 8428,
      "##ject": 8429,
      "##ines": 8430,
      "##ins": 8431,
      "where": 8432,
      "##ating": 8433,
      "supp": 8434,
      "prov": 8435,
      "household": 8436,
      "##lo": 8437,
      "##anc": 8438,
      "while": 8439,
      "stud": 8440,
      "##tle": 8441,
      "##urr": 8442,
      "##ted": 8443,
      "develop": 8444,
      "later": 8445,
      "##0s": 8446,
      "ob": 8447,
      "194": 8448,
      "king": 8449,
      "##ollow": 8450,
      "writ": 8451,
      "##uc": 8452,
      "##hn": 8453,
      "general": 8454,
      "##ences": 8455,
      "aut": 8456,
      "##ife": 8457,
      "cr": 8458,
      "follow": 8459,
      "day": 8460,
      "end": 8461,
      "pos": 8462,
      "gu": 8463,
      "##ames": 8464,
      "##ron": 8465,
      "commun": 8466,
      "dif": 8467,
      "195": 8468,
      "##ric": 8469,
      "const": 8470,
      "##ient": 8471,
      "##ular": 8472,
      "##ures": 8473,
      "mov": 8474,
      "fem": 8475,
      "##ah": 8476,
      "any": 8477,
      "##res": 8478,
      "main": 8479,
      "land": 8480,
      "##ize": 8481,
      "var": 8482,
      "add": 8483,
      "##ss": 8484,
      "sim": 8485,
      "oper": 8486,
      "pers": 8487,
      "german": 8488,
      "##als": 8489,
      "three": 8490,
      "arm": 8491,
      "im": 8492,
      "dem": 8493,
      "##ork": 8494,
      "##tain": 8495,
      "##ograph": 8496,
      "##ise": 8497,
      "serv": 8498,
      "##iver": 8499,
      "use": 8500,
      "government": 8501,
      "well": 8502,
      "##ty": 8503,
      "12": 8504,
      "soc": 8505,
      "##ever": 8506,
      "both": 8507,
      "polit": 8508,
      "##con": 8509,
      "cens": 8510,
      "##ural": 8511,
      "brit": 8512,
      "##ank": 8513,
      "##up": 8514,
      "##ized": 8515,
      "ever": 8516,
      "group": 8517,
      "##uro": 8518,
      "dire": 8519,
      "again": 8520,
      "early": 8521,
      "john": 8522,
      "##ery": 8523,
      "##ision": 8524,
      "##ann": 8525,
      "##ather": 8526,
      "##ident": 8527,
      "then": 8528,
      "##az": 8529,
      "orig": 8530,
      "##ement": 8531,
      "##ause": 8532,
      "dr": 8533,
      "##cept": 8534,
      "census": 8535,
      "mem": 8536,
      "history": 8537,
      "ty": 8538,
      "mil": 8539,
      "rev": 8540,
      "id": 8541,
      "##ology": 8542,
      "##fore": 8543,
      "el": 8544,
      "however": 8545,
      "called": 8546,
      "##aces": 8547,
      "living": 8548,
      "sever": 8549,
      "sign": 8550,
      "being": 8551,
      "university": 8552,
      "ext": 8553,
      "intern": 8554,
      "##iam": 8555,
      "second": 8556,
      "nov": 8557,
      "sl": 8558,
      "##ium": 8559,
      "##ctions": 8560,
      "sa": 8561,
      "##cess": 8562,
      "became": 8563,
      "##ually": 8564,
      "since": 8565,
      "193": 8566,
      "cor": 8567,
      "aver": 8568,
      "##air": 8569,
      "maj": 8570,
      "##ments": 8571,
      "ret": 8572,
      "colle": 8573,
      "public": 8574,
      "##ield": 8575,
      "family": 8576,
      "cre": 8577,
      "cal": 8578,
      "lead": 8579,
      "11": 8580,
      "fun": 8581,
      "long": 8582,
      "op": 8583,
      "if": 8584,
      "sur": 8585,
      "##ically": 8586,
      "##other": 8587,
      "val": 8588,
      "gre": 8589,
      "##ined": 8590,
      "##til": 8591,
      "euro": 8592,
      "eff": 8593,
      "english": 8594,
      "mat": 8595,
      "number": 8596,
      "west": 8597,
      "term": 8598,
      "sing": 8599,
      "law": 8600,
      "major": 8601,
      "la": 8602,
      "##uss": 8603,
      "those": 8604,
      "##ley": 8605,
      "average": 8606,
      "##ional": 8607,
      "ref": 8608,
      "##led": 8609,
      "##oman": 8610,
      "estab": 8611,
      "14": 8612,
      "##bers": 8613,
      "##cy": 8614,
      "four": 8615,
      "lin": 8616,
      "##ik": 8617,
      "##els": 8618,
      "##ording": 8619,
      "##ians": 8620,
      "000": 8621,
      "bar": 8622,
      "design": 8623,
      "##ene": 8624,
      "red": 8625,
      "har": 8626,
      "lang": 8627,
      "##ible": 8628,
      "emp": 8629,
      "##get": 8630,
      "##row": 8631,
      "25": 8632,
      "own": 8633,
      "##imes": 8634,
      "see": 8635,
      "##elf": 8636,
      "child": 8637,
      "192": 8638,
      "port": 8639,
      "histor": 8640,
      "##ased": 8641,
      "##ange": 8642,
      "chr": 8643,
      "##ature": 8644,
      "##gest": 8645,
      "non": 8646,
      "##enn": 8647,
      "13": 8648,
      "class": 8649,
      "differ": 8650,
      "sw": 8651,
      "europe": 8652,
      "##iew": 8653,
      "##red": 8654,
      "disc": 8655,
      "##ench": 8656,
      "offic": 8657,
      "occ": 8658,
      "##ially": 8659,
      "leg": 8660,
      "line": 8661,
      "several": 8662,
      "##ider": 8663,
      "##ages": 8664,
      "##inn": 8665,
      "hum": 8666,
      "mill": 8667,
      "##ina": 8668,
      "island": 8669,
      "desc": 8670,
      "##hen": 8671,
      "langu": 8672,
      "contin": 8673,
      "name": 8674,
      "##ll": 8675,
      "##ars": 8676,
      "##ck": 8677,
      "present": 8678,
      "comple": 8679,
      "av": 8680,
      "music": 8681,
      "contr": 8682,
      "every": 8683,
      "##hem": 8684,
      "income": 8685,
      "##eter": 8686,
      "before": 8687,
      "progr": 8688,
      "##ility": 8689,
      "##rop": 8690,
      "conc": 8691,
      "appe": 8692,
      "##ues": 8693,
      "ann": 8694,
      "##ants": 8695,
      "according": 8696,
      "french": 8697,
      "median": 8698,
      "cour": 8699,
      "##port": 8700,
      "lit": 8701,
      "##erg": 8702,
      "##ble": 8703,
      "record": 8704,
      "ii": 8705,
      "##eng": 8706,
      "compan": 8707,
      "ke": 8708,
      "support": 8709,
      "lat": 8710,
      "bat": 8711,
      "based": 8712,
      "organ": 8713,
      "water": 8714,
      "near": 8715,
      "191": 8716,
      "because": 8717,
      "##ren": 8718,
      "##ful": 8719,
      "great": 8720,
      "power": 8721,
      "mo": 8722,
      "##ivid": 8723,
      "each": 8724,
      "##urch": 8725,
      "same": 8726,
      "##osed": 8727,
      "##ently": 8728,
      "##son": 8729,
      "show": 8730,
      "conf": 8731,
      "vers": 8732,
      "charact": 8733,
      "perf": 8734,
      "east": 8735,
      "##ally": 8736,
      "elect": 8737,
      "common": 8738,
      "##amed": 8739,
      "small": 8740,
      "##por": 8741,
      "series": 8742,
      "partic": 8743,
      "british": 8744,
      "families": 8745,
      "until": 8746,
      "##ball": 8747,
      "##ital": 8748,
      "result": 8749,
      "life": 8750,
      "100": 8751,
      "##ting": 8752,
      "##xt": 8753,
      "##ived": 8754,
      "mid": 8755,
      "65": 8756,
      "point": 8757,
      "christ": 8758,
      "je": 8759,
      "often": 8760,
      "death": 8761,
      "households": 8762,
      "##ract": 8763,
      "mu": 8764,
      "river": 8765,
      "##omin": 8766,
      "##yn": 8767,
      "cult": 8768,
      "##conom": 8769,
      "towns": 8770,
      "examp": 8771,
      "aust": 8772,
      "##ared": 8773,
      "##ross": 8774,
      "against": 8775,
      "mark": 8776,
      "##ason": 8777,
      "rele": 8778,
      "phil": 8779,
      "24": 8780,
      "##ives": 8781,
      "##pl": 8782,
      "equ": 8783,
      "##ino": 8784,
      "pat": 8785,
      "president": 8786,
      "direct": 8787,
      "##ister": 8788,
      "##rict": 8789,
      "##ull": 8790,
      "white": 8791,
      "##ior": 8792,
      "##vent": 8793,
      "##oot": 8794,
      "econom": 8795,
      "ins": 8796,
      "rad": 8797,
      "##atic": 8798,
      "##inc": 8799,
      "like": 8800,
      "jun": 8801,
      "##iod": 8802,
      "back": 8803,
      "auth": 8804,
      "##amm": 8805,
      "lo": 8806,
      "fre": 8807,
      "open": 8808,
      "original": 8809,
      "could": 8810,
      "born": 8811,
      "ant": 8812,
      "trad": 8813,
      "international": 8814,
      "incre": 8815,
      "bus": 8816,
      "##aking": 8817,
      "##ius": 8818,
      "##ane": 8819,
      "mag": 8820,
      "##br": 8821,
      "##ica": 8822,
      "arch": 8823,
      "##bert": 8824,
      "alth": 8825,
      "pass": 8826,
      "squ": 8827,
      "##erv": 8828,
      "list": 8829,
      "##chn": 8830,
      "make": 8831,
      "remain": 8832,
      "go": 8833,
      "although": 8834,
      "order": 8835,
      "right": 8836,
      "es": 8837,
      "large": 8838,
      "now": 8839,
      "##ised": 8840,
      "ent": 8841,
      "##ought": 8842,
      "size": 8843,
      "following": 8844,
      "my": 8845,
      "##ont": 8846,
      "prot": 8847,
      "##ec": 8848,
      "consider": 8849,
      "person": 8850,
      "ju": 8851,
      "##ute": 8852,
      "park": 8853,
      "former": 8854,
      "tele": 8855,
      "##ission": 8856,
      "run": 8857,
      "around": 8858,
      "stand": 8859,
      "references": 8860,
      "sol": 8861,
      "coun": 8862,
      "##ices": 8863,
      "ste": 8864,
      "##ets": 8865,
      "##ued": 8866,
      "##ator": 8867,
      "##ccess": 8868,
      "##omet": 8869,
      "2010": 8870,
      "##ger": 8871,
      "camp": 8872,
      "build": 8873,
      "within": 8874,
      "vol": 8875,
      "##ri": 8876,
      "home": 8877,
      "include": 8878,
      "##ruct": 8879,
      "hy": 8880,
      "appro": 8881,
      "##ience": 8882,
      "##ark": 8883,
      "period": 8884,
      "##cl": 8885,
      "tem": 8886,
      "techn": 8887,
      "milit": 8888,
      "children": 8889,
      "along": 8890,
      "did": 8891,
      "##ird": 8892,
      "down": 8893,
      "stat": 8894,
      "press": 8895,
      "sk": 8896,
      "30": 8897,
      "repres": 8898,
      "indu": 8899,
      "##tal": 8900,
      "author": 8901,
      "202": 8902,
      "york": 8903,
      "jan": 8904,
      "modern": 8905,
      "##und": 8906,
      "even": 8907,
      "##ired": 8908,
      "##ried": 8909,
      "requ": 8910,
      "##ille": 8911,
      "different": 8912,
      "roman": 8913,
      "head": 8914,
      "##ides": 8915,
      "##ret": 8916,
      "far": 8917,
      "alb": 8918,
      "##read": 8919,
      "way": 8920,
      "##bs": 8921,
      "##ively": 8922,
      "fin": 8923,
      "country": 8924,
      "fur": 8925,
      "##ified": 8926,
      "effect": 8927,
      "success": 8928,
      "church": 8929,
      "aug": 8930,
      "another": 8931,
      "hel": 8932,
      "##duc": 8933,
      "##iation": 8934,
      "##ization": 8935,
      "2000": 8936,
      "ep": 8937,
      "##ert": 8938,
      "##lu": 8939,
      "among": 8940,
      "just": 8941,
      "##itions": 8942,
      "located": 8943,
      "##ief": 8944,
      "district": 8945,
      "due": 8946,
      "##ival": 8947,
      "adv": 8948,
      "post": 8949,
      "rest": 8950,
      "##ony": 8951,
      "import": 8952,
      "21": 8953,
      "members": 8954,
      "##ison": 8955,
      "##ography": 8956,
      "net": 8957,
      "gl": 8958,
      "allow": 8959,
      "geor": 8960,
      "##ax": 8961,
      "##lished": 8962,
      "del": 8963,
      "example": 8964,
      "black": 8965,
      "##ove": 8966,
      "##ams": 8967,
      "males": 8968,
      "##omen": 8969,
      "##pect": 8970,
      "crit": 8971,
      "local": 8972,
      "began": 8973,
      "rece": 8974,
      "party": 8975,
      "ir": 8976,
      "oct": 8977,
      "##aim": 8978,
      "females": 8979,
      "place": 8980,
      "##ended": 8981,
      "##ily": 8982,
      "ang": 8983,
      "hand": 8984,
      "##ilt": 8985,
      "prop": 8986,
      "award": 8987,
      "##ency": 8988,
      "assoc": 8989,
      "##ae": 8990,
      "##co": 8991,
      "##bo": 8992,
      "##ai": 8993,
      "##uary": 8994,
      "##ensity": 8995,
      "##ode": 8996,
      "ital": 8997,
      "established": 8998,
      "nort": 8999,
      "##ries": 9000,
      "august": 9001,
      "process": 9002,
      "much": 9003,
      "vis": 9004,
      "##yl": 9005,
      "song": 9006,
      "##ured": 9007,
      "poss": 9008,
      "educ": 9009,
      "##min": 9010,
      "language": 9011,
      "prof": 9012,
      "190": 9013,
      "individ": 9014,
      "##ash": 9015,
      "represent": 9016,
      "start": 9017,
      "##iety": 9018,
      "opp": 9019,
      "older": 9020,
      "named": 9021,
      "last": 9022,
      "game": 9023,
      "march": 9024,
      "report": 9025,
      "military": 9026,
      "##ately": 9027,
      "center": 9028,
      "##iven": 9029,
      "foot": 9030,
      "##ese": 9031,
      "##estern": 9032,
      "individual": 9033,
      "what": 9034,
      "##by": 9035,
      "eas": 9036,
      "##ner": 9037,
      "god": 9038,
      "arr": 9039,
      "william": 9040,
      "book": 9041,
      "##que": 9042,
      "curr": 9043,
      "##ott": 9044,
      "return": 9045,
      "company": 9046,
      "##oss": 9047,
      "character": 9048,
      "exper": 9049,
      "fact": 9050,
      "short": 9051,
      "russ": 9052,
      "density": 9053,
      "bre": 9054,
      "##lic": 9055,
      "jap": 9056,
      "##par": 9057,
      "using": 9058,
      "dra": 9059,
      "sept": 9060,
      "##ternal": 9061,
      "word": 9062,
      "hol": 9063,
      "##ided": 9064,
      "total": 9065,
      "political": 9066,
      "##oph": 9067,
      "republ": 9068,
      "further": 9069,
      "canad": 9070,
      "million": 9071,
      "civ": 9072,
      "japan": 9073,
      "army": 9074,
      "read": 9075,
      "typ": 9076,
      "mass": 9077,
      "describ": 9078,
      "stre": 9079,
      "vill": 9080,
      "##urg": 9081,
      "central": 9082,
      "june": 9083,
      "sum": 9084,
      "addition": 9085,
      "still": 9086,
      "popular": 9087,
      "july": 9088,
      "rail": 9089,
      "january": 9090,
      "##rip": 9091,
      "vi": 9092,
      "dece": 9093,
      "##ases": 9094,
      "##ata": 9095,
      "##aving": 9096,
      "##ril": 9097,
      "led": 9098,
      "div": 9099,
      "km": 9100,
      "lim": 9101,
      "men": 9102,
      "189": 9103,
      "human": 9104,
      "##ats": 9105,
      "nat": 9106,
      "township": 9107,
      "external": 9108,
      "final": 9109,
      "pal": 9110,
      "very": 9111,
      "square": 9112,
      "##reek": 9113,
      "development": 9114,
      "##ober": 9115,
      "##aced": 9116,
      "star": 9117,
      "september": 9118,
      "##be": 9119,
      "rout": 9120,
      "contain": 9121,
      "real": 9122,
      "field": 9123,
      "tit": 9124,
      "##ford": 9125,
      "##mber": 9126,
      "band": 9127,
      "mor": 9128,
      "lond": 9129,
      "resp": 9130,
      "october": 9131,
      "##ling": 9132,
      "##idge": 9133,
      "22": 9134,
      "pa": 9135,
      "##mer": 9136,
      "social": 9137,
      "##akes": 9138,
      "london": 9139,
      "##hest": 9140,
      "super": 9141,
      "hig": 9142,
      "mount": 9143,
      "##ilar": 9144,
      "##alth": 9145,
      "indust": 9146,
      "##cil": 9147,
      "best": 9148,
      "treat": 9149,
      "lab": 9150,
      "beg": 9151,
      "level": 9152,
      "bi": 9153,
      "road": 9154,
      "influ": 9155,
      "hous": 9156,
      "##gether": 9157,
      "together": 9158,
      "##rodu": 9159,
      "service": 9160,
      "civil": 9161,
      "december": 9162,
      "phys": 9163,
      "community": 9164,
      "##ves": 9165,
      "23": 9166,
      "links": 9167,
      "similar": 9168,
      "##line": 9169,
      "hal": 9170,
      "late": 9171,
      "prim": 9172,
      "##olution": 9173,
      "resid": 9174,
      "son": 9175,
      "ra": 9176,
      "188": 9177,
      "top": 9178,
      "arg": 9179,
      "##ness": 9180,
      "##ories": 9181,
      "austral": 9182,
      "april": 9183,
      "##ms": 9184,
      "##ibr": 9185,
      "built": 9186,
      "western": 9187,
      "##ler": 9188,
      "##iness": 9189,
      "feat": 9190,
      "sen": 9191,
      "##ipp": 9192,
      "sour": 9193,
      "relig": 9194,
      "##hing": 9195,
      "tour": 9196,
      "sal": 9197,
      "##ville": 9198,
      "##xim": 9199,
      "control": 9200,
      "times": 9201,
      "said": 9202,
      "tradition": 9203,
      "aff": 9204,
      "left": 9205,
      "rock": 9206,
      "##let": 9207,
      "expl": 9208,
      "##erc": 9209,
      "union": 9210,
      "published": 9211,
      "five": 9212,
      "november": 9213,
      "##ven": 9214,
      "bod": 9215,
      "ill": 9216,
      "26": 9217,
      "six": 9218,
      "player": 9219,
      "less": 9220,
      "free": 9221,
      "space": 9222,
      "bor": 9223,
      "resear": 9224,
      "##ological": 9225,
      "female": 9226,
      "vot": 9227,
      "court": 9228,
      "mult": 9229,
      "##yal": 9230,
      "##ards": 9231,
      "##epend": 9232,
      "cle": 9233,
      "low": 9234,
      "##dom": 9235,
      "afr": 9236,
      "battle": 9237,
      "##ths": 9238,
      "council": 9239,
      "##day": 9240,
      "dev": 9241,
      "kill": 9242,
      "vir": 9243,
      "independ": 9244,
      "##irc": 9245,
      "cat": 9246,
      "event": 9247,
      "##pan": 9248,
      "##ged": 9249,
      "##vers": 9250,
      "27": 9251,
      "##ument": 9252,
      "##cer": 9253,
      "##ration": 9254,
      "bra": 9255,
      "iss": 9256,
      "187": 9257,
      "det": 9258,
      "turn": 9259,
      "let": 9260,
      "meth": 9261,
      "##vision": 9262,
      "gra": 9263,
      "light": 9264,
      "san": 9265,
      "team": 9266,
      "28": 9267,
      "held": 9268,
      "largest": 9269,
      "african": 9270,
      "rac": 9271,
      "cy": 9272,
      "women": 9273,
      "45": 9274,
      "du": 9275,
      "den": 9276,
      "##loy": 9277,
      "##ays": 9278,
      "##ring": 9279,
      "chang": 9280,
      "european": 9281,
      "particular": 9282,
      "##hel": 9283,
      "season": 9284,
      "comput": 9285,
      "manag": 9286,
      "##ria": 9287,
      "somet": 9288,
      "##bru": 9289,
      "##ob": 9290,
      "##sc": 9291,
      "given": 9292,
      "comb": 9293,
      "##ones": 9294,
      "##ague": 9295,
      "official": 9296,
      "miss": 9297,
      "cities": 9298,
      "races": 9299,
      "dav": 9300,
      "third": 9301,
      "186": 9302,
      "france": 9303,
      "pur": 9304,
      "rich": 9305,
      "included": 9306,
      "album": 9307,
      "anc": 9308,
      "cer": 9309,
      "considered": 9310,
      "though": 9311,
      "circ": 9312,
      "acad": 9313,
      "##sh": 9314,
      "claim": 9315,
      "region": 9316,
      "areas": 9317,
      "hun": 9318,
      "##aster": 9319,
      "ident": 9320,
      "took": 9321,
      "prev": 9322,
      "various": 9323,
      "units": 9324,
      "##ps": 9325,
      "lou": 9326,
      "important": 9327,
      "imm": 9328,
      "without": 9329,
      "instit": 9330,
      "##arch": 9331,
      "special": 9332,
      "##augh": 9333,
      "init": 9334,
      "project": 9335,
      "febru": 9336,
      "force": 9337,
      "indian": 9338,
      "february": 9339,
      "released": 9340,
      "lake": 9341,
      "you": 9342,
      "married": 9343,
      "cam": 9344,
      "ide": 9345,
      "struct": 9346,
      "##ters": 9347,
      "academ": 9348,
      "business": 9349,
      "single": 9350,
      "##uted": 9351,
      "##ript": 9352,
      "few": 9353,
      "introdu": 9354,
      "##ges": 9355,
      "gold": 9356,
      "view": 9357,
      "mot": 9358,
      "##empt": 9359,
      "test": 9360,
      "##lin": 9361,
      "nav": 9362,
      "vict": 9363,
      "##ald": 9364,
      "inform": 9365,
      "sug": 9366,
      "cast": 9367,
      "activ": 9368,
      "become": 9369,
      "##ruction": 9370,
      "pain": 9371,
      "##hern": 9372,
      "television": 9373,
      "##anish": 9374,
      "##ama": 9375,
      "ce": 9376,
      "enter": 9377,
      "mic": 9378,
      "production": 9379,
      "pract": 9380,
      "##iated": 9381,
      "grow": 9382,
      "##work": 9383,
      "native": 9384,
      "base": 9385,
      "films": 9386,
      "engine": 9387,
      "der": 9388,
      "youn": 9389,
      "care": 9390,
      "50": 9391,
      "rul": 9392,
      "##yle": 9393,
      "football": 9394,
      "coup": 9395,
      "works": 9396,
      "er": 9397,
      "bir": 9398,
      "29": 9399,
      "bill": 9400,
      "games": 9401,
      "kingdom": 9402,
      "england": 9403,
      "cond": 9404,
      "caus": 9405,
      "##ither": 9406,
      "education": 9407,
      "sit": 9408,
      "proper": 9409,
      "good": 9410,
      "exist": 9411,
      "earl": 9412,
      "ur": 9413,
      "college": 9414,
      "northern": 9415,
      "won": 9416,
      "##dle": 9417,
      "broad": 9418,
      "44": 9419,
      "##me": 9420,
      "repl": 9421,
      "role": 9422,
      "##iction": 9423,
      "40": 9424,
      "##orts": 9425,
      "##ends": 9426,
      "64": 9427,
      "method": 9428,
      "jew": 9429,
      "race": 9430,
      "##ox": 9431,
      "mean": 9432,
      "##rote": 9433,
      "##na": 9434,
      "mich": 9435,
      "##raft": 9436,
      "sold": 9437,
      "developed": 9438,
      "##thern": 9439,
      "fed": 9440,
      "need": 9441,
      "bur": 9442,
      "places": 9443,
      "libr": 9444,
      "##ows": 9445,
      "##ink": 9446,
      "##ning": 9447,
      "christian": 9448,
      "perform": 9449,
      "##ots": 9450,
      "##af": 9451,
      "##ogn": 9452,
      "conn": 9453,
      "invol": 9454,
      "office": 9455,
      "##osp": 9456,
      "forces": 9457,
      "31": 9458,
      "usually": 9459,
      "##inning": 9460,
      "depart": 9461,
      "research": 9462,
      "dest": 9463,
      "##ental": 9464,
      "##ored": 9465,
      "natural": 9466,
      "hen": 9467,
      "##imate": 9468,
      "jud": 9469,
      "royal": 9470,
      "##ably": 9471,
      "prom": 9472,
      "##oks": 9473,
      "##ician": 9474,
      "##mit": 9475,
      "father": 9476,
      "southern": 9477,
      "ve": 9478,
      "command": 9479,
      "anim": 9480,
      "systems": 9481,
      "##ape": 9482,
      "case": 9483,
      "below": 9484,
      "cross": 9485,
      "##ways": 9486,
      "mile": 9487,
      "relations": 9488,
      "fac": 9489,
      "##olic": 9490,
      "tre": 9491,
      "##ops": 9492,
      "sat": 9493,
      "##band": 9494,
      "wrote": 9495,
      "profess": 9496,
      "185": 9497,
      "territ": 9498,
      "grand": 9499,
      "calif": 9500,
      "##istic": 9501,
      "gener": 9502,
      "news": 9503,
      "##app": 9504,
      "story": 9505,
      "##ham": 9506,
      "californ": 9507,
      "beh": 9508,
      "##lex": 9509,
      "created": 9510,
      "greek": 9511,
      "version": 9512,
      "syn": 9513,
      "league": 9514,
      "anal": 9515,
      "don": 9516,
      "##side": 9517,
      "attempt": 9518,
      "priv": 9519,
      "##ying": 9520,
      "earth": 9521,
      "##ances": 9522,
      "mal": 9523,
      "empire": 9524,
      "having": 9525,
      "##ky": 9526,
      "win": 9527,
      "2020": 9528,
      "sil": 9529,
      "mater": 9530,
      "##ected": 9531,
      "fall": 9532,
      "tur": 9533,
      "middle": 9534,
      "muse": 9535,
      "##gy": 9536,
      "california": 9537,
      "radio": 9538,
      "side": 9539,
      "wal": 9540,
      "member": 9541,
      "constit": 9542,
      "ru": 9543,
      "belie": 9544,
      "america": 9545,
      "dou": 9546,
      "countries": 9547,
      "##ze": 9548,
      "society": 9549,
      "green": 9550,
      "james": 9551,
      "##ike": 9552,
      "species": 9553,
      "science": 9554,
      "mer": 9555,
      "##eign": 9556,
      "##gen": 9557,
      "never": 9558,
      "written": 9559,
      "ber": 9560,
      "##ids": 9561,
      "##ification": 9562,
      "came": 9563,
      "must": 9564,
      "hus": 9565,
      "##ination": 9566,
      "obs": 9567,
      "building": 9568,
      "##ana": 9569,
      "sym": 9570,
      "##ificant": 9571,
      "##ney": 9572,
      "franc": 9573,
      "produced": 9574,
      "2007": 9575,
      "##ention": 9576,
      "##acks": 9577,
      "2008": 9578,
      "##go": 9579,
      "democ": 9580,
      "ox": 9581,
      "sun": 9582,
      "data": 9583,
      "sea": 9584,
      "george": 9585,
      "plan": 9586,
      "theory": 9587,
      "male": 9588,
      "significant": 9589,
      "ren": 9590,
      "others": 9591,
      "sent": 9592,
      "coast": 9593,
      "##ita": 9594,
      "separ": 9595,
      "station": 9596,
      "received": 9597,
      "dut": 9598,
      "##acy": 9599,
      "que": 9600,
      "ship": 9601,
      "help": 9602,
      "admin": 9603,
      "##bor": 9604,
      "product": 9605,
      "died": 9606,
      "meas": 9607,
      "cath": 9608,
      "##etic": 9609,
      "museum": 9610,
      "hill": 9611,
      "function": 9612,
      "pap": 9613,
      "germany": 9614,
      "village": 9615,
      "fire": 9616,
      "thus": 9617,
      "route": 9618,
      "##ergy": 9619,
      "##to": 9620,
      "economic": 9621,
      "ver": 9622,
      "##ability": 9623,
      "appear": 9624,
      "hon": 9625,
      "does": 9626,
      "wind": 9627,
      "charles": 9628,
      "eastern": 9629,
      "philos": 9630,
      "compos": 9631,
      "##burg": 9632,
      "princ": 9633,
      "schools": 9634,
      "played": 9635,
      "##sequ": 9636,
      "louis": 9637,
      "body": 9638,
      "enc": 9639,
      "take": 9640,
      "cop": 9641,
      "##ential": 9642,
      "wee": 9643,
      "club": 9644,
      "individuals": 9645,
      "jour": 9646,
      "##isc": 9647,
      "pot": 9648,
      "groups": 9649,
      "##itive": 9650,
      "##iving": 9651,
      "##ining": 9652,
      "host": 9653,
      "##gar": 9654,
      "full": 9655,
      "housing": 9656,
      "che": 9657,
      "should": 9658,
      "##ising": 9659,
      "##ched": 9660,
      "ps": 9661,
      "##ple": 9662,
      "##oy": 9663,
      "republic": 9664,
      "type": 9665,
      "half": 9666,
      "strong": 9667,
      "##aken": 9668,
      "establish": 9669,
      "transport": 9670,
      "uk": 9671,
      "hom": 9672,
      "2012": 9673,
      "2006": 9674,
      "standard": 9675,
      "ara": 9676,
      "culture": 9677,
      "##urs": 9678,
      "days": 9679,
      "2011": 9680,
      "cost": 9681,
      "##ades": 9682,
      "material": 9683,
      "object": 9684,
      "##ctor": 9685,
      "library": 9686,
      "bc": 9687,
      "2009": 9688,
      "proble": 9689,
      "hall": 9690,
      "##craft": 9691,
      "##ma": 9692,
      "cro": 9693,
      "frequ": 9694,
      "##pec": 9695,
      "transl": 9696,
      "##ains": 9697,
      "mart": 9698,
      "sov": 9699,
      "china": 9700,
      "previous": 9701,
      "suggest": 9702,
      "sometimes": 9703,
      "decl": 9704,
      "et": 9705,
      "site": 9706,
      "##ches": 9707,
      "##uel": 9708,
      "ast": 9709,
      "interest": 9710,
      "minister": 9711,
      "tro": 9712,
      "coll": 9713,
      "cell": 9714,
      "##wards": 9715,
      "##oint": 9716,
      "heav": 9717,
      "making": 9718,
      "street": 9719,
      "##ead": 9720,
      "soviet": 9721,
      "little": 9722,
      "##inese": 9723,
      "compet": 9724,
      "cover": 9725,
      "express": 9726,
      "eth": 9727,
      "described": 9728,
      "##ka": 9729,
      "##emb": 9730,
      "capital": 9731,
      "##ending": 9732,
      "hard": 9733,
      "husband": 9734,
      "robert": 9735,
      "fri": 9736,
      "bal": 9737,
      "italian": 9738,
      "thom": 9739,
      "spanish": 9740,
      "32": 9741,
      "##ware": 9742,
      "next": 9743,
      "184": 9744,
      "liter": 9745,
      "market": 9746,
      "sex": 9747,
      "chinese": 9748,
      "colon": 9749,
      "wood": 9750,
      "##field": 9751,
      "##rew": 9752,
      "35": 9753,
      "##omb": 9754,
      "##ara": 9755,
      "##ense": 9756,
      "polic": 9757,
      "##iple": 9758,
      "##anch": 9759,
      "##aries": 9760,
      "##ators": 9761,
      "##ee": 9762,
      "style": 9763,
      "health": 9764,
      "attack": 9765,
      "fund": 9766,
      "cit": 9767,
      "avail": 9768,
      "2013": 9769,
      "redu": 9770,
      "either": 9771,
      "model": 9772,
      "paul": 9773,
      "sound": 9774,
      "##most": 9775,
      "mac": 9776,
      "deb": 9777,
      "doc": 9778,
      "2005": 9779,
      "##lect": 9780,
      "founded": 9781,
      "fort": 9782,
      "trib": 9783,
      "recogn": 9784,
      "novel": 9785,
      "temper": 9786,
      "information": 9787,
      "rather": 9788,
      "##ipal": 9789,
      "exec": 9790,
      "##cent": 9791,
      "henry": 9792,
      "##orman": 9793,
      "agre": 9794,
      "##ban": 9795,
      "env": 9796,
      "brother": 9797,
      "continued": 9798,
      "champ": 9799,
      "hold": 9800,
      "discover": 9801,
      "scient": 9802,
      "pen": 9803,
      "fail": 9804,
      "invest": 9805,
      "##nal": 9806,
      "##older": 9807,
      "##orpor": 9808,
      "##yr": 9809,
      "183": 9810,
      "##wood": 9811,
      "generally": 9812,
      "david": 9813,
      "actor": 9814,
      "##gress": 9815,
      "##ien": 9816,
      "dig": 9817,
      "sn": 9818,
      "##ico": 9819,
      "energy": 9820,
      "##cle": 9821,
      "element": 9822,
      "current": 9823,
      "##eth": 9824,
      "events": 9825,
      "served": 9826,
      "rights": 9827,
      "2014": 9828,
      "japanese": 9829,
      "fa": 9830,
      "##used": 9831,
      "##uf": 9832,
      "##ude": 9833,
      "administ": 9834,
      "access": 9835,
      "sain": 9836,
      "neg": 9837,
      "food": 9838,
      "throughout": 9839,
      "lower": 9840,
      "mun": 9841,
      "di": 9842,
      "ten": 9843,
      "##self": 9844,
      "range": 9845,
      "position": 9846,
      "vide": 9847,
      "text": 9848,
      "study": 9849,
      "deter": 9850,
      "##iron": 9851,
      "once": 9852,
      "employ": 9853,
      "alone": 9854,
      "chem": 9855,
      "log": 9856,
      "##tic": 9857,
      "2015": 9858,
      "pac": 9859,
      "performan": 9860,
      "##val": 9861,
      "##ounced": 9862,
      "##idence": 9863,
      "young": 9864,
      "##ength": 9865,
      "trade": 9866,
      "color": 9867,
      "##asing": 9868,
      "upon": 9869,
      "commit": 9870,
      "services": 9871,
      "domin": 9872,
      "formed": 9873,
      "hor": 9874,
      "racial": 9875,
      "sem": 9876,
      "##oms": 9877,
      "##ta": 9878,
      "impro": 9879,
      "program": 9880,
      "##ique": 9881,
      "ancient": 9882,
      "emper": 9883,
      "secret": 9884,
      "##face": 9885,
      "##gin": 9886,
      "wall": 9887,
      "espec": 9888,
      "pet": 9889,
      "20th": 9890,
      "tex": 9891,
      "available": 9892,
      "himself": 9893,
      "pred": 9894,
      "hispan": 9895,
      "desp": 9896,
      "especially": 9897,
      "##form": 9898,
      "network": 9899,
      "##hers": 9900,
      "instead": 9901,
      "liber": 9902,
      "books": 9903,
      "fer": 9904,
      "democr": 9905,
      "distrib": 9906,
      "makeup": 9907,
      "##umb": 9908,
      "2016": 9909,
      "wil": 9910,
      "##ked": 9911,
      "foreign": 9912,
      "aud": 9913,
      "norm": 9914,
      "##less": 9915,
      "##ached": 9916,
      "##com": 9917,
      "2004": 9918,
      "##here": 9919,
      "##cul": 9920,
      "approxim": 9921,
      "live": 9922,
      "artic": 9923,
      "dam": 9924,
      "ground": 9925,
      "householder": 9926,
      "across": 9927,
      "above": 9928,
      "flor": 9929,
      "environ": 9930,
      "##ole": 9931,
      "movement": 9932,
      "##itect": 9933,
      "##den": 9934,
      "federal": 9935,
      "election": 9936,
      "spread": 9937,
      "tar": 9938,
      "ach": 9939,
      "offer": 9940,
      "higher": 9941,
      "prote": 9942,
      "##ensive": 9943,
      "russian": 9944,
      "night": 9945,
      "becom": 9946,
      "architect": 9947,
      "anti": 9948,
      "tax": 9949,
      "catholic": 9950,
      "##iers": 9951,
      "possible": 9952,
      "##rael": 9953,
      "##nes": 9954,
      "languages": 9955,
      "poet": 9956,
      "##amb": 9957,
      "seen": 9958,
      "change": 9959,
      "account": 9960,
      "defe": 9961,
      "least": 9962,
      "politician": 9963,
      "##ych": 9964,
      "commission": 9965,
      "##ster": 9966,
      "##edi": 9967,
      "find": 9968,
      "2018": 9969,
      "##rug": 9970,
      "##hib": 9971,
      "##ope": 9972,
      "related": 9973,
      "complex": 9974,
      "##ago": 9975,
      "subject": 9976,
      "parts": 9977,
      "occup": 9978,
      "historical": 9979,
      "schol": 9980,
      "##ey": 9981,
      "wife": 9982,
      "##ael": 9983,
      "mother": 9984,
      "alex": 9985,
      "wid": 9986,
      "##ucle": 9987,
      "##aps": 9988,
      "##utions": 9989,
      "viol": 9990,
      "cd": 9991,
      "##pr": 9992,
      "33": 9993,
      "2017": 9994,
      "canada": 9995,
      "terms": 9996,
      "bud": 9997,
      "##ateg": 9998,
      "mach": 9999,
      "rate": 10000,
      "today": 10001,
      "key": 10002,
      "put": 10003,
      "fig": 10004,
      "##ements": 10005,
      "60": 10006,
      "##anted": 10007,
      "mary": 10008,
      "concept": 10009,
      "##ii": 10010,
      "##gn": 10011,
      "##ffic": 10012,
      "36": 10013,
      "director": 10014,
      "israel": 10015,
      "personal": 10016,
      "2019": 10017,
      "lost": 10018,
      "department": 10019,
      "ul": 10020,
      "opt": 10021,
      "2001": 10022,
      "bay": 10023,
      "bank": 10024,
      "moved": 10025,
      "dom": 10026,
      "revolution": 10027,
      "##apt": 10028,
      "dyn": 10029,
      "asian": 10030,
      "diff": 10031,
      "##itan": 10032,
      "certain": 10033,
      "accept": 10034,
      "includes": 10035,
      "jose": 10036,
      "mex": 10037,
      "eight": 10038,
      "##ained": 10039,
      "regard": 10040,
      "##aves": 10041,
      "##ceed": 10042,
      "know": 10043,
      "reb": 10044,
      "##ani": 10045,
      "despite": 10046,
      "board": 10047,
      "meet": 10048,
      "step": 10049,
      "couples": 10050,
      "singer": 10051,
      "emperor": 10052,
      "##arily": 10053,
      "##west": 10054,
      "big": 10055,
      "afric": 10056,
      "religious": 10057,
      "students": 10058,
      "video": 10059,
      "almost": 10060,
      "hispanic": 10061,
      "##ula": 10062,
      "##uation": 10063,
      "reported": 10064,
      "computer": 10065,
      "entire": 10066,
      "##chan": 10067,
      "historic": 10068,
      "frank": 10069,
      "india": 10070,
      "private": 10071,
      "phot": 10072,
      "##uit": 10073,
      "ball": 10074,
      "nucle": 10075,
      "inte": 10076,
      "prime": 10077,
      "2002": 10078,
      "introduced": 10079,
      "front": 10080,
      "##isl": 10081,
      "##eder": 10082,
      "##rap": 10083,
      "##iff": 10084,
      "ben": 10085,
      "vo": 10086,
      "mc": 10087,
      "fest": 10088,
      "cur": 10089,
      "laun": 10090,
      "##iest": 10091,
      "##wor": 10092,
      "##aff": 10093,
      "critic": 10094,
      "title": 10095,
      "hit": 10096,
      "valley": 10097,
      "wat": 10098,
      "airport": 10099,
      "soft": 10100,
      "##atory": 10101,
      "2003": 10102,
      "##ume": 10103,
      "richard": 10104,
      "##itor": 10105,
      "magn": 10106,
      "someone": 10107,
      "##ota": 10108,
      "traditional": 10109,
      "journal": 10110,
      "##ours": 10111,
      "##lands": 10112,
      "80": 10113,
      "##ero": 10114,
      "##ites": 10115,
      "media": 10116,
      "abs": 10117,
      "washing": 10118,
      "hot": 10119,
      "parl": 10120,
      "commerc": 10121,
      "followed": 10122,
      "past": 10123,
      "chief": 10124,
      "contrib": 10125,
      "sam": 10126,
      "##cast": 10127,
      "##ex": 10128,
      "originally": 10129,
      "gar": 10130,
      "consist": 10131,
      "tal": 10132,
      "prob": 10133,
      "##utes": 10134,
      "origin": 10135,
      "environment": 10136,
      "climate": 10137,
      "whose": 10138,
      "##aign": 10139,
      "capt": 10140,
      "rom": 10141,
      "##itz": 10142,
      "##of": 10143,
      "australia": 10144,
      "applic": 10145,
      "thomas": 10146,
      "seven": 10147,
      "kh": 10148,
      "glo": 10149,
      "dutch": 10150,
      "card": 10151,
      "canadian": 10152,
      "association": 10153,
      "indic": 10154,
      "islands": 10155,
      "mathem": 10156,
      "lu": 10157,
      "fav": 10158,
      "34": 10159,
      "division": 10160,
      "plant": 10161,
      "except": 10162,
      "nar": 10163,
      "sett": 10164,
      "##key": 10165,
      "los": 10166,
      "surv": 10167,
      "##onst": 10168,
      "##ida": 10169,
      "oppos": 10170,
      "pacific": 10171,
      "##writ": 10172,
      "aircraft": 10173,
      "mur": 10174,
      "construction": 10175,
      "latin": 10176,
      "means": 10177,
      "##ania": 10178,
      "seat": 10179,
      "37": 10180,
      "##erous": 10181,
      "industry": 10182,
      "eventually": 10183,
      "fut": 10184,
      "##ming": 10185,
      "washington": 10186,
      "rob": 10187,
      "elected": 10188,
      "respect": 10189,
      "##itar": 10190,
      "19th": 10191,
      "rh": 10192,
      "notes": 10193,
      "taken": 10194,
      "tom": 10195,
      "epis": 10196,
      "congress": 10197,
      "surr": 10198,
      "africa": 10199,
      "campaign": 10200,
      "geography": 10201,
      "fle": 10202,
      "paris": 10203,
      "theat": 10204,
      "psych": 10205,
      "itself": 10206,
      "travel": 10207,
      "##ufact": 10208,
      "independent": 10209,
      "successful": 10210,
      "foc": 10211,
      "code": 10212,
      "##heast": 10213,
      "ess": 10214,
      "manufact": 10215,
      "1999": 10216,
      "parliam": 10217,
      "##rial": 10218,
      "rap": 10219,
      "source": 10220,
      "constitution": 10221,
      "mel": 10222,
      "went": 10223,
      "##leg": 10224,
      "leading": 10225,
      "##atives": 10226,
      "rank": 10227,
      "condu": 10228,
      "maintain": 10229,
      "pover": 10230,
      "bure": 10231,
      "ze": 10232,
      "181": 10233,
      "##pre": 10234,
      "provided": 10235,
      "##ems": 10236,
      "poverty": 10237,
      "##erson": 10238,
      "summer": 10239,
      "characters": 10240,
      "##tt": 10241,
      "qual": 10242,
      "##aut": 10243,
      "38": 10244,
      "opened": 10245,
      "##ving": 10246,
      "percent": 10247,
      "structure": 10248,
      "clos": 10249,
      "##bal": 10250,
      "actress": 10251,
      "##ror": 10252,
      "sus": 10253,
      "cho": 10254,
      "associated": 10255,
      "scre": 10256,
      "##ols": 10257,
      "##ingu": 10258,
      "disp": 10259,
      "forms": 10260,
      "mad": 10261,
      "recorded": 10262,
      "parliament": 10263,
      "action": 10264,
      "rule": 10265,
      "##ett": 10266,
      "displ": 10267,
      "##gypt": 10268,
      "hyd": 10269,
      "##ership": 10270,
      "technology": 10271,
      "creat": 10272,
      "scott": 10273,
      "lived": 10274,
      "##ishing": 10275,
      "##ering": 10276,
      "features": 10277,
      "grad": 10278,
      "numbers": 10279,
      "corn": 10280,
      "##ote": 10281,
      "bureau": 10282,
      "##oney": 10283,
      "saint": 10284,
      "egypt": 10285,
      "##orporated": 10286,
      "exc": 10287,
      "adop": 10288,
      "fight": 10289,
      "killed": 10290,
      "182": 10291,
      "subst": 10292,
      "speed": 10293,
      "##road": 10294,
      "beginning": 10295,
      "economy": 10296,
      "altern": 10297,
      "notable": 10298,
      "self": 10299,
      "review": 10300,
      "gro": 10301,
      "latino": 10302,
      "##ises": 10303,
      "##berg": 10304,
      "thought": 10305,
      "announced": 10306,
      "##elling": 10307,
      "influence": 10308,
      "centre": 10309,
      "##uments": 10310,
      "cultural": 10311,
      "programm": 10312,
      "elements": 10313,
      "outside": 10314,
      "##nam": 10315,
      "increased": 10316,
      "##urity": 10317,
      "##mar": 10318,
      "evidence": 10319,
      "remained": 10320,
      "micro": 10321,
      "arab": 10322,
      "months": 10323,
      "primary": 10324,
      "symb": 10325,
      "90": 10326,
      "territory": 10327,
      "achie": 10328,
      "residents": 10329,
      "##cing": 10330,
      "##mon": 10331,
      "constant": 10332,
      "forest": 10333,
      "pan": 10334,
      "performance": 10335,
      "reform": 10336,
      "demograph": 10337,
      "##ha": 10338,
      "say": 10339,
      "##ki": 10340,
      "sources": 10341,
      "designed": 10342,
      "saw": 10343,
      "close": 10344,
      "academy": 10345,
      "value": 10346,
      "##asc": 10347,
      "##ropol": 10348,
      "stra": 10349,
      "1998": 10350,
      "nature": 10351,
      "respons": 10352,
      "##ilities": 10353,
      "mechan": 10354,
      "week": 10355,
      "meaning": 10356,
      "career": 10357,
      "appoint": 10358,
      "virgin": 10359,
      "appeared": 10360,
      "settle": 10361,
      "studies": 10362,
      "daugh": 10363,
      "##hood": 10364,
      "##rupt": 10365,
      "neigh": 10366,
      "subsequ": 10367,
      "##sel": 10368,
      "70": 10369,
      "uses": 10370,
      "names": 10371,
      "alexand": 10372,
      "gal": 10373,
      "##ansas": 10374,
      "##ulation": 10375,
      "particularly": 10376,
      "legisl": 10377,
      "commercial": 10378,
      "##icult": 10379,
      "relationship": 10380,
      "ord": 10381,
      "##lement": 10382,
      "cut": 10383,
      "working": 10384,
      "governor": 10385,
      "started": 10386,
      "bound": 10387,
      "convent": 10388,
      "peace": 10389,
      "gave": 10390,
      "tim": 10391,
      "reading": 10392,
      "estim": 10393,
      "pay": 10394,
      "##king": 10395,
      "era": 10396,
      "##ference": 10397,
      "conserv": 10398,
      "quest": 10399,
      "##ym": 10400,
      "arts": 10401,
      "mix": 10402,
      "border": 10403,
      "##ump": 10404,
      "##iding": 10405,
      "##rated": 10406,
      "referred": 10407,
      "lay": 10408,
      "1996": 10409,
      "words": 10410,
      "van": 10411,
      "provide": 10412,
      "records": 10413,
      "swed": 10414,
      "ham": 10415,
      "pit": 10416,
      "deg": 10417,
      "blue": 10418,
      "sequ": 10419,
      "australian": 10420,
      "peter": 10421,
      "##ij": 10422,
      "jewish": 10423,
      "##wer": 10424,
      "##bon": 10425,
      "##stand": 10426,
      "##iting": 10427,
      "concern": 10428,
      "iii": 10429,
      "highest": 10430,
      "majority": 10431,
      "##reg": 10432,
      "##antic": 10433,
      "italy": 10434,
      "##odes": 10435,
      "##ls": 10436,
      "lear": 10437,
      "police": 10438,
      "able": 10439,
      "km2": 10440,
      "1997": 10441,
      "##ado": 10442,
      "specific": 10443,
      "writing": 10444,
      "ven": 10445,
      "allowed": 10446,
      "typically": 10447,
      "emb": 10448,
      "spir": 10449,
      "oly": 10450,
      "cann": 10451,
      "highway": 10452,
      "41": 10453,
      "britain": 10454,
      "cand": 10455,
      "connect": 10456,
      "##put": 10457,
      "communities": 10458,
      "fair": 10459,
      "39": 10460,
      "##action": 10461,
      "future": 10462,
      "pun": 10463,
      "##for": 10464,
      "##uck": 10465,
      "date": 10466,
      "required": 10467,
      "angel": 10468,
      "capita": 10469,
      "destro": 10470,
      "policy": 10471,
      "olymp": 10472,
      "get": 10473,
      "##ened": 10474,
      "gun": 10475,
      "gas": 10476,
      "##umn": 10477,
      "birth": 10478,
      "communic": 10479,
      "prec": 10480,
      "##rian": 10481,
      "philosoph": 10482,
      "minor": 10483,
      "##ysis": 10484,
      "particip": 10485,
      "tor": 10486,
      "fif": 10487,
      "cases": 10488,
      "##che": 10489,
      "##li": 10490,
      "ho": 10491,
      "via": 10492,
      "bul": 10493,
      "42": 10494,
      "##ights": 10495,
      "shar": 10496,
      "returned": 10497,
      "instr": 10498,
      "regular": 10499,
      "fell": 10500,
      "atl": 10501,
      "love": 10502,
      "plat": 10503,
      "pow": 10504,
      "wr": 10505,
      "writer": 10506,
      "surface": 10507,
      "prince": 10508,
      "##lam": 10509,
      "chap": 10510,
      "mos": 10511,
      "mission": 10512,
      "lines": 10513,
      "musical": 10514,
      "cele": 10515,
      "prior": 10516,
      "growth": 10517,
      "lord": 10518,
      "limited": 10519,
      "1992": 10520,
      "electron": 10521,
      "##iment": 10522,
      "##usion": 10523,
      "1994": 10524,
      "round": 10525,
      "##inct": 10526,
      "document": 10527,
      "sports": 10528,
      "irish": 10529,
      "##olf": 10530,
      "release": 10531,
      "loss": 10532,
      "professional": 10533,
      "##aker": 10534,
      "leader": 10535,
      "##men": 10536,
      "nations": 10537,
      "iv": 10538,
      "security": 10539,
      "mont": 10540,
      "increasing": 10541,
      "kar": 10542,
      "versus": 10543,
      "brought": 10544,
      "##ties": 10545,
      "away": 10546,
      "companies": 10547,
      "myth": 10548,
      "##bit": 10549,
      "1995": 10550,
      "legal": 10551,
      "clear": 10552,
      "points": 10553,
      "amount": 10554,
      "##bc": 10555,
      "agric": 10556,
      "gard": 10557,
      "lik": 10558,
      "hu": 10559,
      "1990": 10560,
      "bridge": 10561,
      "spring": 10562,
      "stage": 10563,
      "##ush": 10564,
      "too": 10565,
      "financ": 10566,
      "ban": 10567,
      "tv": 10568,
      "georg": 10569,
      "##hab": 10570,
      "acqu": 10571,
      "500": 10572,
      "demographics": 10573,
      "##enced": 10574,
      "##ection": 10575,
      "oil": 10576,
      "michael": 10577,
      "##istan": 10578,
      "difficult": 10579,
      "greater": 10580,
      "types": 10581,
      "##atively": 10582,
      "defin": 10583,
      "plann": 10584,
      "chann": 10585,
      "##ulf": 10586,
      "emerg": 10587,
      "queen": 10588,
      "##ores": 10589,
      "screen": 10590,
      "players": 10591,
      "pra": 10592,
      "cause": 10593,
      "munic": 10594,
      "chic": 10595,
      "os": 10596,
      "approximately": 10597,
      "##ques": 10598,
      "ha": 10599,
      "##ift": 10600,
      "dise": 10601,
      "##ground": 10602,
      "blood": 10603,
      "larger": 10604,
      "##ibility": 10605,
      "rat": 10606,
      "stated": 10607,
      "##edy": 10608,
      "labor": 10609,
      "might": 10610,
      "sele": 10611,
      "##pper": 10612,
      "print": 10613,
      "##ios": 10614,
      "##igan": 10615,
      "brown": 10616,
      "ca": 10617,
      "caused": 10618,
      "##ropolitan": 10619,
      "wild": 10620,
      "##fl": 10621,
      "agricult": 10622,
      "francis": 10623,
      "increase": 10624,
      "online": 10625,
      "##ga": 10626,
      "purp": 10627,
      "##ips": 10628,
      "assemb": 10629,
      "collection": 10630,
      "electr": 10631,
      "##ned": 10632,
      "##lict": 10633,
      "believed": 10634,
      "added": 10635,
      "municipal": 10636,
      "##view": 10637,
      "##orial": 10638,
      "earlier": 10639,
      "bene": 10640,
      "smith": 10641,
      "mountain": 10642,
      "divid": 10643,
      "##lim": 10644,
      "##ayed": 10645,
      "statist": 10646,
      "magaz": 10647,
      "75": 10648,
      "pie": 10649,
      "##lied": 10650,
      "come": 10651,
      "##ano": 10652,
      "regional": 10653,
      "##ension": 10654,
      "##ishop": 10655,
      "##kn": 10656,
      "nation": 10657,
      "##ands": 10658,
      "changes": 10659,
      "mostly": 10660,
      "organization": 10661,
      "imper": 10662,
      "remov": 10663,
      "##erved": 10664,
      "##de": 10665,
      "saf": 10666,
      "rome": 10667,
      "champions": 10668,
      "section": 10669,
      "festival": 10670,
      "unit": 10671,
      "1991": 10672,
      "180": 10673,
      "##istry": 10674,
      "adj": 10675,
      "length": 10676,
      "esc": 10677,
      "operation": 10678,
      "designated": 10679,
      "##inois": 10680,
      "##ste": 10681,
      "replaced": 10682,
      "1993": 10683,
      "ol": 10684,
      "continu": 10685,
      "webs": 10686,
      "industrial": 10687,
      "##ini": 10688,
      "theor": 10689,
      "##ona": 10690,
      "quant": 10691,
      "179": 10692,
      "##ffer": 10693,
      "dim": 10694,
      "illinois": 10695,
      "wars": 10696,
      "celebr": 10697,
      "medical": 10698,
      "integr": 10699,
      "electric": 10700,
      "prevent": 10701,
      "physical": 10702,
      "soon": 10703,
      "oce": 10704,
      "bow": 10705,
      "sac": 10706,
      "48": 10707,
      "##aged": 10708,
      "##ested": 10709,
      "laws": 10710,
      "##itude": 10711,
      "kore": 10712,
      "ec": 10713,
      "tun": 10714,
      "gall": 10715,
      "defined": 10716,
      "complete": 10717,
      "deal": 10718,
      "ult": 10719,
      "counties": 10720,
      "observ": 10721,
      "therefore": 10722,
      "##uth": 10723,
      "victor": 10724,
      "recent": 10725,
      "daughter": 10726,
      "effects": 10727,
      "ris": 10728,
      "##uk": 10729,
      "accom": 10730,
      "corpor": 10731,
[...]
